<unk>	0
<|begin_of_text|>	0
<|end_of_text|>	0
<0x00>	0
<0x01>	0
<0x02>	0
<0x03>	0
<0x04>	0
<0x05>	0
<0x06>	0
<0x07>	0
<0x08>	0
<0x09>	0
<0x0A>	0
<0x0B>	0
<0x0C>	0
<0x0D>	0
<0x0E>	0
<0x0F>	0
<0x10>	0
<0x11>	0
<0x12>	0
<0x13>	0
<0x14>	0
<0x15>	0
<0x16>	0
<0x17>	0
<0x18>	0
<0x19>	0
<0x1A>	0
<0x1B>	0
<0x1C>	0
<0x1D>	0
<0x1E>	0
<0x1F>	0
<0x20>	0
<0x21>	0
<0x22>	0
<0x23>	0
<0x24>	0
<0x25>	0
<0x26>	0
<0x27>	0
<0x28>	0
<0x29>	0
<0x2A>	0
<0x2B>	0
<0x2C>	0
<0x2D>	0
<0x2E>	0
<0x2F>	0
<0x30>	0
<0x31>	0
<0x32>	0
<0x33>	0
<0x34>	0
<0x35>	0
<0x36>	0
<0x37>	0
<0x38>	0
<0x39>	0
<0x3A>	0
<0x3B>	0
<0x3C>	0
<0x3D>	0
<0x3E>	0
<0x3F>	0
<0x40>	0
<0x41>	0
<0x42>	0
<0x43>	0
<0x44>	0
<0x45>	0
<0x46>	0
<0x47>	0
<0x48>	0
<0x49>	0
<0x4A>	0
<0x4B>	0
<0x4C>	0
<0x4D>	0
<0x4E>	0
<0x4F>	0
<0x50>	0
<0x51>	0
<0x52>	0
<0x53>	0
<0x54>	0
<0x55>	0
<0x56>	0
<0x57>	0
<0x58>	0
<0x59>	0
<0x5A>	0
<0x5B>	0
<0x5C>	0
<0x5D>	0
<0x5E>	0
<0x5F>	0
<0x60>	0
<0x61>	0
<0x62>	0
<0x63>	0
<0x64>	0
<0x65>	0
<0x66>	0
<0x67>	0
<0x68>	0
<0x69>	0
<0x6A>	0
<0x6B>	0
<0x6C>	0
<0x6D>	0
<0x6E>	0
<0x6F>	0
<0x70>	0
<0x71>	0
<0x72>	0
<0x73>	0
<0x74>	0
<0x75>	0
<0x76>	0
<0x77>	0
<0x78>	0
<0x79>	0
<0x7A>	0
<0x7B>	0
<0x7C>	0
<0x7D>	0
<0x7E>	0
<0x7F>	0
<0x80>	0
<0x81>	0
<0x82>	0
<0x83>	0
<0x84>	0
<0x85>	0
<0x86>	0
<0x87>	0
<0x88>	0
<0x89>	0
<0x8A>	0
<0x8B>	0
<0x8C>	0
<0x8D>	0
<0x8E>	0
<0x8F>	0
<0x90>	0
<0x91>	0
<0x92>	0
<0x93>	0
<0x94>	0
<0x95>	0
<0x96>	0
<0x97>	0
<0x98>	0
<0x99>	0
<0x9A>	0
<0x9B>	0
<0x9C>	0
<0x9D>	0
<0x9E>	0
<0x9F>	0
<0xA0>	0
<0xA1>	0
<0xA2>	0
<0xA3>	0
<0xA4>	0
<0xA5>	0
<0xA6>	0
<0xA7>	0
<0xA8>	0
<0xA9>	0
<0xAA>	0
<0xAB>	0
<0xAC>	0
<0xAD>	0
<0xAE>	0
<0xAF>	0
<0xB0>	0
<0xB1>	0
<0xB2>	0
<0xB3>	0
<0xB4>	0
<0xB5>	0
<0xB6>	0
<0xB7>	0
<0xB8>	0
<0xB9>	0
<0xBA>	0
<0xBB>	0
<0xBC>	0
<0xBD>	0
<0xBE>	0
<0xBF>	0
<0xC0>	0
<0xC1>	0
<0xC2>	0
<0xC3>	0
<0xC4>	0
<0xC5>	0
<0xC6>	0
<0xC7>	0
<0xC8>	0
<0xC9>	0
<0xCA>	0
<0xCB>	0
<0xCC>	0
<0xCD>	0
<0xCE>	0
<0xCF>	0
<0xD0>	0
<0xD1>	0
<0xD2>	0
<0xD3>	0
<0xD4>	0
<0xD5>	0
<0xD6>	0
<0xD7>	0
<0xD8>	0
<0xD9>	0
<0xDA>	0
<0xDB>	0
<0xDC>	0
<0xDD>	0
<0xDE>	0
<0xDF>	0
<0xE0>	0
<0xE1>	0
<0xE2>	0
<0xE3>	0
<0xE4>	0
<0xE5>	0
<0xE6>	0
<0xE7>	0
<0xE8>	0
<0xE9>	0
<0xEA>	0
<0xEB>	0
<0xEC>	0
<0xED>	0
<0xEE>	0
<0xEF>	0
<0xF0>	0
<0xF1>	0
<0xF2>	0
<0xF3>	0
<0xF4>	0
<0xF5>	0
<0xF6>	0
<0xF7>	0
<0xF8>	0
<0xF9>	0
<0xFA>	0
<0xFB>	0
<0xFC>	0
<0xFD>	0
<0xFE>	0
<0xFF>	0
▁t	-0
▁a	-1
he	-2
in	-3
re	-4
▁the	-5
on	-6
er	-7
▁o	-8
at	-9
▁s	-10
en	-11
▁c	-12
▁w	-13
es	-14
is	-15
nd	-16
it	-17
or	-18
▁p	-19
al	-20
▁b	-21
ed	-22
▁of	-23
an	-24
▁f	-25
ing	-26
▁in	-27
ou	-28
ar	-29
▁m	-30
▁and	-31
▁to	-32
ic	-33
▁d	-34
ion	-35
le	-36
ro	-37
as	-38
▁h	-39
ent	-40
▁th	-41
ct	-42
▁e	-43
il	-44
▁re	-45
▁T	-46
om	-47
ve	-48
▁l	-49
st	-50
▁n	-51
ly	-52
▁be	-53
▁is	-54
se	-55
ol	-56
▁g	-57
▁A	-58
ation	-59
im	-60
id	-61
et	-62
ut	-63
ce	-64
▁S	-65
ot	-66
ur	-67
ra	-68
ch	-69
▁I	-70
ow	-71
▁for	-72
ig	-73
▁u	-74
▁that	-75
▁C	-76
▁on	-77
▁st	-78
ver	-79
▁The	-80
▁y	-81
ir	-82
ul	-83
ay	-84
am	-85
▁as	-86
ith	-87
el	-88
ad	-89
▁pro	-90
her	-91
▁are	-92
▁con	-93
▁an	-94
▁with	-95
▁M	-96
if	-97
▁you	-98
▁wh	-99
▁it	-100
▁or	-101
▁al	-102
▁P	-103
od	-104
ter	-105
▁(	-106
ment	-107
▁B	-108
ge	-109
th	-110
▁W	-111
op	-112
ate	-113
ist	-114
▁de	-115
ers	-116
ess	-117
▁H	-118
ill	-119
ies	-120
▁he	-121
ab	-122
▁ex	-123
▁su	-124
ect	-125
▁we	-126
▁com	-127
ore	-128
us	-129
ity	-130
est	-131
▁ha	-132
res	-133
ive	-134
ac	-135
▁D	-136
um	-137
rom	-138
▁v	-139
ld	-140
os	-141
ke	-142
▁by	-143
▁E	-144
ant	-145
▁F	-146
em	-147
qu	-148
iv	-149
ain	-150
▁R	-151
nt	-152
▁at	-153
pp	-154
igh	-155
▁can	-156
▁was	-157
▁-	-158
ud	-159
▁from	-160
▁ch	-161
oc	-162
▁r	-163
ort	-164
and	-165
▁ne	-166
▁N	-167
ial	-168
▁se	-169
▁G	-170
▁L	-171
ure	-172
un	-173
▁not	-174
▁le	-175
ical	-176
art	-177
▁have	-178
ri	-179
og	-180
▁sh	-181
▁en	-182
▁sp	-183
▁this	-184
▁O	-185
pt	-186
▁In	-187
ight	-188
▁wor	-189
▁ab	-190
ich	-191
rou	-192
red	-193
all	-194
ions	-195
ould	-196
ther	-197
ost	-198
gh	-199
our	-200
ome	-201
du	-202
▁im	-203
ated	-204
per	-205
ine	-206
▁us	-207
▁pl	-208
ag	-209
out	-210
ard	-211
act	-212
▁their	-213
ell	-214
ff	-215
ide	-216
▁int	-217
pl	-218
▁J	-219
▁Th	-220
▁U	-221
ans	-222
ear	-223
ast	-224
age	-225
ak	-226
ust	-227
▁your	-228
▁which	-229
▁k	-230
▁whe	-231
▁they	-232
ous	-233
iz	-234
ec	-235
ood	-236
▁ad	-237
ult	-238
▁all	-239
▁will	-240
▁cont	-241
ib	-242
▁inc	-243
cc	-244
end	-245
▁dis	-246
ru	-247
▁comp	-248
▁more	-249
ap	-250
▁“	-251
▁res	-252
ong	-253
ip	-254
vel	-255
ations	-256
ia	-257
▁has	-258
ew	-259
ere	-260
▁do	-261
so	-262
orm	-263
ary	-264
ater	-265
able	-266
ence	-267
are	-268
ild	-269
▁man	-270
▁cl	-271
▁other	-272
ual	-273
ks	-274
▁but	-275
▁were	-276
ry	-277
ind	-278
▁per	-279
▁te	-280
▁imp	-281
ents	-282
ep	-283
ance	-284
▁me	-285
ach	-286
▁also	-287
▁one	-288
ose	-289
reat	-290
ign	-291
ake	-292
ress	-293
ass	-294
ase	-295
av	-296
▁St	-297
au	-298
▁j	-299
▁so	-300
ction	-301
ition	-302
▁It	-303
▁out	-304
ice	-305
▁un	-306
ber	-307
▁app	-308
ime	-309
one	-310
very	-311
▁ar	-312
▁part	-313
▁This	-314
▁stud	-315
▁about	-316
▁"	-317
ord	-318
▁ev	-319
ace	-320
ens	-321
ory	-322
ount	-323
▁K	-324
ok	-325
ish	-326
ire	-327
▁who	-328
▁pe	-329
▁inf	-330
ame	-331
ack	-332
).	-333
▁sy	-334
▁his	-335
▁comm	-336
ors	-337
▁sc	-338
ue	-339
▁them	-340
ub	-341
ite	-342
ang	-343
ces	-344
ike	-345
ound	-346
ree	-347
▁pre	-348
olog	-349
now	-350
low	-351
▁bec	-352
▁Ch	-353
▁up	-354
ric	-355
▁may	-356
▁qu	-357
▁than	-358
iff	-359
ie	-360
ile	-361
ays	-362
ople	-363
▁rec	-364
▁some	-365
▁year	-366
▁V	-367
ail	-368
▁when	-369
▁been	-370
ates	-371
▁Y	-372
nder	-373
▁there	-374
ings	-375
ian	-376
▁its	-377
mer	-378
▁into	-379
rit	-380
ren	-381
▁go	-382
▁work	-383
ough	-384
▁tra	-385
▁ag	-386
▁time	-387
▁over	-388
ph	-389
▁diff	-390
▁these	-391
▁how	-392
▁people	-393
vers	-394
erv	-395
▁ro	-396
te	-397
rough	-398
ally	-399
ons	-400
lud	-401
ause	-402
▁cons	-403
▁use	-404
▁col	-405
▁tr	-406
ond	-407
ific	-408
▁ra	-409
ms	-410
ll	-411
tern	-412
▁our	-413
▁bet	-414
▁had	-415
ove	-416
▁act	-417
we	-418
alth	-419
ys	-420
▁most	-421
▁like	-422
int	-423
ities	-424
▁under	-425
▁know	-426
irst	-427
▁bl	-428
▁sa	-429
lic	-430
▁acc	-431
ments	-432
lect	-433
▁des	-434
row	-435
ject	-436
ning	-437
les	-438
ious	-439
ook	-440
▁would	-441
velop	-442
stem	-443
ffect	-444
▁new	-445
▁need	-446
▁tw	-447
▁rel	-448
▁such	-449
▁Wh	-450
▁if	-451
▁rep	-452
▁child	-453
ient	-454
▁hel	-455
▁gen	-456
▁includ	-457
▁any	-458
ational	-459
cess	-460
ob	-461
ative	-462
ple	-463
hed	-464
▁pr	-465
ular	-466
▁help	-467
▁what	-468
ced	-469
▁ph	-470
▁used	-471
▁produ	-472
yp	-473
ating	-474
▁Un	-475
▁only	-476
ool	-477
ov	-478
▁ind	-479
▁prov	-480
▁no	-481
▁many	-482
▁develop	-483
▁am	-484
▁off	-485
▁through	-486
▁first	-487
▁fe	-488
▁spec	-489
),	-490
ath	-491
▁ac	-492
▁As	-493
fter	-494
ise	-495
round	-496
ark	-497
oss	-498
▁di	-499
▁em	-500
▁reg	-501
ics	-502
uc	-503
▁exp	-504
▁po	-505
uring	-506
eth	-507
▁differe	-508
▁system	-509
hen	-510
▁He	-511
▁two	-512
ful	-513
erm	-514
ts	-515
rib	-516
oth	-517
ink	-518
▁–	-519
iss	-520
▁ob	-521
ne	-522
rop	-523
ility	-524
▁dec	-525
als	-526
old	-527
▁ass	-528
ased	-529
ible	-530
▁add	-531
▁att	-532
ange	-533
▁sur	-534
ten	-535
▁should	-536
ower	-537
ures	-538
arch	-539
▁well	-540
ife	-541
ble	-542
fore	-543
ween	-544
ert	-545
ract	-546
▁fl	-547
▁supp	-548
▁water	-549
▁rem	-550
ng	-551
ram	-552
▁inv	-553
▁sub	-554
aw	-555
own	-556
▁co	-557
▁health	-558
▁years	-559
gan	-560
▁between	-561
▁sm	-562
ied	-563
ution	-564
ade	-565
sel	-566
▁high	-567
▁could	-568
hes	-569
▁pres	-570
cy	-571
▁where	-572
its	-573
ever	-574
ick	-575
▁trans	-576
▁make	-577
▁rese	-578
wn	-579
▁If	-580
ants	-581
ily	-582
▁get	-583
▁pers	-584
▁bu	-585
uch	-586
▁import	-587
xt	-588
chool	-589
▁We	-590
ology	-591
chn	-592
form	-593
▁her	-594
ural	-595
ience	-596
ident	-597
▁ear	-598
▁mod	-599
▁form	-600
▁inter	-601
ting	-602
ited	-603
▁num	-604
▁pol	-605
▁inst	-606
oci	-607
▁How	-608
meric	-609
▁exam	-610
▁Al	-611
ines	-612
▁disc	-613
ins	-614
land	-615
▁different	-616
▁An	-617
▁lear	-618
▁effect	-619
ata	-620
▁For	-621
ef	-622
▁found	-623
ness	-624
▁because	-625
ists	-626
ict	-627
▁sim	-628
▁exper	-629
▁car	-630
▁after	-631
ont	-632
ually	-633
▁long	-634
▁world	-635
ism	-636
▁lar	-637
▁med	-638
▁even	-639
▁incre	-640
▁very	-641
▁cent	-642
▁then	-643
gy	-644
cept	-645
▁just	-646
oy	-647
ft	-648
ature	-649
▁count	-650
▁ed	-651
▁way	-652
▁det	-653
▁typ	-654
▁resp	-655
▁hum	-656
get	-657
▁inform	-658
▁Americ	-659
aking	-660
urn	-661
▁sign	-662
vent	-663
ically	-664
▁var	-665
other	-666
▁see	-667
ety	-668
▁ke	-669
▁gener	-670
ivers	-671
ives	-672
▁ref	-673
▁those	-674
iew	-675
ck	-676
▁fol	-677
▁pat	-678
▁Re	-679
▁Pro	-680
▁ext	-681
▁prog	-682
▁result	-683
▁process	-684
▁every	-685
▁pub	-686
cer	-687
▁said	-688
▁Com	-689
▁children	-690
▁fact	-691
▁call	-692
arm	-693
ases	-694
▁being	-695
▁each	-696
ros	-697
▁gra	-698
ues	-699
▁ca	-700
ps	-701
▁sec	-702
▁There	-703
ds	-704
▁They	-705
.”	-706
▁loc	-707
led	-708
iron	-709
▁requ	-710
ruct	-711
▁important	-712
▁techn	-713
▁partic	-714
ody	-715
ages	-716
▁life	-717
tle	-718
ork	-719
▁dist	-720
▁commun	-721
▁set	-722
▁mon	-723
ved	-724
▁much	-725
▁during	-726
▁she	-727
▁dep	-728
▁def	-729
▁cre	-730
▁ent	-731
ather	-732
..	-733
▁art	-734
▁fam	-735
cent	-736
ized	-737
▁students	-738
imes	-739
▁lead	-740
▁own	-741
▁read	-742
ward	-743
vern	-744
▁food	-745
▁follow	-746
▁level	-747
▁sk	-748
ices	-749
▁my	-750
▁study	-751
▁information	-752
▁aut	-753
gg	-754
▁right	-755
▁Ar	-756
▁does	-757
▁same	-758
▁data	-759
▁grow	-760
ize	-761
▁made	-762
▁proble	-763
▁But	-764
any	-765
▁person	-766
▁find	-767
ection	-768
▁You	-769
▁cur	-770
▁school	-771
▁av	-772
▁good	-773
hip	-774
▁min	-775
▁end	-776
▁str	-777
▁both	-778
▁ins	-779
▁back	-780
onom	-781
ted	-782
ale	-783
▁che	-784
ality	-785
▁using	-786
▁show	-787
▁hist	-788
viron	-789
▁expl	-790
und	-791
▁Sp	-792
▁pop	-793
▁comple	-794
.,	-795
▁Ind	-796
▁grou	-797
io	-798
▁before	-799
▁cor	-800
▁test	-801
▁gl	-802
read	-803
▁small	-804
▁main	-805
stand	-806
ivid	-807
ock	-808
ially	-809
iel	-810
▁What	-811
▁treat	-812
▁bo	-813
▁Sc	-814
||	-815
inal	-816
▁often	-817
ined	-818
▁New	-819
▁again	-820
ince	-821
▁val	-822
▁sol	-823
▁less	-824
omen	-825
▁br	-826
▁prot	-827
ars	-828
der	-829
ix	-830
nce	-831
▁while	-832
rol	-833
▁poss	-834
ergy	-835
imate	-836
▁dise	-837
▁take	-838
ty	-839
▁day	-840
▁state	-841
ien	-842
▁lit	-843
▁research	-844
ished	-845
ute	-846
▁occ	-847
ax	-848
akes	-849
▁ec	-850
▁number	-851
▁serv	-852
▁now	-853
▁|	-854
▁ris	-855
▁And	-856
ral	-857
▁power	-858
ex	-859
▁organ	-860
oh	-861
▁fun	-862
▁body	-863
vironment	-864
▁cell	-865
▁mem	-866
▁When	-867
ier	-868
ulation	-869
▁vis	-870
▁activ	-871
▁him	-872
▁provid	-873
dition	-874
▁char	-875
ury	-876
iqu	-877
▁design	-878
irect	-879
▁These	-880
▁around	-881
▁class	-882
▁human	-883
▁hand	-884
▁redu	-885
up	-886
▁support	-887
▁down	-888
air	-889
iving	-890
▁bel	-891
iversity	-892
ves	-893
com	-894
▁three	-895
ered	-896
ocial	-897
hers	-898
▁common	-899
▁must	-900
ters	-901
ital	-902
▁conf	-903
▁start	-904
ah	-905
ger	-906
▁look	-907
▁est	-908
ium	-909
uss	-910
▁elect	-911
▁Is	-912
▁cle	-913
ven	-914
aj	-915
▁point	-916
rent	-917
▁great	-918
ving	-919
▁To	-920
▁plan	-921
▁govern	-922
day	-923
,”	-924
acter	-925
ains	-926
▁ser	-927
▁did	-928
ross	-929
▁large	-930
▁example	-931
ave	-932
▁report	-933
▁land	-934
▁care	-935
▁writ	-936
the	-937
▁‘	-938
self	-939
cl	-940
▁contin	-941
ional	-942
rain	-943
▁op	-944
ron	-945
itions	-946
▁Se	-947
ouse	-948
gen	-949
ull	-950
▁allow	-951
▁including	-952
ared	-953
orn	-954
anc	-955
▁equ	-956
▁const	-957
▁adv	-958
▁understand	-959
▁met	-960
▁educ	-961
way	-962
▁build	-963
▁though	-964
ash	-965
▁ret	-966
▁dr	-967
▁cour	-968
▁called	-969
▁pract	-970
▁At	-971
ner	-972
▁known	-973
iver	-974
▁De	-975
iven	-976
▁beh	-977
outh	-978
aterial	-979
▁som	-980
ividual	-981
The	-982
esp	-983
▁still	-984
▁public	-985
me	-986
els	-987
ired	-988
ential	-989
ids	-990
▁eas	-991
ets	-992
▁quest	-993
▁gu	-994
oms	-995
▁Ad	-996
iod	-997
▁place	-998
ries	-999
▁ide	-1000
osed	-1001
ected	-1002
▁However	-1003
▁think	-1004
▁appro	-1005
▁might	-1006
▁gre	-1007
de	-1008
itive	-1009
ization	-1010
inc	-1011
▁mat	-1012
erest	-1013
ering	-1014
lish	-1015
▁few	-1016
▁caus	-1017
▁tem	-1018
▁chang	-1019
▁present	-1020
▁stand	-1021
▁Eng	-1022
ination	-1023
▁environment	-1024
▁within	-1025
raph	-1026
ources	-1027
ank	-1028
eng	-1029
▁energy	-1030
▁change	-1031
▁individual	-1032
▁dem	-1033
▁product	-1034
▁pur	-1035
ption	-1036
bers	-1037
▁Con	-1038
ording	-1039
."	-1040
ration	-1041
▁without	-1042
▁want	-1043
oun	-1044
▁Ex	-1045
ived	-1046
▁development	-1047
▁sym	-1048
▁phys	-1049
▁iss	-1050
ffic	-1051
ense	-1052
ason	-1053
ior	-1054
▁material	-1055
▁cap	-1056
▁meth	-1057
▁impro	-1058
ertain	-1059
angu	-1060
▁imm	-1061
▁light	-1062
line	-1063
▁University	-1064
▁play	-1065
▁prof	-1066
agn	-1067
▁project	-1068
▁air	-1069
▁pot	-1070
▁ident	-1071
▁Ph	-1072
▁Sh	-1073
▁learn	-1074
▁spe	-1075
▁disease	-1076
▁ben	-1077
▁American	-1078
man	-1079
▁Res	-1080
▁don	-1081
▁pos	-1082
iness	-1083
▁sl	-1084
▁direct	-1085
less	-1086
▁ve	-1087
arent	-1088
▁bre	-1089
alk	-1090
▁eng	-1091
▁social	-1092
sp	-1093
▁sit	-1094
▁area	-1095
ability	-1096
eral	-1097
▁anal	-1098
ton	-1099
▁pass	-1100
ental	-1101
bs	-1102
▁another	-1103
▁meas	-1104
▁vari	-1105
illion	-1106
▁women	-1107
▁&	-1108
▁best	-1109
gin	-1110
ield	-1111
▁ant	-1112
ians	-1113
▁home	-1114
orth	-1115
ological	-1116
ified	-1117
▁blood	-1118
ajor	-1119
▁include	-1120
▁belie	-1121
▁et	-1122
▁bas	-1123
▁mus	-1124
▁cult	-1125
▁mark	-1126
▁On	-1127
▁law	-1128
erc	-1129
ify	-1130
▁pain	-1131
▁risk	-1132
▁Cl	-1133
ris	-1134
▁Be	-1135
▁interest	-1136
ained	-1137
atural	-1138
rodu	-1139
ug	-1140
▁[	-1141
▁desc	-1142
atic	-1143
ccess	-1144
▁control	-1145
▁rest	-1146
▁opp	-1147
▁become	-1148
ently	-1149
▁low	-1150
ats	-1151
ining	-1152
▁sever	-1153
▁econom	-1154
▁Le	-1155
▁proper	-1156
▁early	-1157
▁Q	-1158
az	-1159
▁old	-1160
▁better	-1161
▁method	-1162
arc	-1163
▁ess	-1164
ource	-1165
▁anim	-1166
ern	-1167
▁So	-1168
▁program	-1169
▁par	-1170
▁move	-1171
▁war	-1172
hor	-1173
▁leg	-1174
▁government	-1175
ways	-1176
ision	-1177
▁against	-1178
lished	-1179
▁Pl	-1180
ills	-1181
ik	-1182
▁mil	-1183
ients	-1184
▁—	-1185
▁second	-1186
▁keep	-1187
▁tre	-1188
▁real	-1189
▁fore	-1190
▁here	-1191
▁last	-1192
ider	-1193
▁oper	-1194
▁history	-1195
ware	-1196
▁order	-1197
▁cause	-1198
rist	-1199
here	-1200
▁ele	-1201
▁too	-1202
str	-1203
▁occur	-1204
▁means	-1205
▁provide	-1206
▁infl	-1207
▁avail	-1208
rap	-1209
▁major	-1210
▁top	-1211
▁ter	-1212
▁group	-1213
▁.	-1214
ories	-1215
ission	-1216
▁Can	-1217
ention	-1218
▁perform	-1219
view	-1220
▁Col	-1221
▁particular	-1222
ples	-1223
▁indu	-1224
tt	-1225
ards	-1226
▁dev	-1227
▁family	-1228
icle	-1229
▁current	-1230
amp	-1231
▁possible	-1232
▁learning	-1233
▁period	-1234
▁United	-1235
▁addition	-1236
▁saf	-1237
▁several	-1238
▁langu	-1239
▁invol	-1240
▁unt	-1241
use	-1242
▁hig	-1243
oid	-1244
▁mean	-1245
▁say	-1246
ograph	-1247
▁fin	-1248
▁near	-1249
▁able	-1250
▁species	-1251
irc	-1252
▁orig	-1253
▁percent	-1254
▁signific	-1255
par	-1256
▁benef	-1257
▁Z	-1258
▁Comm	-1259
ote	-1260
▁bus	-1261
▁cal	-1262
▁happ	-1263
▁plant	-1264
▁affect	-1265
▁men	-1266
▁prom	-1267
▁God	-1268
ogn	-1269
ina	-1270
▁All	-1271
▁cost	-1272
▁non	-1273
▁open	-1274
idence	-1275
▁lim	-1276
▁since	-1277
urop	-1278
▁feel	-1279
▁scient	-1280
▁el	-1281
▁things	-1282
ator	-1283
▁One	-1284
ane	-1285
▁mar	-1286
sy	-1287
▁areas	-1288
▁among	-1289
▁says	-1290
▁En	-1291
ilar	-1292
▁Te	-1293
▁treatment	-1294
▁others	-1295
osp	-1296
ole	-1297
ret	-1298
▁based	-1299
▁country	-1300
though	-1301
ended	-1302
▁available	-1303
ends	-1304
▁prevent	-1305
▁following	-1306
▁times	-1307
aper	-1308
▁head	-1309
ling	-1310
ots	-1311
▁fre	-1312
▁del	-1313
▁name	-1314
▁fac	-1315
▁four	-1316
elf	-1317
▁cond	-1318
cing	-1319
ocus	-1320
ames	-1321
▁prop	-1322
▁States	-1323
▁case	-1324
▁access	-1325
ances	-1326
▁Some	-1327
urther	-1328
ek	-1329
ploy	-1330
ably	-1331
▁Or	-1332
▁With	-1333
▁free	-1334
▁age	-1335
▁struct	-1336
une	-1337
▁certain	-1338
▁come	-1339
to	-1340
▁month	-1341
▁lo	-1342
▁problem	-1343
sc	-1344
ised	-1345
▁object	-1346
,"	-1347
▁post	-1348
▁conn	-1349
▁lab	-1350
urope	-1351
▁list	-1352
▁type	-1353
▁natural	-1354
▁view	-1355
▁bi	-1356
▁run	-1357
oint	-1358
▁rece	-1359
▁press	-1360
olution	-1361
▁put	-1362
ression	-1363
▁problems	-1364
ww	-1365
▁creat	-1366
▁success	-1367
▁gr	-1368
▁intern	-1369
eg	-1370
▁levels	-1371
ones	-1372
br	-1373
▁local	-1374
▁Cent	-1375
▁bro	-1376
ox	-1377
▁hard	-1378
▁National	-1379
ggest	-1380
▁impact	-1381
▁amount	-1382
▁associ	-1383
▁little	-1384
▁vol	-1385
▁significant	-1386
icult	-1387
▁cells	-1388
ope	-1389
▁book	-1390
▁flow	-1391
▁mult	-1392
▁Af	-1393
▁bir	-1394
ring	-1395
work	-1396
be	-1397
por	-1398
▁due	-1399
▁let	-1400
▁vir	-1401
▁far	-1402
▁young	-1403
resent	-1404
▁making	-1405
▁Christ	-1406
▁Europe	-1407
atory	-1408
ething	-1409
▁By	-1410
▁Fr	-1411
▁suggest	-1412
▁until	-1413
▁focus	-1414
▁short	-1415
▁later	-1416
ortun	-1417
▁Bl	-1418
oks	-1419
ately	-1420
ither	-1421
▁sw	-1422
ledge	-1423
▁turn	-1424
▁given	-1425
ides	-1426
uture	-1427
▁comput	-1428
▁cho	-1429
ication	-1430
ured	-1431
▁behav	-1432
▁Wor	-1433
ged	-1434
stit	-1435
▁invest	-1436
▁determ	-1437
▁function	-1438
▁US	-1439
yd	-1440
omm	-1441
▁education	-1442
__	-1443
▁polit	-1444
▁days	-1445
▁likely	-1446
aken	-1447
▁circ	-1448
▁rad	-1449
▁systems	-1450
hem	-1451
▁heart	-1452
over	-1453
aps	-1454
▁seem	-1455
cle	-1456
agement	-1457
▁along	-1458
▁comb	-1459
▁obs	-1460
ead	-1461
not	-1462
face	-1463
▁increase	-1464
▁Med	-1465
▁'	-1466
▁language	-1467
▁appear	-1468
▁community	-1469
▁something	-1470
▁death	-1471
▁results	-1472
oph	-1473
▁technology	-1474
▁fil	-1475
ried	-1476
▁course	-1477
▁usually	-1478
▁teac	-1479
ending	-1480
vious	-1481
pect	-1482
orts	-1483
▁sing	-1484
▁always	-1485
▁specific	-1486
▁Ear	-1487
▁consum	-1488
▁temper	-1489
ohn	-1490
etic	-1491
▁dra	-1492
▁rele	-1493
▁difficult	-1494
ape	-1495
aster	-1496
▁past	-1497
ecially	-1498
▁create	-1499
▁clear	-1500
▁author	-1501
▁enc	-1502
▁$	-1503
▁words	-1504
▁similar	-1505
pr	-1506
▁character	-1507
▁effective	-1508
▁works	-1509
▁experience	-1510
ociety	-1511
▁give	-1512
▁conditions	-1513
ember	-1514
▁cr	-1515
▁ey	-1516
▁That	-1517
▁parent	-1518
▁exist	-1519
▁space	-1520
asing	-1521
ators	-1522
▁needs	-1523
▁ill	-1524
ned	-1525
▁today	-1526
ptoms	-1527
▁century	-1528
▁crit	-1529
▁why	-1530
▁million	-1531
▁record	-1532
▁population	-1533
ym	-1534
▁brain	-1535
▁line	-1536
af	-1537
ours	-1538
▁cancer	-1539
isc	-1540
▁various	-1541
▁profess	-1542
▁describ	-1543
idd	-1544
▁higher	-1545
aining	-1546
▁Afric	-1547
▁future	-1548
▁discuss	-1549
especially	-1550
▁Brit	-1551
▁special	-1552
▁across	-1553
▁dam	-1554
min	-1555
of	-1556
▁While	-1557
obal	-1558
▁necess	-1559
▁applic	-1560
rug	-1561
mit	-1562
ribut	-1563
▁er	-1564
ruction	-1565
ored	-1566
▁changes	-1567
ler	-1568
▁next	-1569
▁countries	-1570
▁above	-1571
ysis	-1572
▁toget	-1573
▁however	-1574
▁begin	-1575
▁together	-1576
▁Im	-1577
▁strong	-1578
app	-1579
▁least	-1580
▁try	-1581
▁business	-1582
▁side	-1583
▁mov	-1584
▁require	-1585
put	-1586
ique	-1587
▁ask	-1588
reen	-1589
▁respons	-1590
▁working	-1591
▁improve	-1592
▁kind	-1593
▁researc	-1594
ateg	-1595
▁estab	-1596
ilities	-1597
most	-1598
atch	-1599
▁complete	-1600
▁effects	-1601
▁plants	-1602
▁patients	-1603
ray	-1604
ode	-1605
▁Dr	-1606
▁mot	-1607
▁John	-1608
▁Gen	-1609
▁never	-1610
▁left	-1611
▁Ab	-1612
selves	-1613
▁away	-1614
▁colle	-1615
aves	-1616
▁tool	-1617
▁cy	-1618
▁ways	-1619
oney	-1620
▁sens	-1621
amm	-1622
▁term	-1623
omes	-1624
sw	-1625
▁especially	-1626
aces	-1627
▁enough	-1628
▁chem	-1629
▁After	-1630
▁key	-1631
acy	-1632
▁prim	-1633
▁tru	-1634
▁general	-1635
ilt	-1636
▁team	-1637
▁net	-1638
▁full	-1639
▁studies	-1640
ales	-1641
let	-1642
▁influ	-1643
oot	-1644
▁subject	-1645
▁having	-1646
ument	-1647
nal	-1648
▁types	-1649
▁War	-1650
▁consider	-1651
▁cases	-1652
▁Germ	-1653
aching	-1654
ires	-1655
alf	-1656
acc	-1657
▁relations	-1658
iting	-1659
duct	-1660
▁Go	-1661
thing	-1662
lement	-1663
ush	-1664
port	-1665
oman	-1666
aring	-1667
▁going	-1668
▁role	-1669
▁Am	-1670
▁step	-1671
▁whether	-1672
▁opt	-1673
▁norm	-1674
▁lower	-1675
ley	-1676
▁Ne	-1677
▁account	-1678
side	-1679
chie	-1680
▁knowledge	-1681
▁World	-1682
▁physical	-1683
▁symptoms	-1684
ges	-1685
▁z	-1686
ipp	-1687
▁became	-1688
▁self	-1689
▁concer	-1690
▁protect	-1691
istic	-1692
▁mind	-1693
▁represent	-1694
aim	-1695
▁Stud	-1696
▁English	-1697
▁further	-1698
ann	-1699
▁reason	-1700
▁production	-1701
ready	-1702
▁pred	-1703
▁sum	-1704
ued	-1705
▁Health	-1706
▁makes	-1707
ification	-1708
▁polic	-1709
ency	-1710
▁house	-1711
▁city	-1712
▁Car	-1713
▁Tr	-1714
ables	-1715
edi	-1716
NA	-1717
apt	-1718
▁ground	-1719
▁wr	-1720
▁paper	-1721
▁mic	-1722
itor	-1723
▁She	-1724
▁science	-1725
eter	-1726
atures	-1727
ae	-1728
▁big	-1729
▁live	-1730
▁chall	-1731
▁ens	-1732
ung	-1733
▁question	-1734
▁Mar	-1735
ott	-1736
▁range	-1737
//	-1738
▁fund	-1739
sych	-1740
▁Resear	-1741
▁dig	-1742
eds	-1743
cul	-1744
▁text	-1745
▁model	-1746
▁toward	-1747
▁sure	-1748
▁Do	-1749
ites	-1750
▁value	-1751
...	-1752
▁nut	-1753
▁growth	-1754
▁employ	-1755
▁activity	-1756
▁indic	-1757
aut	-1758
▁seen	-1759
bon	-1760
ird	-1761
ibility	-1762
verage	-1763
▁Intern	-1764
▁quality	-1765
▁Ge	-1766
iol	-1767
lo	-1768
▁already	-1769
▁potential	-1770
▁particip	-1771
▁eff	-1772
▁activities	-1773
▁loss	-1774
▁groups	-1775
urch	-1776
for	-1777
▁below	-1778
by	-1779
ream	-1780
▁Pr	-1781
▁story	-1782
▁done	-1783
▁fall	-1784
▁stat	-1785
▁lot	-1786
▁offic	-1787
▁really	-1788
uation	-1789
osis	-1790
▁close	-1791
▁wind	-1792
iation	-1793
iple	-1794
▁products	-1795
erence	-1796
▁word	-1797
augh	-1798
▁resources	-1799
▁developed	-1800
etimes	-1801
mber	-1802
rel	-1803
▁field	-1804
oura	-1805
▁rather	-1806
://	-1807
▁recogn	-1808
▁Cal	-1809
ands	-1810
fact	-1811
▁either	-1812
ils	-1813
▁achie	-1814
▁mass	-1815
▁according	-1816
▁neg	-1817
esc	-1818
overed	-1819
▁Acc	-1820
unt	-1821
▁deg	-1822
▁single	-1823
▁indust	-1824
▁May	-1825
iam	-1826
▁skills	-1827
▁event	-1828
▁abs	-1829
ival	-1830
▁reduce	-1831
▁bat	-1832
▁South	-1833
▁prob	-1834
ee	-1835
▁climate	-1836
▁ur	-1837
▁phot	-1838
▁rate	-1839
▁tradition	-1840
▁flu	-1841
idered	-1842
▁source	-1843
ison	-1844
▁observ	-1845
▁surface	-1846
▁national	-1847
▁building	-1848
▁=	-1849
▁drug	-1850
wh	-1851
▁medical	-1852
▁concept	-1853
▁article	-1854
amin	-1855
▁init	-1856
▁site	-1857
▁North	-1858
ask	-1859
▁researchers	-1860
▁five	-1861
▁introdu	-1862
leep	-1863
▁issues	-1864
▁collect	-1865
yn	-1866
▁once	-1867
▁taken	-1868
val	-1869
▁fr	-1870
ery	-1871
rams	-1872
▁questions	-1873
▁recomm	-1874
▁evidence	-1875
rict	-1876
▁whole	-1877
▁red	-1878
ivil	-1879
▁tot	-1880
urity	-1881
ivity	-1882
▁Ass	-1883
▁cut	-1884
▁Cont	-1885
▁dom	-1886
▁address	-1887
▁ann	-1888
▁America	-1889
▁fail	-1890
▁considered	-1891
ule	-1892
▁frequ	-1893
▁Man	-1894
▁upon	-1895
▁meet	-1896
▁associated	-1897
ER	-1898
fficient	-1899
▁white	-1900
▁size	-1901
fer	-1902
rect	-1903
▁Rep	-1904
▁detail	-1905
▁members	-1906
▁pressure	-1907
▁sun	-1908
▁sent	-1909
▁created	-1910
ublic	-1911
▁ver	-1912
▁Many	-1913
ips	-1914
reme	-1915
▁doct	-1916
yl	-1917
▁skin	-1918
▁relig	-1919
roll	-1920
▁market	-1921
▁increased	-1922
▁nature	-1923
▁fri	-1924
▁wide	-1925
▁tell	-1926
plic	-1927
▁themselves	-1928
▁sal	-1929
▁living	-1930
▁came	-1931
▁hold	-1932
ights	-1933
▁pay	-1934
▁political	-1935
epend	-1936
▁states	-1937
▁animals	-1938
▁stress	-1939
illed	-1940
▁practice	-1941
▁histor	-1942
ensive	-1943
▁return	-1944
▁understanding	-1945
▁cannot	-1946
▁sound	-1947
▁lay	-1948
▁dest	-1949
▁Aust	-1950
▁Act	-1951
▁related	-1952
ournal	-1953
▁required	-1954
▁actually	-1955
reg	-1956
▁opportun	-1957
ober	-1958
▁No	-1959
▁simple	-1960
▁week	-1961
sequ	-1962
▁Hist	-1963
aced	-1964
▁adult	-1965
org	-1966
▁relationship	-1967
ibr	-1968
▁engine	-1969
utions	-1970
▁purp	-1971
▁needed	-1972
ening	-1973
▁entire	-1974
▁black	-1975
itud	-1976
▁materials	-1977
▁healthy	-1978
like	-1979
▁Dep	-1980
enn	-1981
▁analysis	-1982
▁maint	-1983
▁thought	-1984
▁ability	-1985
▁His	-1986
▁Pe	-1987
▁complex	-1988
▁published	-1989
▁economic	-1990
▁global	-1991
▁quick	-1992
▁condition	-1993
▁prote	-1994
▁modern	-1995
▁Gu	-1996
▁arg	-1997
▁student	-1998
▁factors	-1999
sh	-2000
▁doc	-2001
oon	-2002
▁Fl	-2003
▁fat	-2004
▁comes	-2005
▁diet	-2006
▁famil	-2007
▁parts	-2008
▁answ	-2009
aging	-2010
▁port	-2011
▁idea	-2012
▁writing	-2013
▁experien	-2014
ai	-2015
▁avoid	-2016
".	-2017
▁Em	-2018
▁X	-2019
▁provides	-2020
AS	-2021
▁almost	-2022
▁fish	-2023
▁services	-2024
artment	-2025
ging	-2026
chan	-2027
▁exerc	-2028
▁htt	-2029
▁oil	-2030
▁itself	-2031
hib	-2032
eb	-2033
acks	-2034
ump	-2035
▁management	-2036
hing	-2037
aged	-2038
▁vers	-2039
▁dog	-2040
▁Earth	-2041
ney	-2042
▁assess	-2043
lying	-2044
oses	-2045
▁money	-2046
ened	-2047
▁Co	-2048
▁York	-2049
▁cat	-2050
▁react	-2051
▁Most	-2052
iet	-2053
▁necessary	-2054
▁mor	-2055
▁weight	-2056
vere	-2057
):	-2058
▁rights	-2059
itary	-2060
mon	-2061
▁months	-2062
▁coll	-2063
gest	-2064
▁State	-2065
▁path	-2066
erve	-2067
ences	-2068
▁sam	-2069
▁approach	-2070
▁More	-2071
▁arch	-2072
▁measure	-2073
rad	-2074
go	-2075
▁half	-2076
▁suff	-2077
uel	-2078
▁gas	-2079
ores	-2080
▁soil	-2081
.)	-2082
▁super	-2083
▁medic	-2084
olic	-2085
▁produce	-2086
▁bar	-2087
eding	-2088
▁liter	-2089
ystem	-2090
▁parents	-2091
▁link	-2092
bo	-2093
urs	-2094
izing	-2095
usion	-2096
ply	-2097
▁began	-2098
▁took	-2099
▁priv	-2100
▁Su	-2101
based	-2102
▁arr	-2103
▁job	-2104
▁soft	-2105
▁personal	-2106
▁Research	-2107
▁conduct	-2108
onse	-2109
▁ever	-2110
▁green	-2111
▁tar	-2112
▁Although	-2113
▁emer	-2114
abor	-2115
nces	-2116
▁computer	-2117
emic	-2118
▁color	-2119
rown	-2120
▁pattern	-2121
▁individuals	-2122
▁Here	-2123
irm	-2124
▁ge	-2125
▁princ	-2126
▁region	-2127
▁chemical	-2128
▁throughout	-2129
▁separ	-2130
iddle	-2131
ese	-2132
ma	-2133
▁British	-2134
ections	-2135
iction	-2136
▁popular	-2137
▁stop	-2138
▁reading	-2139
ume	-2140
▁repl	-2141
▁yet	-2142
abit	-2143
▁farm	-2144
igure	-2145
▁cop	-2146
▁Jew	-2147
▁increasing	-2148
▁shows	-2149
utes	-2150
▁regard	-2151
pid	-2152
oll	-2153
▁therap	-2154
▁online	-2155
▁fire	-2156
▁taking	-2157
▁action	-2158
▁claim	-2159
▁society	-2160
▁anc	-2161
erous	-2162
▁company	-2163
empt	-2164
▁bur	-2165
▁content	-2166
ID	-2167
▁total	-2168
my	-2169
▁recent	-2170
inter	-2171
▁rul	-2172
▁longer	-2173
▁structure	-2174
▁sense	-2175
▁ut	-2176
▁clean	-2177
▁interact	-2178
apan	-2179
▁temperature	-2180
anced	-2181
estern	-2182
▁built	-2183
ript	-2184
▁previous	-2185
▁According	-2186
hold	-2187
yle	-2188
▁la	-2189
▁Canad	-2190
▁terms	-2191
▁training	-2192
▁industry	-2193
▁service	-2194
ising	-2195
ches	-2196
▁sleep	-2197
▁deb	-2198
ively	-2199
▁six	-2200
uck	-2201
pro	-2202
▁inj	-2203
▁diagn	-2204
het	-2205
iment	-2206
itation	-2207
▁caused	-2208
▁schools	-2209
▁talk	-2210
▁position	-2211
icles	-2212
▁Par	-2213
▁Per	-2214
reng	-2215
▁Me	-2216
▁Pre	-2217
▁environmental	-2218
▁School	-2219
▁causes	-2220
▁behavior	-2221
▁hours	-2222
▁matter	-2223
astic	-2224
▁travel	-2225
▁heat	-2226
▁surv	-2227
▁sat	-2228
▁rev	-2229
▁mach	-2230
ES	-2231
▁break	-2232
▁heav	-2233
lt	-2234
ze	-2235
▁Other	-2236
▁meaning	-2237
▁Your	-2238
▁Int	-2239
▁Sec	-2240
▁disord	-2241
▁contact	-2242
ns	-2243
▁Instit	-2244
ulations	-2245
minist	-2246
▁conc	-2247
▁benefits	-2248
▁ce	-2249
▁lives	-2250
▁check	-2251
▁sex	-2252
▁Qu	-2253
fully	-2254
▁thing	-2255
aily	-2256
▁App	-2257
▁CO	-2258
▁positive	-2259
▁easy	-2260
▁provided	-2261
▁etc	-2262
▁contain	-2263
lex	-2264
▁shown	-2265
▁spread	-2266
▁ste	-2267
▁India	-2268
▁II	-2269
vey	-2270
AT	-2271
ows	-2272
istance	-2273
ropri	-2274
▁From	-2275
ricult	-2276
ene	-2277
▁bring	-2278
▁safe	-2279
▁Will	-2280
▁designed	-2281
▁true	-2282
aff	-2283
hood	-2284
inary	-2285
▁prec	-2286
▁fru	-2287
▁Japan	-2288
▁methods	-2289
▁bacter	-2290
▁Comp	-2291
▁accept	-2292
▁includes	-2293
istics	-2294
▁wild	-2295
▁regular	-2296
ronic	-2297
▁average	-2298
asc	-2299
▁Pres	-2300
ederal	-2301
▁vide	-2302
ufact	-2303
▁fem	-2304
lands	-2305
ister	-2306
gar	-2307
rought	-2308
mb	-2309
▁mechan	-2310
▁standard	-2311
ster	-2312
AR	-2313
▁relative	-2314
▁led	-2315
▁deep	-2316
▁Us	-2317
▁review	-2318
▁lif	-2319
▁viol	-2320
▁carbon	-2321
▁earth	-2322
▁response	-2323
aving	-2324
▁Of	-2325
▁variety	-2326
▁target	-2327
ched	-2328
imately	-2329
▁King	-2330
ners	-2331
▁greater	-2332
▁Ed	-2333
▁subst	-2334
▁poll	-2335
rior	-2336
▁simply	-2337
▁eat	-2338
ades	-2339
▁love	-2340
▁issue	-2341
▁music	-2342
atives	-2343
▁sometimes	-2344
▁slow	-2345
▁believe	-2346
▁movement	-2347
rast	-2348
▁original	-2349
abet	-2350
▁helps	-2351
verse	-2352
aries	-2353
▁Not	-2354
▁scientists	-2355
▁origin	-2356
▁reported	-2357
▁culture	-2358
▁face	-2359
▁exc	-2360
▁threat	-2361
▁written	-2362
▁uses	-2363
▁compan	-2364
▁psych	-2365
▁•	-2366
▁events	-2367
▁Part	-2368
▁streng	-2369
▁Rec	-2370
▁damage	-2371
▁programs	-2372
▁Min	-2373
▁--	-2374
▁Science	-2375
ength	-2376
rench	-2377
▁involved	-2378
▁identify	-2379
amed	-2380
▁doing	-2381
dom	-2382
▁respect	-2383
aling	-2384
eration	-2385
▁remov	-2386
▁sources	-2387
▁demon	-2388
▁micro	-2389
▁encoura	-2390
▁Cons	-2391
arily	-2392
osition	-2393
▁normal	-2394
▁Austral	-2395
ials	-2396
▁compet	-2397
duc	-2398
▁foods	-2399
▁outside	-2400
ban	-2401
know	-2402
▁emot	-2403
▁camp	-2404
▁particularly	-2405
▁image	-2406
ucle	-2407
▁compon	-2408
▁,	-2409
▁electric	-2410
aches	-2411
▁tax	-2412
▁integ	-2413
▁bal	-2414
elling	-2415
new	-2416
oor	-2417
▁poor	-2418
rand	-2419
ender	-2420
▁cust	-2421
▁lack	-2422
▁essential	-2423
▁virus	-2424
▁Ag	-2425
light	-2426
▁forms	-2427
▁Har	-2428
▁ensure	-2429
▁pict	-2430
▁i	-2431
▁Gl	-2432
ctions	-2433
▁ple	-2434
▁attention	-2435
▁forest	-2436
▁produced	-2437
▁basic	-2438
ises	-2439
▁developing	-2440
▁challeng	-2441
uge	-2442
▁refer	-2443
hel	-2444
▁page	-2445
▁extreme	-2446
▁growing	-2447
▁generally	-2448
▁late	-2449
▁emb	-2450
▁China	-2451
▁First	-2452
ops	-2453
▁webs	-2454
▁force	-2455
▁sust	-2456
idge	-2457
▁implement	-2458
▁displ	-2459
umb	-2460
oles	-2461
▁serious	-2462
ief	-2463
rie	-2464
▁Jan	-2465
▁lat	-2466
room	-2467
▁feet	-2468
▁harm	-2469
▁aff	-2470
▁ox	-2471
▁attempt	-2472
▁teachers	-2473
▁Now	-2474
▁log	-2475
▁appl	-2476
rated	-2477
▁Count	-2478
▁share	-2479
ached	-2480
▁ap	-2481
▁Bec	-2482
▁network	-2483
▁select	-2484
son	-2485
▁coun	-2486
ervation	-2487
▁consist	-2488
▁Our	-2489
▁During	-2490
▁numbers	-2491
▁squ	-2492
▁vacc	-2493
▁patient	-2494
osure	-2495
issions	-2496
▁included	-2497
--	-2498
▁animal	-2499
▁visit	-2500
▁defin	-2501
▁ir	-2502
▁manufact	-2503
▁wood	-2504
▁Ke	-2505
▁doesn	-2506
▁attack	-2507
bor	-2508
▁correct	-2509
ads	-2510
▁Bo	-2511
▁El	-2512
▁ideas	-2513
▁draw	-2514
osing	-2515
▁Ac	-2516
ems	-2517
▁safety	-2518
isions	-2519
▁magn	-2520
▁hyd	-2521
▁independ	-2522
▁continue	-2523
▁aware	-2524
ming	-2525
▁probably	-2526
▁series	-2527
▁Sm	-2528
▁Art	-2529
raft	-2530
fect	-2531
▁Child	-2532
▁dou	-2533
▁takes	-2534
▁/	-2535
▁kids	-2536
ana	-2537
▁Aug	-2538
▁Ju	-2539
▁print	-2540
▁therefore	-2541
set	-2542
▁mess	-2543
ribution	-2544
imum	-2545
▁getting	-2546
eed	-2547
▁night	-2548
ography	-2549
ties	-2550
imin	-2551
▁media	-2552
▁prep	-2553
▁My	-2554
▁express	-2555
▁Educ	-2556
▁policy	-2557
▁colon	-2558
IS	-2559
▁financ	-2560
▁easily	-2561
▁veget	-2562
uth	-2563
ground	-2564
▁concent	-2565
cies	-2566
▁international	-2567
▁thus	-2568
irit	-2569
▁daily	-2570
Th	-2571
▁commit	-2572
▁someone	-2573
▁Tw	-2574
ided	-2575
▁performance	-2576
▁mother	-2577
▁theory	-2578
▁primary	-2579
oly	-2580
IN	-2581
▁cover	-2582
▁looking	-2583
▁investig	-2584
▁fa	-2585
▁earl	-2586
▁sea	-2587
▁difference	-2588
▁bab	-2589
▁wall	-2590
▁cit	-2591
iot	-2592
vention	-2593
▁European	-2594
▁started	-2595
ension	-2596
▁leaders	-2597
▁allows	-2598
▁quite	-2599
ino	-2600
▁mental	-2601
▁estim	-2602
▁cross	-2603
ha	-2604
▁ago	-2605
asons	-2606
rs	-2607
uary	-2608
▁added	-2609
▁diseases	-2610
▁town	-2611
▁appropri	-2612
▁instead	-2613
rew	-2614
iency	-2615
haps	-2616
▁ful	-2617
▁Center	-2618
▁traditional	-2619
erg	-2620
ius	-2621
overy	-2622
▁warm	-2623
▁sil	-2624
▁dang	-2625
▁communities	-2626
▁decre	-2627
ror	-2628
▁civil	-2629
▁div	-2630
▁Tra	-2631
▁instit	-2632
▁progress	-2633
▁compared	-2634
▁determine	-2635
▁eth	-2636
itude	-2637
▁tur	-2638
▁tree	-2639
▁Indian	-2640
ancy	-2641
▁vit	-2642
▁offer	-2643
ington	-2644
▁Sch	-2645
▁thous	-2646
▁tiss	-2647
▁multiple	-2648
▁Since	-2649
na	-2650
▁capt	-2651
▁books	-2652
▁achieve	-2653
▁inside	-2654
▁hy	-2655
▁points	-2656
erson	-2657
▁tend	-2658
▁Even	-2659
▁sold	-2660
ying	-2661
▁tools	-2662
▁eval	-2663
▁French	-2664
▁scientific	-2665
▁fav	-2666
inks	-2667
▁Calif	-2668
▁humans	-2669
▁nation	-2670
cell	-2671
▁rout	-2672
▁Reg	-2673
▁reflect	-2674
▁larger	-2675
▁sou	-2676
▁established	-2677
▁companies	-2678
▁reve	-2679
▁held	-2680
▁unique	-2681
▁quickly	-2682
rate	-2683
▁third	-2684
where	-2685
▁eye	-2686
▁feed	-2687
▁answer	-2688
▁immedi	-2689
▁military	-2690
▁infection	-2691
▁highly	-2692
▁Jes	-2693
▁trees	-2694
▁directly	-2695
ims	-2696
▁altern	-2697
ls	-2698
▁Lear	-2699
ille	-2700
ellow	-2701
ounds	-2702
▁demonstr	-2703
cil	-2704
▁document	-2705
▁Oct	-2706
▁March	-2707
▁critical	-2708
▁speak	-2709
anks	-2710
▁additional	-2711
pril	-2712
ift	-2713
▁Institute	-2714
▁dry	-2715
▁Her	-2716
▁acid	-2717
elt	-2718
▁front	-2719
▁negative	-2720
▁essay	-2721
▁West	-2722
▁Char	-2723
useum	-2724
▁gard	-2725
▁drink	-2726
abetes	-2727
▁although	-2728
term	-2729
▁bit	-2730
▁Ant	-2731
▁Department	-2732
iers	-2733
▁Californ	-2734
▁severe	-2735
nov	-2736
undred	-2737
▁birth	-2738
▁active	-2739
▁clin	-2740
▁behind	-2741
▁proced	-2742
▁Africa	-2743
olar	-2744
▁extra	-2745
▁analy	-2746
▁security	-2747
www	-2748
▁write	-2749
▁soon	-2750
▁exercise	-2751
▁aspect	-2752
▁solar	-2753
iques	-2754
▁History	-2755
▁central	-2756
▁broad	-2757
▁har	-2758
▁host	-2759
▁towards	-2760
▁foot	-2761
▁hor	-2762
▁Why	-2763
▁bad	-2764
▁Read	-2765
eks	-2766
aly	-2767
▁Russ	-2768
joy	-2769
▁prior	-2770
cean	-2771
▁families	-2772
▁tri	-2773
▁leading	-2774
▁aud	-2775
▁German	-2776
arr	-2777
▁Br	-2778
gency	-2779
▁values	-2780
att	-2781
▁obt	-2782
▁purpose	-2783
▁walk	-2784
▁quant	-2785
vant	-2786
omet	-2787
ulate	-2788
pe	-2789
▁labor	-2790
▁supply	-2791
We	-2792
itis	-2793
AN	-2794
▁California	-2795
▁Ret	-2796
thern	-2797
▁stay	-2798
▁shall	-2799
▁useful	-2800
▁International	-2801
▁doctor	-2802
▁hot	-2803
▁accur	-2804
den	-2805
▁went	-2806
▁custom	-2807
▁Sept	-2808
▁beginning	-2809
▁Inc	-2810
isms	-2811
▁June	-2812
▁protein	-2813
▁African	-2814
yond	-2815
▁Cor	-2816
▁fram	-2817
▁teaching	-2818
▁stra	-2819
▁expect	-2820
oes	-2821
▁Sw	-2822
uries	-2823
▁Mus	-2824
▁habit	-2825
▁decl	-2826
▁seems	-2827
▁situation	-2828
▁limited	-2829
fl	-2830
▁card	-2831
▁Because	-2832
▁http	-2833
▁features	-2834
▁Mon	-2835
hern	-2836
▁whose	-2837
mar	-2838
▁transport	-2839
▁Bar	-2840
▁contribut	-2841
▁August	-2842
▁video	-2843
▁capital	-2844
OR	-2845
ilos	-2846
ON	-2847
▁hands	-2848
yr	-2849
rition	-2850
▁Dav	-2851
▁elements	-2852
▁influence	-2853
formation	-2854
▁*	-2855
▁fight	-2856
▁workers	-2857
▁ones	-2858
▁mount	-2859
▁software	-2860
iber	-2861
▁thinking	-2862
▁search	-2863
▁section	-2864
▁base	-2865
bol	-2866
oming	-2867
▁April	-2868
▁Gree	-2869
▁ancient	-2870
▁pack	-2871
▁strateg	-2872
▁lost	-2873
▁contains	-2874
▁Then	-2875
itch	-2876
oring	-2877
▁minutes	-2878
▁Sim	-2879
▁length	-2880
▁requires	-2881
lection	-2882
rogen	-2883
▁rates	-2884
iter	-2885
▁financial	-2886
▁application	-2887
cial	-2888
▁exact	-2889
gn	-2890
▁mom	-2891
▁ang	-2892
hens	-2893
▁fast	-2894
▁block	-2895
▁mill	-2896
▁dark	-2897
ription	-2898
▁nucle	-2899
uman	-2900
▁unc	-2901
fort	-2902
inct	-2903
ext	-2904
uk	-2905
pper	-2906
▁jo	-2907
▁Also	-2908
▁Jesus	-2909
istry	-2910
”.	-2911
▁x	-2912
▁hundred	-2913
hest	-2914
▁interp	-2915
▁stri	-2916
▁waste	-2917
▁July	-2918
▁news	-2919
▁River	-2920
ologies	-2921
coh	-2922
▁Mc	-2923
▁protection	-2924
▁administ	-2925
▁received	-2926
▁adults	-2927
▁brought	-2928
▁except	-2929
▁Wash	-2930
▁costs	-2931
▁sustain	-2932
▁demand	-2933
rote	-2934
▁described	-2935
▁enjoy	-2936
▁got	-2937
orthern	-2938
▁else	-2939
ields	-2940
____	-2941
▁William	-2942
▁importance	-2943
IC	-2944
▁jud	-2945
▁private	-2946
wise	-2947
▁processes	-2948
▁weeks	-2949
▁decision	-2950
▁capac	-2951
▁devices	-2952
▁largest	-2953
▁carry	-2954
▁wa	-2955
▁Serv	-2956
izations	-2957
▁cred	-2958
estic	-2959
▁disp	-2960
▁nearly	-2961
▁Fin	-2962
▁north	-2963
▁bacteria	-2964
▁solution	-2965
▁images	-2966
▁agricult	-2967
▁ord	-2968
ipment	-2969
▁ult	-2970
cks	-2971
▁veh	-2972
▁lines	-2973
imal	-2974
▁speed	-2975
▁stru	-2976
▁sn	-2977
equ	-2978
▁fit	-2979
ulated	-2980
▁places	-2981
▁agree	-2982
▁becomes	-2983
▁leaves	-2984
▁goal	-2985
mission	-2986
▁located	-2987
▁tests	-2988
▁Let	-2989
▁table	-2990
▁mole	-2991
▁Over	-2992
vest	-2993
▁ep	-2994
▁memory	-2995
odies	-2996
▁Press	-2997
▁website	-2998
▁respond	-2999
▁season	-3000
▁adop	-3001
▁game	-3002
▁appropriate	-3003
▁President	-3004
idents	-3005
▁projects	-3006
uous	-3007
▁establish	-3008
▁Americans	-3009
rag	-3010
▁typically	-3011
▁rare	-3012
used	-3013
▁remain	-3014
▁reach	-3015
▁techniques	-3016
▁mention	-3017
▁communication	-3018
▁remains	-3019
▁England	-3020
iles	-3021
IV	-3022
▁adapt	-3023
▁Associ	-3024
entially	-3025
▁People	-3026
▁crop	-3027
▁rapid	-3028
rael	-3029
▁testing	-3030
▁told	-3031
▁sites	-3032
▁born	-3033
▁adj	-3034
▁Techn	-3035
▁Day	-3036
▁surround	-3037
In	-3038
▁eyes	-3039
sect	-3040
ibrary	-3041
▁deal	-3042
▁Christian	-3043
▁laws	-3044
year	-3045
▁south	-3046
▁Ec	-3047
▁install	-3048
▁Are	-3049
▁summer	-3050
▁mix	-3051
izes	-3052
bit	-3053
▁religious	-3054
▁Trans	-3055
▁efforts	-3056
▁property	-3057
▁behavi	-3058
▁basis	-3059
▁Canada	-3060
itect	-3061
▁beaut	-3062
▁egg	-3063
▁cultural	-3064
ipl	-3065
▁friends	-3066
come	-3067
▁advant	-3068
▁transl	-3069
▁High	-3070
oke	-3071
▁creating	-3072
▁cool	-3073
▁gives	-3074
▁vict	-3075
▁Prog	-3076
▁Just	-3077
▁accom	-3078
inese	-3079
ceed	-3080
▁Another	-3081
▁:	-3082
▁applications	-3083
▁Inst	-3084
iece	-3085
▁Govern	-3086
▁Red	-3087
oud	-3088
▁father	-3089
resh	-3090
▁Use	-3091
▁cold	-3092
AC	-3093
▁eating	-3094
▁Dis	-3095
▁himself	-3096
▁dead	-3097
atur	-3098
ford	-3099
▁died	-3100
EN	-3101
▁teeth	-3102
▁construction	-3103
▁breat	-3104
ondon	-3105
It	-3106
ham	-3107
▁final	-3108
▁Education	-3109
▁citiz	-3110
▁Mod	-3111
▁Cong	-3112
▁saw	-3113
▁Each	-3114
aul	-3115
▁anti	-3116
▁center	-3117
▁September	-3118
aid	-3119
ony	-3120
cles	-3121
▁der	-3122
▁teacher	-3123
▁sugar	-3124
▁stage	-3125
▁examples	-3126
▁Park	-3127
▁cam	-3128
head	-3129
▁monitor	-3130
▁fuel	-3131
arian	-3132
▁command	-3133
▁IS	-3134
▁room	-3135
life	-3136
ogen	-3137
cember	-3138
▁miles	-3139
uments	-3140
ype	-3141
itable	-3142
▁king	-3143
▁calcul	-3144
ari	-3145
▁Sur	-3146
▁pan	-3147
▁Great	-3148
▁therapy	-3149
▁cele	-3150
▁cou	-3151
med	-3152
▁Church	-3153
ellig	-3154
▁son	-3155
▁expected	-3156
ED	-3157
▁coast	-3158
illing	-3159
▁trade	-3160
▁reasons	-3161
▁autom	-3162
ding	-3163
▁hope	-3164
▁responsible	-3165
▁device	-3166
▁affected	-3167
▁Pol	-3168
see	-3169
▁January	-3170
▁sequ	-3171
▁anything	-3172
cohol	-3173
ocr	-3174
▁October	-3175
▁Feb	-3176
▁und	-3177
▁everything	-3178
▁middle	-3179
▁practices	-3180
▁seek	-3181
▁gradu	-3182
▁hous	-3183
▁depend	-3184
▁recently	-3185
▁digital	-3186
▁benefit	-3187
▁web	-3188
▁imag	-3189
▁Commun	-3190
▁cru	-3191
▁nothing	-3192
▁Develop	-3193
▁Once	-3194
▁code	-3195
ira	-3196
back	-3197
strial	-3198
▁Pat	-3199
▁Journal	-3200
▁ice	-3201
▁followed	-3202
aught	-3203
▁receive	-3204
eal	-3205
▁beyond	-3206
▁consequ	-3207
▁Washington	-3208
▁Bi	-3209
▁equipment	-3210
▁older	-3211
rim	-3212
▁bott	-3213
▁bul	-3214
bur	-3215
water	-3216
iar	-3217
ama	-3218
▁forces	-3219
▁models	-3220
▁pen	-3221
▁connect	-3222
▁Israel	-3223
▁hyp	-3224
▁Prof	-3225
ovember	-3226
▁legal	-3227
▁professional	-3228
▁conflic	-3229
▁yourself	-3230
▁rock	-3231
▁communic	-3232
mosp	-3233
▁mid	-3234
ico	-3235
▁objects	-3236
apter	-3237
▁controll	-3238
▁City	-3239
▁economy	-3240
▁guid	-3241
▁screen	-3242
▁providing	-3243
▁choose	-3244
▁exposure	-3245
▁asked	-3246
wor	-3247
ran	-3248
▁opportunity	-3249
▁ten	-3250
ula	-3251
▁Water	-3252
▁Chinese	-3253
▁fear	-3254
unch	-3255
▁enh	-3256
ribute	-3257
▁date	-3258
▁recommend	-3259
▁spirit	-3260
▁overall	-3261
ought	-3262
▁diabetes	-3263
▁cra	-3264
▁System	-3265
▁occurs	-3266
▁insp	-3267
▁weather	-3268
load	-3269
▁strength	-3270
iples	-3271
▁smaller	-3272
▁federal	-3273
▁currently	-3274
▁tit	-3275
▁Vir	-3276
▁pregn	-3277
▁rain	-3278
▁organization	-3279
▁sett	-3280
▁Arch	-3281
ocks	-3282
uff	-3283
▁location	-3284
▁everyone	-3285
▁scale	-3286
▁alone	-3287
▁trying	-3288
▁completely	-3289
▁wrote	-3290
▁differences	-3291
isl	-3292
▁rise	-3293
▁via	-3294
▁degree	-3295
▁constit	-3296
▁woman	-3297
ests	-3298
ospital	-3299
▁shape	-3300
▁rob	-3301
▁won	-3302
rees	-3303
time	-3304
IT	-3305
sec	-3306
▁predict	-3307
▁standards	-3308
airs	-3309
▁Black	-3310
▁swe	-3311
▁measures	-3312
PA	-3313
▁visual	-3314
▁instru	-3315
▁constant	-3316
vert	-3317
▁commonly	-3318
▁beg	-3319
▁drugs	-3320
ech	-3321
▁earlier	-3322
▁successful	-3323
▁London	-3324
▁Cur	-3325
tery	-3326
omb	-3327
anish	-3328
▁pet	-3329
▁purch	-3330
▁December	-3331
▁winter	-3332
▁collection	-3333
oe	-3334
▁County	-3335
amic	-3336
book	-3337
▁Mex	-3338
enge	-3339
▁rules	-3340
▁virt	-3341
ensity	-3342
▁joint	-3343
▁effort	-3344
rick	-3345
▁ball	-3346
▁goes	-3347
▁former	-3348
▁Tod	-3349
▁leave	-3350
▁Under	-3351
▁East	-3352
▁reduced	-3353
con	-3354
▁birds	-3355
▁maintain	-3356
▁isn	-3357
▁DNA	-3358
▁placed	-3359
▁Don	-3360
);	-3361
▁named	-3362
▁approx	-3363
▁Val	-3364
▁Cour	-3365
▁genetic	-3366
▁interesting	-3367
▁electr	-3368
▁users	-3369
xi	-3370
▁exec	-3371
▁billion	-3372
wide	-3373
▁steps	-3374
▁file	-3375
▁allowed	-3376
mitted	-3377
ica	-3378
aur	-3379
men	-3380
▁identified	-3381
▁max	-3382
▁categ	-3383
▁perfect	-3384
▁General	-3385
▁Law	-3386
▁user	-3387
▁applied	-3388
▁discovered	-3389
▁poly	-3390
▁sch	-3391
iest	-3392
▁historical	-3393
lin	-3394
hy	-3395
ingu	-3396
▁acqu	-3397
▁fruit	-3398
▁November	-3399
▁planet	-3400
▁occup	-3401
▁rich	-3402
▁neigh	-3403
▁member	-3404
▁hon	-3405
ste	-3406
rieved	-3407
▁display	-3408
▁context	-3409
▁road	-3410
▁commerc	-3411
▁enter	-3412
▁destro	-3413
▁track	-3414
co	-3415
▁powerful	-3416
▁immune	-3417
uit	-3418
▁continued	-3419
▁gold	-3420
bre	-3421
▁Aut	-3422
ara	-3423
▁compar	-3424
▁Roman	-3425
▁mob	-3426
▁eight	-3427
▁mis	-3428
▁Thus	-3429
▁tox	-3430
irection	-3431
▁showed	-3432
▁sect	-3433
▁majority	-3434
ibly	-3435
▁rule	-3436
▁coming	-3437
▁church	-3438
▁presence	-3439
▁properties	-3440
que	-3441
▁San	-3442
hemat	-3443
reet	-3444
rig	-3445
iable	-3446
▁den	-3447
ruary	-3448
▁Their	-3449
▁formed	-3450
oration	-3451
aled	-3452
ords	-3453
▁signs	-3454
▁machine	-3455
▁miss	-3456
▁+	-3457
▁acad	-3458
▁bra	-3459
▁fair	-3460
▁status	-3461
▁pow	-3462
alt	-3463
edom	-3464
▁limit	-3465
▁mig	-3466
enty	-3467
▁wond	-3468
▁version	-3469
aters	-3470
▁teach	-3471
▁Conf	-3472
ocol	-3473
▁Coun	-3474
▁mouth	-3475
▁illness	-3476
ev	-3477
▁philos	-3478
▁gave	-3479
bl	-3480
▁factor	-3481
▁symbol	-3482
▁cry	-3483
▁patterns	-3484
edia	-3485
▁cook	-3486
ss	-3487
▁Prot	-3488
ament	-3489
▁capacity	-3490
▁assign	-3491
▁nutri	-3492
▁increases	-3493
▁rat	-3494
▁Ro	-3495
▁cities	-3496
▁situ	-3497
▁asse	-3498
ogle	-3499
▁stim	-3500
▁choice	-3501
▁perhaps	-3502
▁Children	-3503
craft	-3504
gery	-3505
▁gir	-3506
cious	-3507
▁court	-3508
▁belief	-3509
▁tissue	-3510
▁House	-3511
▁strugg	-3512
rab	-3513
▁baby	-3514
▁atmosp	-3515
▁remember	-3516
▁actions	-3517
▁dat	-3518
▁Every	-3519
▁changed	-3520
▁illust	-3521
▁fully	-3522
phas	-3523
▁Australia	-3524
aint	-3525
▁emp	-3526
▁antib	-3527
▁relatively	-3528
▁Spec	-3529
▁efficient	-3530
▁note	-3531
aste	-3532
▁Rel	-3533
▁incor	-3534
iring	-3535
▁UK	-3536
▁assist	-3537
known	-3538
▁didn	-3539
can	-3540
▁Environment	-3541
▁female	-3542
▁Society	-3543
▁emissions	-3544
related	-3545
▁tou	-3546
▁Che	-3547
▁Public	-3548
▁See	-3549
▁worth	-3550
▁evolution	-3551
▁promot	-3552
▁vill	-3553
▁moment	-3554
▁moving	-3555
orge	-3556
off	-3557
more	-3558
▁hair	-3559
▁appears	-3560
ees	-3561
▁price	-3562
emy	-3563
encies	-3564
▁mut	-3565
▁unit	-3566
▁effic	-3567
▁functions	-3568
▁stories	-3569
▁Union	-3570
▁Lat	-3571
▁TH	-3572
▁challenges	-3573
▁task	-3574
▁peace	-3575
▁Germany	-3576
▁architect	-3577
▁ast	-3578
▁construct	-3579
▁root	-3580
▁existing	-3581
ternal	-3582
▁components	-3583
▁forward	-3584
lor	-3585
▁element	-3586
▁offers	-3587
▁names	-3588
odes	-3589
▁fresh	-3590
▁Jewish	-3591
rief	-3592
▁piece	-3593
▁alcohol	-3594
▁Inter	-3595
▁staff	-3596
▁educational	-3597
udd	-3598
▁distance	-3599
▁Today	-3600
▁findings	-3601
▁Green	-3602
▁worked	-3603
▁innov	-3604
▁pp	-3605
aign	-3606
▁France	-3607
▁instance	-3608
AL	-3609
▁observed	-3610
▁guide	-3611
▁contract	-3612
▁transfer	-3613
era	-3614
gypt	-3615
iful	-3616
▁style	-3617
resp	-3618
▁susp	-3619
iences	-3620
▁opportunities	-3621
▁Medic	-3622
rehens	-3623
▁giving	-3624
▁initi	-3625
▁repe	-3626
▁river	-3627
▁Ang	-3628
▁convers	-3629
▁#	-3630
ero	-3631
ession	-3632
▁star	-3633
▁consumption	-3634
abilities	-3635
▁ing	-3636
▁February	-3637
▁aim	-3638
rome	-3639
▁evalu	-3640
▁experim	-3641
▁expand	-3642
▁garden	-3643
▁balance	-3644
▁equal	-3645
rupt	-3646
▁Phil	-3647
",	-3648
▁wid	-3649
▁reports	-3650
▁Mic	-3651
▁tele	-3652
ygen	-3653
▁thousands	-3654
force	-3655
▁mal	-3656
▁box	-3657
care	-3658
▁foreign	-3659
▁Des	-3660
house	-3661
▁qual	-3662
▁absor	-3663
inated	-3664
▁resistance	-3665
▁weak	-3666
▁picture	-3667
▁significantly	-3668
▁Av	-3669
▁direction	-3670
▁regions	-3671
▁detect	-3672
▁huge	-3673
▁Retrieved	-3674
▁blue	-3675
▁Pal	-3676
▁mission	-3677
iny	-3678
▁map	-3679
▁milk	-3680
ux	-3681
▁running	-3682
▁collabor	-3683
▁vo	-3684
▁survey	-3685
EC	-3686
icip	-3687
▁planning	-3688
▁options	-3689
▁iron	-3690
▁Students	-3691
▁explain	-3692
▁Association	-3693
▁Dec	-3694
▁defined	-3695
▁strategies	-3696
▁friend	-3697
▁Mat	-3698
▁believed	-3699
▁suggests	-3700
omas	-3701
”,	-3702
▁wrong	-3703
▁chance	-3704
▁famous	-3705
ching	-3706
bed	-3707
hors	-3708
▁income	-3709
▁vision	-3710
▁assum	-3711
asion	-3712
amb	-3713
▁instruct	-3714
▁spect	-3715
▁details	-3716
▁gain	-3717
▁muscle	-3718
▁James	-3719
igen	-3720
▁office	-3721
rec	-3722
▁clinical	-3723
xiety	-3724
▁bound	-3725
▁carried	-3726
▁passed	-3727
▁breast	-3728
▁Work	-3729
ald	-3730
▁Congress	-3731
▁soci	-3732
▁native	-3733
ifically	-3734
▁treated	-3735
▁Bra	-3736
▁citizens	-3737
▁extremely	-3738
▁Therefore	-3739
▁watch	-3740
orage	-3741
▁disorder	-3742
▁plastic	-3743
▁exhib	-3744
▁plans	-3745
▁Colle	-3746
▁util	-3747
▁separate	-3748
▁fix	-3749
▁Western	-3750
▁experiences	-3751
▁divid	-3752
▁Social	-3753
▁insect	-3754
▁Rev	-3755
▁Mich	-3756
▁Rem	-3757
▁glass	-3758
apers	-3759
▁Mary	-3760
▁fert	-3761
▁Ob	-3762
▁excess	-3763
▁Di	-3764
▁feature	-3765
▁novel	-3766
▁David	-3767
▁structures	-3768
isation	-3769
▁attract	-3770
▁suppl	-3771
▁classroom	-3772
pped	-3773
▁Vol	-3774
▁UN	-3775
▁eventually	-3776
▁items	-3777
▁apply	-3778
pris	-3779
▁explore	-3780
▁celebr	-3781
▁requirements	-3782
▁Food	-3783
▁presented	-3784
▁figure	-3785
▁Mor	-3786
▁Egypt	-3787
▁seven	-3788
▁spring	-3789
▁bone	-3790
oma	-3791
ky	-3792
▁topic	-3793
▁highest	-3794
▁generation	-3795
▁phen	-3796
▁decades	-3797
▁organizations	-3798
▁goals	-3799
▁Bu	-3800
▁male	-3801
▁Lord	-3802
▁rot	-3803
▁Internet	-3804
iding	-3805
▁happen	-3806
▁commercial	-3807
▁immediately	-3808
▁liqu	-3809
DA	-3810
▁heavy	-3811
▁mo	-3812
▁technologies	-3813
nes	-3814
▁favor	-3815
▁easier	-3816
▁...	-3817
▁Human	-3818
part	-3819
▁Plan	-3820
▁industrial	-3821
ographic	-3822
▁sac	-3823
uls	-3824
▁pick	-3825
▁Bel	-3826
▁urban	-3827
ares	-3828
che	-3829
▁journal	-3830
asks	-3831
iance	-3832
eces	-3833
▁board	-3834
▁Using	-3835
.;	-3836
▁medicine	-3837
lim	-3838
ube	-3839
▁hom	-3840
▁depression	-3841
▁save	-3842
▁learned	-3843
▁intellig	-3844
▁Found	-3845
▁emphas	-3846
wards	-3847
▁Sub	-3848
▁conducted	-3849
▁reality	-3850
▁Net	-3851
▁bed	-3852
▁bank	-3853
▁Japanese	-3854
▁truth	-3855
iant	-3856
II	-3857
▁Program	-3858
▁neu	-3859
▁perspect	-3860
ulum	-3861
▁sample	-3862
▁dyn	-3863
pan	-3864
zz	-3865
change	-3866
ken	-3867
▁introduced	-3868
▁resource	-3869
▁Sam	-3870
▁slight	-3871
▁vary	-3872
▁mer	-3873
▁contrast	-3874
uing	-3875
ologist	-3876
This	-3877
enth	-3878
▁cycle	-3879
▁letter	-3880
ophy	-3881
▁faith	-3882
▁becoming	-3883
▁remove	-3884
▁Web	-3885
▁approximately	-3886
▁performed	-3887
▁Two	-3888
▁electricity	-3889
▁decisions	-3890
▁release	-3891
▁serve	-3892
▁bodies	-3893
▁alternative	-3894
plications	-3895
▁distribution	-3896
▁actual	-3897
▁challenge	-3898
▁agg	-3899
▁speech	-3900
▁Further	-3901
OS	-3902
▁cand	-3903
cast	-3904
▁sexual	-3905
▁ves	-3906
▁literature	-3907
▁recommended	-3908
▁nutrition	-3909
▁experiment	-3910
▁fig	-3911
▁kid	-3912
▁Phys	-3913
St	-3914
bal	-3915
▁temperatures	-3916
▁metal	-3917
▁legisl	-3918
▁populations	-3919
▁opin	-3920
▁aspects	-3921
▁plat	-3922
EM	-3923
▁Gra	-3924
tical	-3925
roph	-3926
erate	-3927
▁graph	-3928
▁stream	-3929
▁destroy	-3930
iate	-3931
ida	-3932
▁Tur	-3933
▁nuclear	-3934
▁Air	-3935
▁oxygen	-3936
imens	-3937
othes	-3938
▁moved	-3939
▁president	-3940
▁records	-3941
▁estimated	-3942
▁organic	-3943
▁gene	-3944
antic	-3945
▁connected	-3946
▁disorders	-3947
▁frequently	-3948
▁Organ	-3949
▁numerous	-3950
gal	-3951
▁buy	-3952
▁assessment	-3953
▁College	-3954
▁widely	-3955
▁ign	-3956
▁combination	-3957
▁desp	-3958
▁Paul	-3959
ously	-3960
▁trust	-3961
▁mag	-3962
▁chronic	-3963
▁party	-3964
▁buildings	-3965
▁causing	-3966
ager	-3967
AM	-3968
▁household	-3969
▁flood	-3970
ingly	-3971
▁participants	-3972
Wh	-3973
▁reference	-3974
char	-3975
porary	-3976
uses	-3977
▁solutions	-3978
▁independent	-3979
▁released	-3980
▁fields	-3981
▁statement	-3982
▁Council	-3983
▁Som	-3984
unction	-3985
▁notes	-3986
▁Test	-3987
▁pi	-3988
▁violence	-3989
ET	-3990
▁operations	-3991
▁doub	-3992
▁esc	-3993
▁homes	-3994
tee	-3995
ulf	-3996
ologists	-3997
▁…	-3998
▁vitamin	-3999
▁Rober	-4000
▁characteristics	-4001
▁dogs	-4002
▁risks	-4003
▁store	-4004
▁changing	-4005
▁film	-4006
ructure	-4007
▁compl	-4008
▁George	-4009
▁reducing	-4010
▁Greek	-4011
icial	-4012
▁drive	-4013
▁Def	-4014
PS	-4015
raction	-4016
▁inflamm	-4017
▁setting	-4018
▁Hel	-4019
raw	-4020
ortion	-4021
▁clearly	-4022
rant	-4023
▁college	-4024
order	-4025
elines	-4026
▁layer	-4027
▁Both	-4028
▁thr	-4029
▁failure	-4030
▁Development	-4031
▁trig	-4032
▁killed	-4033
do	-4034
▁divers	-4035
clus	-4036
▁policies	-4037
cular	-4038
▁Fore	-4039
met	-4040
▁prefer	-4041
▁univers	-4042
rog	-4043
ressive	-4044
▁starting	-4045
▁gets	-4046
▁bottom	-4047
▁isol	-4048
▁About	-4049
▁Like	-4050
▁email	-4051
▁NAS	-4052
▁resulting	-4053
ognitive	-4054
erences	-4055
▁appe	-4056
▁lived	-4057
▁discussion	-4058
Ch	-4059
▁internal	-4060
▁partners	-4061
▁drop	-4062
▁Mark	-4063
ped	-4064
▁injury	-4065
iveness	-4066
▁Tex	-4067
▁minor	-4068
ilit	-4069
▁shap	-4070
▁initial	-4071
▁technique	-4072
▁ready	-4073
▁dri	-4074
▁campaign	-4075
▁Republic	-4076
cont	-4077
▁Off	-4078
▁covered	-4079
works	-4080
▁Government	-4081
▁ocean	-4082
▁connection	-4083
olved	-4084
▁Its	-4085
▁wanted	-4086
▁tour	-4087
tered	-4088
▁infections	-4089
▁authors	-4090
▁burn	-4091
▁Museum	-4092
▁noted	-4093
essor	-4094
▁prepar	-4095
▁anyone	-4096
▁ded	-4097
rosc	-4098
▁battle	-4099
▁Spanish	-4100
ollow	-4101
ij	-4102
▁thick	-4103
▁involves	-4104
▁Project	-4105
ias	-4106
▁ST	-4107
atically	-4108
▁vessel	-4109
▁anxiety	-4110
▁hear	-4111
▁tim	-4112
▁surgery	-4113
▁Mal	-4114
rest	-4115
▁removed	-4116
▁turned	-4117
▁exactly	-4118
▁La	-4119
anging	-4120
rm	-4121
▁Sy	-4122
▁trend	-4123
▁mostly	-4124
▁horm	-4125
▁Dem	-4126
▁circum	-4127
▁arm	-4128
hetic	-4129
olid	-4130
▁creation	-4131
▁Court	-4132
▁upper	-4133
▁Ev	-4134
▁relationships	-4135
▁sav	-4136
▁distinct	-4137
▁Second	-4138
▁happens	-4139
lick	-4140
▁territ	-4141
▁referred	-4142
SA	-4143
▁tooth	-4144
▁sand	-4145
▁counter	-4146
roup	-4147
▁feeling	-4148
▁seed	-4149
key	-4150
▁load	-4151
urance	-4152
▁replace	-4153
▁storage	-4154
▁cris	-4155
ocal	-4156
rows	-4157
▁expression	-4158
▁degrees	-4159
▁finding	-4160
▁trib	-4161
▁games	-4162
▁pal	-4163
▁background	-4164
erved	-4165
▁reprodu	-4166
▁encourage	-4167
▁Rich	-4168
▁conv	-4169
▁volume	-4170
▁experts	-4171
▁vul	-4172
▁physic	-4173
▁advanced	-4174
▁dangerous	-4175
▁freedom	-4176
amental	-4177
▁Sun	-4178
ault	-4179
▁output	-4180
▁genes	-4181
▁radio	-4182
▁scen	-4183
▁message	-4184
▁classes	-4185
▁Bas	-4186
onds	-4187
▁principles	-4188
▁fine	-4189
▁trou	-4190
ception	-4191
▁incorpor	-4192
▁Mr	-4193
▁confirm	-4194
▁upd	-4195
▁Cath	-4196
▁properly	-4197
▁nor	-4198
▁tum	-4199
▁annual	-4200
▁adjust	-4201
▁emotional	-4202
▁mentioned	-4203
ndrome	-4204
▁win	-4205
▁academic	-4206
▁core	-4207
▁whom	-4208
▁leads	-4209
▁seeds	-4210
▁die	-4211
▁religion	-4212
▁radiation	-4213
▁meeting	-4214
▁Hen	-4215
osystem	-4216
▁Mount	-4217
▁helped	-4218
uration	-4219
▁race	-4220
▁diss	-4221
▁determined	-4222
anch	-4223
▁comprehens	-4224
▁option	-4225
▁regarding	-4226
▁conflict	-4227
▁Port	-4228
▁experienced	-4229
▁units	-4230
och	-4231
▁dram	-4232
ii	-4233
▁landsc	-4234
▁processing	-4235
▁HIV	-4236
▁involve	-4237
▁advantage	-4238
riculum	-4239
▁unf	-4240
▁White	-4241
▁Ben	-4242
ortunately	-4243
▁Step	-4244
▁solid	-4245
ping	-4246
▁belong	-4247
orial	-4248
eties	-4249
▁profession	-4250
▁excell	-4251
oyal	-4252
▁Bro	-4253
▁NASA	-4254
▁synt	-4255
▁transform	-4256
▁click	-4257
▁pric	-4258
▁mathemat	-4259
▁inh	-4260
ressed	-4261
▁linked	-4262
▁Scient	-4263
▁exposed	-4264
▁grade	-4265
▁jour	-4266
▁influen	-4267
▁math	-4268
▁Post	-4269
▁elimin	-4270
ishing	-4271
▁previously	-4272
riage	-4273
ios	-4274
▁depending	-4275
▁lung	-4276
▁alg	-4277
▁pollution	-4278
ander	-4279
▁relevant	-4280
ST	-4281
▁describe	-4282
▁Jews	-4283
▁god	-4284
▁expert	-4285
▁grant	-4286
▁effectively	-4287
▁heard	-4288
▁Get	-4289
▁please	-4290
▁kept	-4291
▁motor	-4292
▁defic	-4293
▁gender	-4294
▁reaction	-4295
▁reb	-4296
▁amounts	-4297
▁input	-4298
▁mist	-4299
▁manufacture	-4300
▁meat	-4301
▁promote	-4302
▁island	-4303
▁grass	-4304
▁spot	-4305
▁concerns	-4306
rum	-4307
▁beautiful	-4308
▁sem	-4309
za	-4310
▁Met	-4311
▁Treat	-4312
urt	-4313
▁helping	-4314
RE	-4315
▁conservation	-4316
▁Cle	-4317
▁Ber	-4318
cers	-4319
ya	-4320
▁sort	-4321
▁Ser	-4322
▁interpret	-4323
▁served	-4324
▁meant	-4325
▁round	-4326
▁operation	-4327
▁calc	-4328
ago	-4329
mark	-4330
▁Asia	-4331
▁wealth	-4332
ributed	-4333
▁Data	-4334
▁coal	-4335
ategy	-4336
▁presc	-4337
▁phase	-4338
▁Mexico	-4339
▁comfort	-4340
oking	-4341
onic	-4342
▁Elect	-4343
▁square	-4344
umn	-4345
▁manage	-4346
▁Isl	-4347
uted	-4348
▁decided	-4349
▁vot	-4350
▁Class	-4351
▁concepts	-4352
▁interested	-4353
▁Island	-4354
itz	-4355
▁eggs	-4356
▁prepared	-4357
▁Old	-4358
▁improved	-4359
▁farmers	-4360
▁ship	-4361
▁definition	-4362
▁strategy	-4363
▁Service	-4364
▁Mars	-4365
stitution	-4366
▁saying	-4367
▁hour	-4368
▁Mac	-4369
▁pages	-4370
place	-4371
▁Je	-4372
▁engineering	-4373
▁Thomas	-4374
iverse	-4375
▁Ref	-4376
▁volunt	-4377
▁consult	-4378
▁Make	-4379
▁kill	-4380
mat	-4381
▁mel	-4382
rete	-4383
▁Texas	-4384
▁obvious	-4385
▁spent	-4386
▁official	-4387
▁Central	-4388
▁efficiency	-4389
▁Fre	-4390
▁southern	-4391
▁pip	-4392
▁impl	-4393
ded	-4394
ams	-4395
▁northern	-4396
▁bud	-4397
ifying	-4398
▁hearing	-4399
▁articles	-4400
▁Sal	-4401
▁datab	-4402
▁pun	-4403
zing	-4404
▁diagnosis	-4405
▁concern	-4406
▁vaccine	-4407
ria	-4408
▁aid	-4409
▁manner	-4410
▁invent	-4411
▁AD	-4412
▁Op	-4413
ta	-4414
▁discover	-4415
▁Dist	-4416
▁completed	-4417
▁signal	-4418
▁credit	-4419
▁platform	-4420
▁atmosphere	-4421
▁Mart	-4422
isher	-4423
▁owners	-4424
▁Learning	-4425
▁Sk	-4426
▁cast	-4427
iling	-4428
▁languages	-4429
▁vegetables	-4430
lease	-4431
▁conclud	-4432
▁cere	-4433
well	-4434
▁sustainable	-4435
▁Up	-4436
aughter	-4437
▁awareness	-4438
wood	-4439
board	-4440
▁reached	-4441
alled	-4442
▁institutions	-4443
▁procedure	-4444
▁chemicals	-4445
berg	-4446
▁conver	-4447
▁Acad	-4448
▁Miss	-4449
standing	-4450
▁west	-4451
▁clos	-4452
▁professor	-4453
▁mainly	-4454
clusion	-4455
▁pret	-4456
nic	-4457
▁samples	-4458
acing	-4459
▁Through	-4460
▁song	-4461
▁Jer	-4462
▁hospital	-4463
ules	-4464
ball	-4465
comes	-4466
▁pieces	-4467
▁Addition	-4468
tes	-4469
ormal	-4470
▁hop	-4471
▁lesson	-4472
uable	-4473
bi	-4474
▁motiv	-4475
▁Hol	-4476
▁Energy	-4477
▁mort	-4478
▁appoint	-4479
▁supported	-4480
▁proposed	-4481
▁practical	-4482
▁recorded	-4483
▁Britain	-4484
▁looks	-4485
▁continues	-4486
▁secret	-4487
▁Any	-4488
▁frequency	-4489
▁revolution	-4490
CC	-4491
▁Supp	-4492
vision	-4493
▁corresp	-4494
astern	-4495
onomic	-4496
▁Sen	-4497
▁Lou	-4498
▁reduction	-4499
▁lib	-4500
▁contribute	-4501
▁formation	-4502
▁purposes	-4503
▁Civil	-4504
▁extensive	-4505
rep	-4506
▁charge	-4507
▁nav	-4508
▁allowing	-4509
▁vulner	-4510
▁notice	-4511
▁yellow	-4512
▁ban	-4513
▁Disc	-4514
rence	-4515
▁pul	-4516
▁Out	-4517
▁drinking	-4518
▁https	-4519
▁storm	-4520
▁shared	-4521
▁Medical	-4522
pat	-4523
▁authority	-4524
▁Life	-4525
▁Direct	-4526
osite	-4527
▁flex	-4528
▁News	-4529
acific	-4530
▁intended	-4531
umin	-4532
▁electrical	-4533
▁brother	-4534
su	-4535
▁begins	-4536
▁dro	-4537
▁Women	-4538
otic	-4539
ounced	-4540
▁sufficient	-4541
▁station	-4542
▁youth	-4543
▁situations	-4544
akers	-4545
▁Virgin	-4546
eline	-4547
rations	-4548
ishes	-4549
▁Where	-4550
▁Ir	-4551
▁toxic	-4552
▁wet	-4553
▁height	-4554
▁master	-4555
▁hit	-4556
▁combined	-4557
▁Space	-4558
▁primarily	-4559
alle	-4560
▁finally	-4561
ears	-4562
▁Cam	-4563
▁focused	-4564
AD	-4565
▁treatments	-4566
▁Dise	-4567
aker	-4568
▁jobs	-4569
▁park	-4570
▁kinds	-4571
▁ideal	-4572
▁renew	-4573
lig	-4574
▁tasks	-4575
▁offered	-4576
acters	-4577
itors	-4578
ixt	-4579
▁straight	-4580
▁fib	-4581
▁liquid	-4582
▁facts	-4583
▁Before	-4584
▁certainly	-4585
OT	-4586
▁indicate	-4587
▁Technology	-4588
▁consequences	-4589
▁Arab	-4590
▁lic	-4591
▁Such	-4592
istan	-4593
▁Instead	-4594
▁sector	-4595
▁Mil	-4596
▁fort	-4597
eters	-4598
▁phenomen	-4599
▁forced	-4600
▁muscles	-4601
▁taught	-4602
▁Information	-4603
▁extent	-4604
▁brief	-4605
▁largely	-4606
▁existence	-4607
▁subjects	-4608
▁occurred	-4609
▁morning	-4610
▁wonder	-4611
▁vital	-4612
ags	-4613
▁advance	-4614
▁collected	-4615
rapy	-4616
espite	-4617
▁showing	-4618
ulating	-4619
▁remained	-4620
▁foss	-4621
▁Bur	-4622
▁operating	-4623
▁Medicine	-4624
▁Franc	-4625
▁coord	-4626
▁technical	-4627
▁identity	-4628
olute	-4629
ague	-4630
▁waters	-4631
des	-4632
▁Exam	-4633
EL	-4634
▁career	-4635
▁Latin	-4636
oper	-4637
aturally	-4638
▁ecosystem	-4639
▁keeping	-4640
▁crucial	-4641
▁digest	-4642
▁Book	-4643
▁AN	-4644
].	-4645
▁doll	-4646
▁army	-4647
▁nutrients	-4648
▁Bay	-4649
▁impacts	-4650
▁perman	-4651
▁Well	-4652
▁specifically	-4653
▁Atl	-4654
iated	-4655
▁spend	-4656
▁Robert	-4657
rier	-4658
unk	-4659
▁hyper	-4660
▁shar	-4661
▁centuries	-4662
icated	-4663
▁east	-4664
▁gar	-4665
leg	-4666
▁flowers	-4667
ses	-4668
▁lov	-4669
eria	-4670
▁recy	-4671
gl	-4672
▁bird	-4673
inger	-4674
▁stone	-4675
vis	-4676
▁emergency	-4677
atric	-4678
▁bright	-4679
▁quar	-4680
▁attacks	-4681
arrow	-4682
▁metab	-4683
▁kn	-4684
▁faster	-4685
▁particles	-4686
▁roll	-4687
▁Common	-4688
roke	-4689
▁Jud	-4690
▁Stand	-4691
▁Army	-4692
▁Bet	-4693
▁salt	-4694
▁responsibility	-4695
▁felt	-4696
▁settle	-4697
▁double	-4698
inent	-4699
▁Mass	-4700
gra	-4701
▁resist	-4702
osen	-4703
▁Expl	-4704
▁Sl	-4705
▁despite	-4706
▁Those	-4707
▁Fe	-4708
▁raised	-4709
AP	-4710
going	-4711
▁advice	-4712
tion	-4713
rian	-4714
ossible	-4715
▁leader	-4716
nel	-4717
olars	-4718
omin	-4719
RI	-4720
▁grand	-4721
▁surrounding	-4722
ework	-4723
west	-4724
▁syn	-4725
▁topics	-4726
ado	-4727
▁domestic	-4728
ipped	-4729
▁measured	-4730
▁letters	-4731
▁nations	-4732
▁vehicle	-4733
▁vast	-4734
ancing	-4735
▁Fam	-4736
rich	-4737
▁Commission	-4738
▁clim	-4739
▁proteins	-4740
▁detailed	-4741
▁characters	-4742
▁liver	-4743
▁wife	-4744
▁oral	-4745
▁bill	-4746
▁affects	-4747
▁Cop	-4748
▁Que	-4749
▁monitoring	-4750
▁external	-4751
▁Histor	-4752
▁excellent	-4753
▁Studies	-4754
▁nerv	-4755
▁moist	-4756
▁motion	-4757
inding	-4758
▁Psych	-4759
▁Ste	-4760
▁perspective	-4761
▁goods	-4762
▁Know	-4763
▁refers	-4764
▁sche	-4765
▁cert	-4766
▁explains	-4767
▁tested	-4768
▁comment	-4769
oo	-4770
▁Flor	-4771
inn	-4772
itness	-4773
▁tro	-4774
▁voice	-4775
osc	-4776
oxide	-4777
▁periods	-4778
ras	-4779
rastructure	-4780
▁aren	-4781
▁haz	-4782
▁maximum	-4783
▁onto	-4784
hi	-4785
▁component	-4786
point	-4787
▁kil	-4788
roc	-4789
▁suggested	-4790
▁typical	-4791
▁Nor	-4792
▁Sou	-4793
othing	-4794
▁Jose	-4795
oughly	-4796
▁THE	-4797
ael	-4798
▁sounds	-4799
roid	-4800
▁Wind	-4801
▁crops	-4802
▁Sum	-4803
▁Despite	-4804
li	-4805
▁diam	-4806
enses	-4807
▁mere	-4808
▁agricultural	-4809
▁Yet	-4810
▁blog	-4811
▁>	-4812
▁familiar	-4813
anges	-4814
▁accurate	-4815
▁Land	-4816
▁cognitive	-4817
▁immig	-4818
▁otherwise	-4819
verty	-4820
▁played	-4821
field	-4822
ails	-4823
▁divided	-4824
▁vent	-4825
▁explan	-4826
▁nit	-4827
▁slightly	-4828
▁facilities	-4829
▁poverty	-4830
▁satis	-4831
▁ju	-4832
▁Bible	-4833
▁potentially	-4834
gment	-4835
▁sin	-4836
iced	-4837
down	-4838
▁explained	-4839
▁Smith	-4840
▁controlled	-4841
▁send	-4842
▁fundamental	-4843
▁biological	-4844
▁Budd	-4845
▁links	-4846
BC	-4847
▁greatest	-4848
▁Mem	-4849
▁thin	-4850
▁immun	-4851
▁<	-4852
▁fluid	-4853
▁flat	-4854
rates	-4855
▁crisis	-4856
ville	-4857
▁spl	-4858
▁floor	-4859
omy	-4860
▁helpful	-4861
igenous	-4862
▁girls	-4863
▁lose	-4864
▁fif	-4865
ificial	-4866
▁Google	-4867
▁Foundation	-4868
osa	-4869
▁increasingly	-4870
▁trial	-4871
▁valid	-4872
▁km	-4873
RO	-4874
▁Lake	-4875
▁domin	-4876
▁paint	-4877
▁subsequ	-4878
▁rail	-4879
▁interests	-4880
▁studied	-4881
band	-4882
▁western	-4883
▁depends	-4884
▁snow	-4885
▁phone	-4886
▁grown	-4887
▁surpris	-4888
ht	-4889
▁fruits	-4890
▁Pacific	-4891
▁chann	-4892
▁apparent	-4893
▁substant	-4894
▁investment	-4895
ensus	-4896
▁neut	-4897
▁happened	-4898
▁Sea	-4899
▁harvest	-4900
▁smart	-4901
▁CD	-4902
▁persons	-4903
aks	-4904
▁tips	-4905
▁obtained	-4906
▁Kore	-4907
athy	-4908
▁Inf	-4909
stood	-4910
▁rural	-4911
▁request	-4912
▁instruction	-4913
▁abuse	-4914
▁police	-4915
▁depth	-4916
▁habitat	-4917
▁BC	-4918
▁Professor	-4919
▁sen	-4920
▁interview	-4921
▁stars	-4922
▁Henry	-4923
▁Middle	-4924
▁bow	-4925
resents	-4926
▁Russian	-4927
▁follows	-4928
cript	-4929
▁disapp	-4930
▁pil	-4931
name	-4932
▁format	-4933
▁pregnancy	-4934
▁continuous	-4935
▁Charles	-4936
▁introduction	-4937
▁officials	-4938
▁cardi	-4939
utive	-4940
▁thoughts	-4941
▁stem	-4942
▁instrument	-4943
col	-4944
▁Tem	-4945
▁wel	-4946
▁Ham	-4947
▁elev	-4948
▁looked	-4949
▁curriculum	-4950
▁Environmental	-4951
▁consists	-4952
▁containing	-4953
▁playing	-4954
▁roots	-4955
▁Good	-4956
▁Del	-4957
▁outcomes	-4958
▁governments	-4959
▁Engine	-4960
celer	-4961
▁Mont	-4962
ION	-4963
▁convent	-4964
▁walls	-4965
▁decrease	-4966
▁Saf	-4967
▁deliver	-4968
▁argument	-4969
▁Figure	-4970
▁Pub	-4971
▁Russia	-4972
▁returned	-4973
▁hundreds	-4974
win	-4975
▁dial	-4976
van	-4977
itage	-4978
▁prices	-4979
▁Nav	-4980
▁protected	-4981
▁concentration	-4982
▁deaths	-4983
lar	-4984
▁pray	-4985
▁concerned	-4986
▁approaches	-4987
▁neighbor	-4988
chers	-4989
zy	-4990
burg	-4991
BN	-4992
▁lik	-4993
▁recognized	-4994
which	-4995
active	-4996
MS	-4997
▁rapidly	-4998
▁train	-4999
▁represents	-5000
▁weap	-5001
▁stock	-5002
▁firm	-5003
▁Carol	-5004
▁prison	-5005
▁suffering	-5006
right	-5007
▁tried	-5008
DF	-5009
▁Catholic	-5010
▁feelings	-5011
rolog	-5012
asure	-5013
▁Id	-5014
hips	-5015
▁syndrome	-5016
▁closely	-5017
▁appeared	-5018
▁employees	-5019
atever	-5020
▁Wild	-5021
▁minimum	-5022
▁du	-5023
▁residents	-5024
▁Bre	-5025
▁pig	-5026
▁director	-5027
▁appearance	-5028
▁fle	-5029
▁valuable	-5030
mp	-5031
▁pu	-5032
▁sed	-5033
▁title	-5034
▁accompl	-5035
▁visible	-5036
▁principle	-5037
yright	-5038
▁portion	-5039
tenance	-5040
ye	-5041
▁wear	-5042
▁therm	-5043
ascular	-5044
onomy	-5045
▁medications	-5046
▁internet	-5047
▁Ox	-5048
▁files	-5049
abil	-5050
▁chief	-5051
?”	-5052
▁Sov	-5053
▁dut	-5054
▁extract	-5055
▁rand	-5056
▁medium	-5057
▁Att	-5058
▁selected	-5059
fall	-5060
’.	-5061
▁latest	-5062
what	-5063
▁justice	-5064
▁claims	-5065
▁rein	-5066
▁paid	-5067
▁Emp	-5068
▁Have	-5069
▁procedures	-5070
▁diversity	-5071
▁frag	-5072
umber	-5073
▁adding	-5074
▁contem	-5075
▁inflammation	-5076
▁enhance	-5077
▁satell	-5078
▁views	-5079
▁discussed	-5080
icks	-5081
▁assemb	-5082
▁gun	-5083
▁Only	-5084
▁regularly	-5085
▁correspond	-5086
▁lessons	-5087
▁reform	-5088
▁infected	-5089
▁wire	-5090
▁circumst	-5091
ooth	-5092
▁expensive	-5093
▁conscious	-5094
▁sides	-5095
▁behaviour	-5096
▁san	-5097
▁Prov	-5098
▁param	-5099
▁random	-5100
▁Keep	-5101
TS	-5102
▁band	-5103
▁naturally	-5104
▁Control	-5105
▁Power	-5106
indu	-5107
▁leaving	-5108
▁stated	-5109
▁inches	-5110
▁IN	-5111
lers	-5112
▁recovery	-5113
▁driving	-5114
bing	-5115
ulin	-5116
▁Nature	-5117
▁businesses	-5118
▁stret	-5119
▁horse	-5120
▁Review	-5121
▁knew	-5122
▁purs	-5123
▁distingu	-5124
▁spiritual	-5125
▁Phot	-5126
ario	-5127
▁ages	-5128
CO	-5129
▁Alex	-5130
▁Add	-5131
▁push	-5132
▁Exper	-5133
tr	-5134
ellect	-5135
▁movements	-5136
▁advoc	-5137
▁Who	-5138
▁moral	-5139
racy	-5140
▁recognize	-5141
▁Ap	-5142
▁soldiers	-5143
▁couple	-5144
▁infrastructure	-5145
▁Vis	-5146
iled	-5147
▁mobile	-5148
▁alt	-5149
free	-5150
▁secure	-5151
ga	-5152
▁intelligence	-5153
▁funding	-5154
anes	-5155
▁pump	-5156
▁discovery	-5157
US	-5158
▁Micro	-5159
▁sick	-5160
▁ingred	-5161
▁colors	-5162
▁shel	-5163
mic	-5164
ocratic	-5165
▁Bat	-5166
▁sets	-5167
▁agriculture	-5168
▁millions	-5169
ING	-5170
▁od	-5171
▁PC	-5172
stream	-5173
alse	-5174
▁Company	-5175
▁Note	-5176
▁rub	-5177
▁documents	-5178
▁boost	-5179
oral	-5180
▁Div	-5181
▁corpor	-5182
orith	-5183
▁Louis	-5184
▁Follow	-5185
state	-5186
mas	-5187
cling	-5188
▁AI	-5189
▁capable	-5190
▁Management	-5191
▁Group	-5192
▁Please	-5193
anguage	-5194
▁stages	-5195
▁secondary	-5196
▁Rad	-5197
▁Writ	-5198
▁substance	-5199
▁Library	-5200
bert	-5201
▁Rights	-5202
▁prevention	-5203
▁Finally	-5204
▁Long	-5205
with	-5206
▁Design	-5207
ota	-5208
▁raise	-5209
esity	-5210
uke	-5211
▁suffer	-5212
▁sensitive	-5213
▁narr	-5214
▁Ter	-5215
la	-5216
▁Whe	-5217
▁healthcare	-5218
▁poet	-5219
▁Though	-5220
▁exchange	-5221
agers	-5222
▁facilit	-5223
▁allerg	-5224
▁absolute	-5225
▁ble	-5226
▁Care	-5227
▁myth	-5228
▁leadership	-5229
▁talking	-5230
ffee	-5231
▁Mo	-5232
▁Federal	-5233
▁mit	-5234
▁adequ	-5235
inet	-5236
▁pref	-5237
▁hunt	-5238
▁wave	-5239
▁chapter	-5240
▁Early	-5241
▁lifest	-5242
rants	-5243
▁Take	-5244
▁experiments	-5245
olf	-5246
plicated	-5247
alysis	-5248
ava	-5249
▁fertil	-5250
▁Last	-5251
▁phr	-5252
▁dental	-5253
▁precise	-5254
▁Virginia	-5255
▁incl	-5256
osal	-5257
being	-5258
▁unlike	-5259
▁entirely	-5260
asp	-5261
▁massive	-5262
long	-5263
▁creative	-5264
▁Ess	-5265
▁selection	-5266
road	-5267
▁trad	-5268
king	-5269
▁Global	-5270
▁steel	-5271
▁impossible	-5272
cules	-5273
dden	-5274
pping	-5275
▁producing	-5276
▁Ext	-5277
▁Ca	-5278
▁pure	-5279
▁apart	-5280
▁era	-5281
▁prem	-5282
▁revealed	-5283
▁Pers	-5284
▁intake	-5285
alian	-5286
▁describes	-5287
▁Det	-5288
VID	-5289
olve	-5290
▁parties	-5291
▁touch	-5292
▁diverse	-5293
teries	-5294
▁closed	-5295
▁normally	-5296
▁interf	-5297
▁traffic	-5298
ston	-5299
▁label	-5300
▁vehicles	-5301
▁Ann	-5302
▁computers	-5303
▁calls	-5304
▁library	-5305
▁minim	-5306
▁opinion	-5307
▁brown	-5308
CS	-5309
▁gall	-5310
▁Exp	-5311
ypes	-5312
▁networks	-5313
▁suitable	-5314
ny	-5315
▁Ken	-5316
asive	-5317
obe	-5318
▁Florida	-5319
▁survival	-5320
▁manufacturing	-5321
▁recon	-5322
▁nurs	-5323
idden	-5324
▁wors	-5325
▁consid	-5326
olester	-5327
othe	-5328
▁figures	-5329
▁Diff	-5330
▁originally	-5331
▁formal	-5332
▁recip	-5333
▁antibiot	-5334
▁landscape	-5335
▁Labor	-5336
▁Office	-5337
▁generate	-5338
▁tun	-5339
▁accepted	-5340
▁routine	-5341
abric	-5342
▁inject	-5343
▁comprehensive	-5344
ato	-5345
▁understood	-5346
ibilities	-5347
liam	-5348
▁chain	-5349
▁speaking	-5350
aser	-5351
▁improving	-5352
.|	-5353
▁narrow	-5354
▁possess	-5355
▁prepare	-5356
ona	-5357
ca	-5358
▁worldwide	-5359
▁moon	-5360
omach	-5361
▁plays	-5362
▁amb	-5363
▁village	-5364
ilding	-5365
▁database	-5366
▁possibly	-5367
vironments	-5368
▁cars	-5369
▁supplement	-5370
▁nan	-5371
▁sudden	-5372
▁decline	-5373
▁Sym	-5374
▁stick	-5375
▁transition	-5376
ctic	-5377
▁regional	-5378
▁possibility	-5379
▁opened	-5380
▁bones	-5381
▁index	-5382
▁flight	-5383
▁candid	-5384
▁adopted	-5385
▁listed	-5386
▁guidelines	-5387
▁restrict	-5388
▁district	-5389
▁pictures	-5390
▁mamm	-5391
▁readers	-5392
▁Peter	-5393
isp	-5394
▁warming	-5395
▁Natural	-5396
▁Form	-5397
▁medication	-5398
▁Fact	-5399
▁fill	-5400
▁aircraft	-5401
▁toler	-5402
▁harmful	-5403
▁tal	-5404
▁dream	-5405
▁Home	-5406
anged	-5407
▁Frank	-5408
exp	-5409
▁Ill	-5410
▁stored	-5411
olesterol	-5412
▁answers	-5413
osph	-5414
▁latter	-5415
abits	-5416
pass	-5417
▁houses	-5418
agues	-5419
▁gather	-5420
▁budget	-5421
▁Joseph	-5422
▁ISBN	-5423
▁marriage	-5424
▁worse	-5425
ropical	-5426
flow	-5427
mary	-5428
▁aw	-5429
▁achieved	-5430
apping	-5431
erals	-5432
ka	-5433
▁suc	-5434
orter	-5435
▁Gold	-5436
▁forests	-5437
kin	-5438
▁administration	-5439
▁Stat	-5440
pet	-5441
▁wildlife	-5442
ifies	-5443
▁engage	-5444
▁solve	-5445
▁acts	-5446
▁imper	-5447
▁repeated	-5448
aph	-5449
rors	-5450
▁mac	-5451
▁starts	-5452
imer	-5453
▁tow	-5454
▁window	-5455
▁aqu	-5456
mun	-5457
normal	-5458
▁leaf	-5459
▁plate	-5460
▁Dan	-5461
▁Soviet	-5462
▁Learn	-5463
▁dust	-5464
▁beneficial	-5465
▁mountain	-5466
▁journey	-5467
aria	-5468
lements	-5469
▁USA	-5470
▁cloud	-5471
▁arms	-5472
hemical	-5473
▁scholars	-5474
▁fell	-5475
▁abund	-5476
▁doctors	-5477
▁professionals	-5478
▁Constitution	-5479
liament	-5480
▁injuries	-5481
▁pretty	-5482
▁Free	-5483
war	-5484
▁unless	-5485
▁survive	-5486
▁sports	-5487
▁museum	-5488
▁apprec	-5489
▁agreement	-5490
inations	-5491
ester	-5492
▁af	-5493
▁ancest	-5494
▁Lab	-5495
▁struggle	-5496
▁Vict	-5497
▁tail	-5498
▁surf	-5499
▁Canadian	-5500
▁remaining	-5501
▁tells	-5502
prise	-5503
▁Cre	-5504
▁afford	-5505
▁Columb	-5506
▁universe	-5507
▁Sometimes	-5508
▁maintenance	-5509
▁transmission	-5510
▁creates	-5511
▁remote	-5512
▁equival	-5513
▁generated	-5514
▁twice	-5515
▁Paris	-5516
▁Cult	-5517
▁Report	-5518
▁Australian	-5519
▁Clin	-5520
▁algorith	-5521
▁chart	-5522
▁Commit	-5523
iform	-5524
▁cultiv	-5525
▁accounts	-5526
▁choices	-5527
▁switch	-5528
▁catch	-5529
▁mur	-5530
born	-5531
organ	-5532
▁childhood	-5533
▁Among	-5534
▁happy	-5535
▁battery	-5536
ki	-5537
oted	-5538
▁marine	-5539
anda	-5540
throp	-5541
▁expressed	-5542
ada	-5543
▁door	-5544
ala	-5545
▁obtain	-5546
▁Time	-5547
▁courses	-5548
▁filled	-5549
▁sequence	-5550
▁sell	-5551
▁acceler	-5552
▁extended	-5553
ansion	-5554
ects	-5555
▁depos	-5556
▁tiny	-5557
▁sweet	-5558
▁electronic	-5559
▁Ma	-5560
▁discipl	-5561
add	-5562
▁assistance	-5563
ums	-5564
inder	-5565
▁error	-5566
▁edge	-5567
▁waves	-5568
▁OF	-5569
gent	-5570
ican	-5571
▁bio	-5572
▁lands	-5573
eper	-5574
▁environments	-5575
▁Study	-5576
ogue	-5577
IL	-5578
▁decade	-5579
’,	-5580
▁circumstances	-5581
▁aer	-5582
rem	-5583
▁agencies	-5584
▁Cat	-5585
▁unknown	-5586
▁studying	-5587
nam	-5588
▁enable	-5589
orrow	-5590
▁End	-5591
▁seeing	-5592
▁optim	-5593
▁Kh	-5594
▁consistent	-5595
▁indeed	-5596
▁Tor	-5597
tage	-5598
▁reject	-5599
▁locations	-5600
ashion	-5601
spec	-5602
▁opening	-5603
▁wants	-5604
▁shell	-5605
▁perce	-5606
▁molecules	-5607
If	-5608
.’	-5609
▁outl	-5610
ua	-5611
▁derived	-5612
icians	-5613
▁Haw	-5614
▁foundation	-5615
▁broken	-5616
▁colour	-5617
▁intellect	-5618
▁Disease	-5619
▁produces	-5620
▁failed	-5621
▁skill	-5622
▁successfully	-5623
▁slowly	-5624
icide	-5625
▁intervention	-5626
▁kit	-5627
▁pull	-5628
▁framework	-5629
▁gal	-5630
▁critic	-5631
▁copy	-5632
▁composition	-5633
zen	-5634
▁traum	-5635
▁Nations	-5636
▁troops	-5637
▁Street	-5638
▁mechanism	-5639
cel	-5640
▁truly	-5641
▁lots	-5642
▁thor	-5643
▁grav	-5644
▁responses	-5645
▁download	-5646
▁decide	-5647
ini	-5648
▁photos	-5649
CT	-5650
▁audience	-5651
▁Hall	-5652
▁density	-5653
▁Sol	-5654
hist	-5655
oster	-5656
▁opposite	-5657
arant	-5658
▁sentence	-5659
▁sod	-5660
▁yield	-5661
rid	-5662
▁stomach	-5663
▁laun	-5664
▁interaction	-5665
▁doubt	-5666
▁Pract	-5667
▁authorities	-5668
▁multi	-5669
▁signals	-5670
▁greatly	-5671
▁respir	-5672
▁papers	-5673
▁doi	-5674
▁Rob	-5675
inity	-5676
▁acids	-5677
ivery	-5678
▁uns	-5679
last	-5680
irus	-5681
▁Southern	-5682
▁fossil	-5683
▁flav	-5684
▁ratio	-5685
ocracy	-5686
lets	-5687
▁Check	-5688
▁mixed	-5689
▁institution	-5690
ena	-5691
▁permanent	-5692
▁AS	-5693
▁fixed	-5694
▁simpl	-5695
▁protocol	-5696
▁Oh	-5697
▁unp	-5698
▁Mill	-5699
▁circuit	-5700
▁indicates	-5701
HO	-5702
▁raw	-5703
UR	-5704
▁marked	-5705
▁Rome	-5706
▁volunte	-5707
▁managed	-5708
itative	-5709
▁vessels	-5710
struct	-5711
▁description	-5712
hma	-5713
ait	-5714
inction	-5715
itudes	-5716
erent	-5717
▁emotions	-5718
▁laboratory	-5719
body	-5720
▁fasc	-5721
▁Meth	-5722
▁sky	-5723
....	-5724
▁ultimately	-5725
EP	-5726
▁difficulty	-5727
▁witness	-5728
▁consumers	-5729
igation	-5730
▁insects	-5731
▁Mad	-5732
▁cultures	-5733
▁Climate	-5734
▁calcium	-5735
▁COVID	-5736
▁bear	-5737
wing	-5738
▁Wood	-5739
stein	-5740
▁wish	-5741
▁princip	-5742
ribed	-5743
▁represented	-5744
▁walking	-5745
▁comparison	-5746
▁www	-5747
▁Richard	-5748
ache	-5749
▁IP	-5750
▁carefully	-5751
▁fly	-5752
luding	-5753
oned	-5754
▁philosophy	-5755
▁sight	-5756
▁inhib	-5757
▁organized	-5758
▁lifestyle	-5759
▁reader	-5760
▁conventional	-5761
▁corn	-5762
▁newsp	-5763
▁replaced	-5764
▁immediate	-5765
▁fiber	-5766
▁dedicated	-5767
▁debate	-5768
▁Ocean	-5769
no	-5770
▁Quest	-5771
▁accum	-5772
▁cart	-5773
ifications	-5774
▁gluc	-5775
inking	-5776
▁Top	-5777
▁highlight	-5778
▁remark	-5779
kes	-5780
▁hus	-5781
sis	-5782
▁Cancer	-5783
gans	-5784
▁ethnic	-5785
▁acknow	-5786
▁Creat	-5787
▁implementation	-5788
▁Eth	-5789
▁cutting	-5790
reland	-5791
▁attend	-5792
using	-5793
▁Dig	-5794
▁supporting	-5795
▁shift	-5796
▁thousand	-5797
▁Camp	-5798
▁handle	-5799
▁Bank	-5800
reed	-5801
▁ax	-5802
izer	-5803
yles	-5804
▁mild	-5805
▁preval	-5806
▁Click	-5807
▁machines	-5808
▁daughter	-5809
usal	-5810
umes	-5811
▁biggest	-5812
abul	-5813
▁coffee	-5814
▁Find	-5815
▁hero	-5816
▁regulations	-5817
▁Michael	-5818
▁voc	-5819
▁nine	-5820
inate	-5821
▁Forest	-5822
▁Cap	-5823
▁writer	-5824
▁cholesterol	-5825
icago	-5826
zil	-5827
▁regul	-5828
▁desire	-5829
▁noise	-5830
▁brand	-5831
▁Does	-5832
▁closer	-5833
rine	-5834
▁university	-5835
▁electron	-5836
ront	-5837
▁tea	-5838
▁persist	-5839
agon	-5840
▁constitution	-5841
▁Color	-5842
▁limits	-5843
▁Administ	-5844
zed	-5845
▁magnetic	-5846
▁smoking	-5847
▁younger	-5848
rating	-5849
▁pron	-5850
aped	-5851
▁nerve	-5852
▁fabric	-5853
▁pup	-5854
bour	-5855
▁Northern	-5856
▁breathing	-5857
ints	-5858
▁inner	-5859
▁Ireland	-5860
gu	-5861
antly	-5862
tic	-5863
▁habits	-5864
▁unable	-5865
tering	-5866
▁Fort	-5867
▁alle	-5868
▁arrived	-5869
▁chosen	-5870
▁fewer	-5871
▁necessarily	-5872
▁destroyed	-5873
ictionary	-5874
▁purchase	-5875
▁gone	-5876
▁reserv	-5877
▁Revolution	-5878
bra	-5879
▁dent	-5880
▁Italy	-5881
▁architecture	-5882
▁roof	-5883
fe	-5884
▁Str	-5885
▁underlying	-5886
▁Sign	-5887
stone	-5888
▁communicate	-5889
▁ends	-5890
▁Furthermore	-5891
▁exists	-5892
▁Unf	-5893
hand	-5894
▁din	-5895
▁sharing	-5896
Americ	-5897
ocy	-5898
▁PM	-5899
▁List	-5900
elled	-5901
eck	-5902
▁fighting	-5903
ml	-5904
▁Mag	-5905
▁Moreover	-5906
iology	-5907
sey	-5908
ipping	-5909
▁stands	-5910
▁join	-5911
▁overl	-5912
▁paralle	-5913
▁founded	-5914
level	-5915
ella	-5916
▁Sing	-5917
▁mechanisms	-5918
▁Current	-5919
▁Agricult	-5920
▁married	-5921
▁Native	-5922
riers	-5923
irty	-5924
under	-5925
hop	-5926
▁supports	-5927
▁evaluation	-5928
▁standing	-5929
cher	-5930
▁colleagues	-5931
▁variable	-5932
▁concrete	-5933
▁Similar	-5934
bridge	-5935
rimination	-5936
▁feeding	-5937
stract	-5938
▁Committee	-5939
▁listen	-5940
▁Scot	-5941
▁neck	-5942
inson	-5943
▁improvement	-5944
▁Plant	-5945
▁occasion	-5946
▁relax	-5947
▁unus	-5948
▁Vit	-5949
▁housing	-5950
▁clust	-5951
phone	-5952
▁ourselves	-5953
▁recognition	-5954
ctive	-5955
▁Brown	-5956
▁Gal	-5957
ribe	-5958
▁hydrogen	-5959
then	-5960
▁false	-5961
▁epid	-5962
▁agency	-5963
itan	-5964
▁behaviors	-5965
▁regist	-5966
▁Royal	-5967
▁whereas	-5968
▁contamin	-5969
▁drawing	-5970
rd	-5971
▁Non	-5972
▁Scott	-5973
▁camera	-5974
▁thy	-5975
▁Access	-5976
ett	-5977
▁vulnerable	-5978
▁Look	-5979
▁fract	-5980
▁instructions	-5981
▁supplies	-5982
azing	-5983
omic	-5984
▁programming	-5985
▁Sever	-5986
ading	-5987
▁cos	-5988
▁Penn	-5989
▁compounds	-5990
▁artificial	-5991
▁Cr	-5992
orses	-5993
▁conclusion	-5994
▁organisms	-5995
▁percentage	-5996
▁Times	-5997
heast	-5998
▁photograph	-5999
▁taste	-6000
▁border	-6001
▁twenty	-6002
▁obesity	-6003
ora	-6004
▁Researchers	-6005
▁rid	-6006
orous	-6007
▁Additionally	-6008
▁transportation	-6009
word	-6010
▁attached	-6011
▁eastern	-6012
▁Pan	-6013
▁Comput	-6014
▁Spain	-6015
fish	-6016
▁psychological	-6017
▁Gard	-6018
▁hypothes	-6019
▁reactions	-6020
▁eld	-6021
What	-6022
▁confidence	-6023
hesis	-6024
▁turns	-6025
▁territory	-6026
▁veter	-6027
▁bread	-6028
▁Back	-6029
▁shut	-6030
icon	-6031
rovers	-6032
▁Valley	-6033
▁horiz	-6034
▁membr	-6035
▁Empire	-6036
▁trials	-6037
▁Effect	-6038
▁cm	-6039
▁resulted	-6040
▁demonstrated	-6041
▁participate	-6042
▁dioxide	-6043
▁Table	-6044
▁subs	-6045
▁zone	-6046
▁carb	-6047
anta	-6048
▁pool	-6049
▁chrom	-6050
▁fever	-6051
▁accident	-6052
▁trained	-6053
▁prompt	-6054
isters	-6055
▁Nut	-6056
▁rising	-6057
▁Adv	-6058
▁crime	-6059
▁shop	-6060
▁stable	-6061
▁launch	-6062
▁grew	-6063
ih	-6064
▁contained	-6065
utch	-6066
▁delay	-6067
ritis	-6068
▁Carolina	-6069
▁equivalent	-6070
▁powers	-6071
▁crow	-6072
▁Bab	-6073
avery	-6074
▁ahead	-6075
ctor	-6076
As	-6077
ifest	-6078
▁vote	-6079
▁mice	-6080
▁Three	-6081
▁Main	-6082
▁functional	-6083
▁Conn	-6084
▁employment	-6085
▁observations	-6086
DP	-6087
▁customers	-6088
▁lies	-6089
aud	-6090
▁row	-6091
▁Open	-6092
ita	-6093
▁virtual	-6094
▁resolution	-6095
▁prev	-6096
▁competition	-6097
▁Pop	-6098
▁relation	-6099
▁layers	-6100
top	-6101
▁·	-6102
▁willing	-6103
LE	-6104
▁ath	-6105
teen	-6106
▁diagnosed	-6107
▁ment	-6108
▁recept	-6109
▁entry	-6110
irds	-6111
▁knows	-6112
▁server	-6113
▁whatever	-6114
▁Teac	-6115
▁Unfortunately	-6116
abled	-6117
▁tall	-6118
▁Cy	-6119
erior	-6120
onia	-6121
▁guarant	-6122
▁politics	-6123
ola	-6124
▁distur	-6125
▁feedback	-6126
▁demonstrate	-6127
▁Bus	-6128
▁Equ	-6129
▁zero	-6130
▁pair	-6131
▁Academy	-6132
▁Sciences	-6133
▁beliefs	-6134
▁tank	-6135
▁greenhouse	-6136
▁estimates	-6137
▁examine	-6138
▁Chicago	-6139
▁prove	-6140
▁connections	-6141
tra	-6142
hav	-6143
▁department	-6144
▁ships	-6145
▁administr	-6146
▁objective	-6147
▁joined	-6148
▁astr	-6149
▁independence	-6150
▁capture	-6151
exam	-6152
▁Age	-6153
▁teen	-6154
cycl	-6155
▁frequent	-6156
▁refuge	-6157
▁Prop	-6158
▁instruments	-6159
▁legs	-6160
▁partner	-6161
▁Board	-6162
ione	-6163
▁issued	-6164
▁debt	-6165
een	-6166
▁presentation	-6167
ugh	-6168
▁insurance	-6169
▁stroke	-6170
▁flo	-6171
▁Sil	-6172
▁cats	-6173
▁generations	-6174
▁delivery	-6175
ults	-6176
asters	-6177
▁Special	-6178
ymph	-6179
LA	-6180
IP	-6181
opy	-6182
▁III	-6183
▁maintaining	-6184
hered	-6185
▁nearby	-6186
espread	-6187
▁Language	-6188
ups	-6189
▁substances	-6190
▁supposed	-6191
oding	-6192
itivity	-6193
▁Chapter	-6194
▁Start	-6195
▁smoke	-6196
There	-6197
▁interactions	-6198
weight	-6199
▁shot	-6200
esis	-6201
▁Hy	-6202
▁ru	-6203
▁fu	-6204
▁bot	-6205
▁comments	-6206
struction	-6207
called	-6208
▁explo	-6209
itt	-6210
▁outbre	-6211
inating	-6212
▁maps	-6213
▁Big	-6214
▁poison	-6215
▁mining	-6216
▁hur	-6217
icious	-6218
▁defe	-6219
▁mos	-6220
▁gap	-6221
▁scene	-6222
▁define	-6223
▁funds	-6224
▁Victor	-6225
▁Wik	-6226
▁Brazil	-6227
ployment	-6228
▁Article	-6229
roduction	-6230
▁sole	-6231
uh	-6232
▁lect	-6233
▁mode	-6234
▁association	-6235
▁EU	-6236
▁consumer	-6237
▁drain	-6238
▁launched	-6239
▁mm	-6240
plant	-6241
ushed	-6242
▁Family	-6243
eless	-6244
▁arrange	-6245
▁pra	-6246
▁Georg	-6247
▁hem	-6248
aked	-6249
▁scan	-6250
▁stimul	-6251
▁tissues	-6252
▁Mer	-6253
▁painting	-6254
▁Eastern	-6255
▁sheet	-6256
BS	-6257
▁Never	-6258
how	-6259
arn	-6260
▁mand	-6261
▁Jo	-6262
▁putting	-6263
▁employed	-6264
▁flag	-6265
▁challenging	-6266
eenth	-6267
▁surve	-6268
▁workshe	-6269
▁expansion	-6270
▁wasn	-6271
▁Young	-6272
xts	-6273
▁Py	-6274
anches	-6275
ishment	-6276
but	-6277
▁Works	-6278
▁industries	-6279
ureau	-6280
▁Orig	-6281
▁Mult	-6282
▁Martin	-6283
▁hole	-6284
▁operate	-6285
▁legislation	-6286
▁vs	-6287
▁positions	-6288
etime	-6289
▁spok	-6290
▁match	-6291
while	-6292
▁Author	-6293
itely	-6294
▁chick	-6295
▁Holy	-6296
▁markets	-6297
▁transp	-6298
▁Resp	-6299
▁undert	-6300
ighter	-6301
▁cryst	-6302
▁county	-6303
▁oblig	-6304
▁settings	-6305
▁Italian	-6306
▁neur	-6307
▁matters	-6308
ediatric	-6309
isk	-6310
▁voltage	-6311
▁compare	-6312
earing	-6313
▁Year	-6314
▁route	-6315
▁sections	-6316
ether	-6317
▁everyday	-6318
▁passage	-6319
▁involving	-6320
▁meal	-6321
osion	-6322
▁holds	-6323
▁Est	-6324
▁categories	-6325
%)	-6326
ey	-6327
▁exercises	-6328
▁Down	-6329
▁nest	-6330
▁bridge	-6331
▁spending	-6332
▁centre	-6333
▁frame	-6334
▁electro	-6335
▁Mean	-6336
▁smooth	-6337
▁cav	-6338
▁blocks	-6339
▁fold	-6340
▁explanation	-6341
▁reven	-6342
▁cup	-6343
▁usage	-6344
ourage	-6345
▁bond	-6346
itter	-6347
▁players	-6348
IA	-6349
▁significance	-6350
▁danger	-6351
You	-6352
▁reliable	-6353
▁award	-6354
otes	-6355
▁insulin	-6356
▁script	-6357
hyth	-6358
▁covers	-6359
▁widespread	-6360
▁Guide	-6361
▁fer	-6362
▁Four	-6363
▁kidney	-6364
▁Dar	-6365
▁ongoing	-6366
▁accessible	-6367
▁ended	-6368
▁breath	-6369
▁string	-6370
▁fashion	-6371
▁viruses	-6372
▁participation	-6373
▁repair	-6374
dule	-6375
scale	-6376
▁Ver	-6377
▁adequate	-6378
such	-6379
▁division	-6380
▁relief	-6381
▁approved	-6382
▁reduces	-6383
▁none	-6384
CD	-6385
▁meters	-6386
umps	-6387
▁rig	-6388
▁Lar	-6389
▁committed	-6390
▁installed	-6391
▁Less	-6392
▁tight	-6393
▁drawn	-6394
▁swim	-6395
▁align	-6396
▁organs	-6397
▁brings	-6398
▁rice	-6399
gical	-6400
▁controls	-6401
▁indicated	-6402
oven	-6403
▁Sat	-6404
▁forth	-6405
▁Low	-6406
▁agreed	-6407
▁Community	-6408
gov	-6409
azine	-6410
omp	-6411
▁succeed	-6412
▁Several	-6413
▁spaces	-6414
ented	-6415
▁glucose	-6416
▁shif	-6417
▁forget	-6418
▁Irish	-6419
▁Word	-6420
▁depart	-6421
idity	-6422
ittle	-6423
▁Cho	-6424
▁ske	-6425
▁estimate	-6426
▁runs	-6427
▁gram	-6428
▁butter	-6429
iah	-6430
▁trip	-6431
▁©	-6432
▁minerals	-6433
▁holding	-6434
▁offering	-6435
▁physics	-6436
▁banks	-6437
▁Mel	-6438
IG	-6439
▁vac	-6440
IR	-6441
▁blow	-6442
▁receiving	-6443
▁rivers	-6444
▁boy	-6445
▁strongly	-6446
▁burning	-6447
▁holid	-6448
▁mechanical	-6449
▁announced	-6450
▁damaged	-6451
▁fulf	-6452
fit	-6453
________	-6454
▁measurement	-6455
▁neither	-6456
▁victims	-6457
occ	-6458
▁moisture	-6459
rite	-6460
▁sacr	-6461
▁declared	-6462
▁constructed	-6463
she	-6464
▁tons	-6465
▁Kingdom	-6466
▁kne	-6467
▁Party	-6468
alls	-6469
▁recommendations	-6470
▁measurements	-6471
▁Next	-6472
▁nob	-6473
▁controvers	-6474
irt	-6475
▁aband	-6476
▁historic	-6477
Is	-6478
▁archae	-6479
▁orient	-6480
▁dys	-6481
▁blind	-6482
Go	-6483
▁boys	-6484
▁respectively	-6485
▁rank	-6486
rooms	-6487
▁texts	-6488
icit	-6489
▁conven	-6490
▁intellectual	-6491
▁furn	-6492
▁variables	-6493
▁mood	-6494
▁ille	-6495
▁Resources	-6496
▁integrated	-6497
that	-6498
▁Leg	-6499
▁photo	-6500
▁enemy	-6501
▁street	-6502
▁earn	-6503
▁column	-6504
ocation	-6505
etics	-6506
▁Pet	-6507
▁theories	-6508
▁election	-6509
iration	-6510
▁Try	-6511
▁Oxford	-6512
▁publication	-6513
▁Men	-6514
▁Atlantic	-6515
▁ped	-6516
acco	-6517
▁composed	-6518
▁somewhat	-6519
▁worry	-6520
▁entered	-6521
▁males	-6522
ibl	-6523
abulary	-6524
▁seeking	-6525
▁surfaces	-6526
▁missing	-6527
▁Hill	-6528
oples	-6529
▁destruction	-6530
▁biod	-6531
▁pharm	-6532
▁Which	-6533
▁asking	-6534
▁cards	-6535
▁constantly	-6536
▁proportion	-6537
▁tube	-6538
thritis	-6539
▁intense	-6540
▁theore	-6541
herent	-6542
▁volcan	-6543
hent	-6544
▁bath	-6545
▁roles	-6546
uts	-6547
▁babies	-6548
▁females	-6549
▁MS	-6550
▁trouble	-6551
▁fro	-6552
▁Indians	-6553
▁evaluate	-6554
CA	-6555
amins	-6556
▁tub	-6557
idential	-6558
quit	-6559
▁artists	-6560
▁manip	-6561
▁facility	-6562
▁negot	-6563
▁tract	-6564
▁Face	-6565
▁turning	-6566
▁Services	-6567
▁AP	-6568
▁ring	-6569
orph	-6570
▁Lib	-6571
▁centers	-6572
reek	-6573
▁Rom	-6574
▁metabol	-6575
▁Method	-6576
▁Fund	-6577
elesc	-6578
▁calories	-6579
igan	-6580
▁nervous	-6581
otton	-6582
▁Ep	-6583
▁guidance	-6584
▁hun	-6585
▁category	-6586
▁distributed	-6587
kins	-6588
▁stre	-6589
▁wait	-6590
%.	-6591
▁Po	-6592
▁withd	-6593
▁collaboration	-6594
▁preparation	-6595
rot	-6596
▁criteria	-6597
▁pregnant	-6598
rency	-6599
▁influenced	-6600
ulty	-6601
▁Change	-6602
▁advert	-6603
ady	-6604
▁Indust	-6605
▁analys	-6606
gers	-6607
iability	-6608
rial	-6609
ani	-6610
▁loved	-6611
▁coastal	-6612
▁wound	-6613
agraph	-6614
▁rocks	-6615
▁advantages	-6616
▁examination	-6617
car	-6618
▁mortality	-6619
▁preventing	-6620
▁Security	-6621
▁Polic	-6622
▁earthqu	-6623
▁Naz	-6624
▁uncertain	-6625
▁seemed	-6626
▁rely	-6627
▁parallel	-6628
airy	-6629
ML	-6630
agram	-6631
▁Princ	-6632
making	-6633
▁honor	-6634
▁pounds	-6635
▁domain	-6636
▁dose	-6637
▁plus	-6638
▁outcome	-6639
▁Set	-6640
▁Bill	-6641
▁theme	-6642
▁complicated	-6643
▁beauty	-6644
▁Gr	-6645
aded	-6646
▁forg	-6647
▁respiratory	-6648
▁intest	-6649
▁renewable	-6650
▁Asian	-6651
▁proof	-6652
▁paras	-6653
▁Pak	-6654
greg	-6655
▁engaged	-6656
▁designs	-6657
▁Sup	-6658
▁considering	-6659
▁breeding	-6660
▁merely	-6661
onn	-6662
▁satellite	-6663
▁detection	-6664
▁sought	-6665
▁weapons	-6666
esides	-6667
▁husband	-6668
medi	-6669
▁realize	-6670
▁commission	-6671
▁crim	-6672
▁Agency	-6673
oom	-6674
▁accuracy	-6675
▁Type	-6676
operation	-6677
apse	-6678
▁Dou	-6679
▁edition	-6680
▁Christmas	-6681
▁strict	-6682
▁dependent	-6683
▁contemporary	-6684
hyd	-6685
opes	-6686
▁TV	-6687
▁dollars	-6688
ivered	-6689
iox	-6690
▁Key	-6691
▁facing	-6692
▁Viet	-6693
▁nose	-6694
▁angle	-6695
▁arts	-6696
rey	-6697
▁sharp	-6698
▁Modern	-6699
UN	-6700
▁arrest	-6701
roat	-6702
gs	-6703
▁plenty	-6704
▁horses	-6705
▁Without	-6706
▁ingredients	-6707
oln	-6708
▁careful	-6709
▁abnormal	-6710
▁molecular	-6711
health	-6712
▁owner	-6713
▁officers	-6714
▁artist	-6715
ixture	-6716
aming	-6717
▁confirmed	-6718
▁irrit	-6719
▁acute	-6720
osh	-6721
yal	-6722
▁agents	-6723
▁conversation	-6724
▁captured	-6725
▁Zeal	-6726
bu	-6727
▁Grand	-6728
▁subsequent	-6729
▁score	-6730
▁thanks	-6731
▁maintained	-6732
▁Den	-6733
▁Pot	-6734
sts	-6735
▁escape	-6736
▁farming	-6737
▁fourth	-6738
isdom	-6739
▁Super	-6740
▁Islam	-6741
cons	-6742
▁favorite	-6743
▁silver	-6744
iral	-6745
▁rarely	-6746
▁dischar	-6747
itals	-6748
OL	-6749
▁circle	-6750
OC	-6751
▁proven	-6752
cyclop	-6753
▁discrimination	-6754
▁opposed	-6755
▁Yes	-6756
▁Rock	-6757
forcement	-6758
▁clothing	-6759
▁District	-6760
▁inn	-6761
▁moves	-6762
▁messages	-6763
▁implications	-6764
arsh	-6765
▁gradually	-6766
RA	-6767
rary	-6768
▁Whether	-6769
▁peak	-6770
▁copper	-6771
▁shock	-6772
ventions	-6773
▁biology	-6774
Al	-6775
▁essays	-6776
▁removal	-6777
▁compris	-6778
▁desired	-6779
SS	-6780
▁bringing	-6781
icate	-6782
▁incred	-6783
aired	-6784
▁pand	-6785
ohyd	-6786
▁aims	-6787
▁slavery	-6788
▁presents	-6789
▁phenomenon	-6790
▁combat	-6791
▁beings	-6792
rowing	-6793
▁jump	-6794
▁towns	-6795
▁carrying	-6796
df	-6797
▁heating	-6798
▁shapes	-6799
▁implemented	-6800
▁Jac	-6801
heric	-6802
heimer	-6803
▁absence	-6804
▁excessive	-6805
ovascular	-6806
▁considerable	-6807
▁seconds	-6808
▁universal	-6809
▁fairly	-6810
eness	-6811
▁session	-6812
▁attempts	-6813
orders	-6814
▁Network	-6815
rene	-6816
▁islands	-6817
ommod	-6818
▁claimed	-6819
▁Zealand	-6820
▁Heb	-6821
▁essentially	-6822
▁transact	-6823
▁Moon	-6824
▁chlor	-6825
▁serving	-6826
▁Perhaps	-6827
▁correl	-6828
▁cleaning	-6829
▁varieties	-6830
▁focuses	-6831
▁Secret	-6832
▁effectiveness	-6833
olesc	-6834
▁Sir	-6835
▁prohib	-6836
He	-6837
▁AND	-6838
▁id	-6839
▁fung	-6840
olving	-6841
▁Source	-6842
peror	-6843
▁stronger	-6844
▁Administration	-6845
▁principal	-6846
▁item	-6847
rous	-6848
▁infect	-6849
▁ov	-6850
▁empt	-6851
▁evil	-6852
▁passing	-6853
asty	-6854
oir	-6855
▁teams	-6856
▁mathematics	-6857
pes	-6858
▁Scientists	-6859
▁visitors	-6860
▁Cast	-6861
raining	-6862
▁Tre	-6863
▁signed	-6864
MP	-6865
eren	-6866
oston	-6867
▁Jul	-6868
▁Reading	-6869
aska	-6870
▁formula	-6871
▁writers	-6872
▁Swed	-6873
▁microb	-6874
▁treating	-6875
▁encouraged	-6876
▁Angel	-6877
▁sales	-6878
▁tut	-6879
theless	-6880
▁temple	-6881
▁dealing	-6882
▁statistics	-6883
▁MD	-6884
▁infant	-6885
▁crew	-6886
▁gut	-6887
istical	-6888
▁characterized	-6889
▁proved	-6890
▁Lo	-6891
▁informed	-6892
▁overw	-6893
ruption	-6894
rox	-6895
▁learners	-6896
▁delivered	-6897
outs	-6898
▁Light	-6899
▁Tim	-6900
▁disaster	-6901
▁Er	-6902
▁inher	-6903
▁radical	-6904
▁Coll	-6905
oga	-6906
▁knowing	-6907
▁racial	-6908
eut	-6909
lishing	-6910
UT	-6911
▁Centre	-6912
▁Sund	-6913
▁difficulties	-6914
▁phosph	-6915
▁newly	-6916
ailed	-6917
▁branches	-6918
example	-6919
incoln	-6920
vard	-6921
▁Desc	-6922
▁comfortable	-6923
▁judge	-6924
▁Safety	-6925
▁Director	-6926
IDS	-6927
▁spectrum	-6928
▁defense	-6929
▁gained	-6930
▁flower	-6931
▁Treatment	-6932
▁Mah	-6933
▁planned	-6934
▁Johnson	-6935
▁examined	-6936
▁deeper	-6937
▁reward	-6938
▁lie	-6939
▁Dev	-6940
▁insert	-6941
▁mineral	-6942
▁outer	-6943
▁turb	-6944
▁roughly	-6945
▁Muslim	-6946
eli	-6947
emia	-6948
▁hormone	-6949
▁screening	-6950
pling	-6951
▁targets	-6952
▁imagine	-6953
▁interpretation	-6954
iana	-6955
▁concerning	-6956
▁unusual	-6957
▁investigation	-6958
▁equally	-6959
▁Cell	-6960
bles	-6961
▁prominent	-6962
▁modified	-6963
▁galax	-6964
▁guard	-6965
▁panel	-6966
▁falls	-6967
▁asthma	-6968
▁poem	-6969
ilation	-6970
▁roads	-6971
mes	-6972
▁Neu	-6973
▁clar	-6974
▁interpre	-6975
rane	-6976
▁Hand	-6977
▁healing	-6978
▁)	-6979
▁sport	-6980
▁innovation	-6981
▁chest	-6982
▁experimental	-6983
▁lake	-6984
▁filter	-6985
▁happening	-6986
illa	-6987
chen	-6988
▁Online	-6989
bar	-6990
ounce	-6991
▁laid	-6992
vin	-6993
▁nitrogen	-6994
HD	-6995
adder	-6996
▁serves	-6997
▁fishing	-6998
▁criminal	-6999
▁wine	-7000
tles	-7001
▁trigger	-7002
▁assume	-7003
ogether	-7004
▁minute	-7005
▁cham	-7006
▁structural	-7007
▁microsc	-7008
▁Pakistan	-7009
▁Engineering	-7010
▁encoun	-7011
▁bomb	-7012
▁Ident	-7013
▁scientist	-7014
▁marks	-7015
▁variation	-7016
net	-7017
▁compound	-7018
▁Windows	-7019
▁branch	-7020
▁Ur	-7021
uality	-7022
▁spin	-7023
▁satisf	-7024
▁demands	-7025
▁Having	-7026
▁fed	-7027
▁gro	-7028
riend	-7029
▁substantial	-7030
Ph	-7031
▁Oper	-7032
▁lights	-7033
rav	-7034
▁printed	-7035
▁decreased	-7036
▁Liter	-7037
▁senior	-7038
▁usual	-7039
▁breed	-7040
▁Sar	-7041
CE	-7042
▁cooking	-7043
▁decor	-7044
▁stead	-7045
essions	-7046
abeth	-7047
▁mold	-7048
▁finished	-7049
▁config	-7050
▁anywhere	-7051
▁statements	-7052
▁consideration	-7053
▁exclus	-7054
ano	-7055
▁cash	-7056
ima	-7057
▁suffered	-7058
sell	-7059
▁initially	-7060
▁hazard	-7061
▁elected	-7062
iary	-7063
▁Columbia	-7064
▁observe	-7065
▁trends	-7066
▁biom	-7067
bec	-7068
haust	-7069
▁Jeff	-7070
▁brush	-7071
▁fest	-7072
ontal	-7073
▁holes	-7074
▁pestic	-7075
▁grain	-7076
▁Fire	-7077
▁remind	-7078
▁Math	-7079
▁diameter	-7080
▁assigned	-7081
▁Remember	-7082
▁Coast	-7083
▁exception	-7084
▁errors	-7085
▁plot	-7086
▁py	-7087
ostic	-7088
▁eliminate	-7089
▁dates	-7090
▁Again	-7091
▁flour	-7092
▁bigger	-7093
▁threats	-7094
▁physician	-7095
amics	-7096
▁Sand	-7097
▁Organization	-7098
otype	-7099
alm	-7100
ograp	-7101
▁scar	-7102
▁detected	-7103
rison	-7104
▁Contin	-7105
ipedia	-7106
ptions	-7107
▁Iran	-7108
ricts	-7109
▁Imp	-7110
Ar	-7111
▁plane	-7112
coming	-7113
▁compens	-7114
▁Wall	-7115
gence	-7116
▁faced	-7117
▁television	-7118
▁accommod	-7119
▁alter	-7120
▁intent	-7121
▁kilomet	-7122
▁manifest	-7123
▁earliest	-7124
▁ordered	-7125
▁cab	-7126
▁rose	-7127
▁Cross	-7128
riz	-7129
▁adm	-7130
▁tropical	-7131
▁isolated	-7132
▁Eliz	-7133
▁Christians	-7134
unicip	-7135
▁pit	-7136
▁recover	-7137
▁mg	-7138
mm	-7139
▁Ven	-7140
▁Kar	-7141
▁hosp	-7142
▁complications	-7143
▁Tom	-7144
▁warning	-7145
▁unw	-7146
ultane	-7147
▁Prevention	-7148
iat	-7149
▁Parent	-7150
▁rab	-7151
▁Pur	-7152
▁editor	-7153
▁neighborhood	-7154
▁driven	-7155
▁defend	-7156
igue	-7157
▁terror	-7158
▁Business	-7159
▁regulation	-7160
▁provider	-7161
▁sus	-7162
▁View	-7163
▁literacy	-7164
▁corner	-7165
▁adds	-7166
▁printing	-7167
An	-7168
▁grid	-7169
▁traditions	-7170
▁subt	-7171
IM	-7172
atial	-7173
▁neuro	-7174
▁conj	-7175
class	-7176
AA	-7177
▁Lincoln	-7178
▁split	-7179
oured	-7180
icted	-7181
▁evolved	-7182
cient	-7183
▁Boston	-7184
▁Nov	-7185
▁maybe	-7186
ioxid	-7187
fts	-7188
▁cort	-7189
vania	-7190
▁videos	-7191
▁identification	-7192
sm	-7193
▁Supreme	-7194
▁Alz	-7195
▁Assess	-7196
onal	-7197
▁Heart	-7198
▁caught	-7199
atively	-7200
ieval	-7201
▁granted	-7202
▁soul	-7203
▁bacterial	-7204
▁stability	-7205
▁Pen	-7206
EE	-7207
including	-7208
▁accompan	-7209
ali	-7210
▁consume	-7211
▁schedule	-7212
▁Bul	-7213
▁Edward	-7214
otal	-7215
opic	-7216
itarian	-7217
oric	-7218
▁Init	-7219
American	-7220
▁dynamic	-7221
ogenic	-7222
▁stores	-7223
▁measuring	-7224
▁van	-7225
▁Star	-7226
▁disrupt	-7227
igate	-7228
▁observation	-7229
▁orbit	-7230
▁strengthen	-7231
▁Following	-7232
▁amazing	-7233
ested	-7234
▁conqu	-7235
▁Scotland	-7236
▁concluded	-7237
▁intensity	-7238
▁slaves	-7239
RC	-7240
▁aged	-7241
▁ye	-7242
▁heavily	-7243
▁Minister	-7244
▁Ohio	-7245
ude	-7246
elfare	-7247
▁reveal	-7248
▁listening	-7249
semb	-7250
▁Ask	-7251
▁engineers	-7252
ette	-7253
▁channel	-7254
rance	-7255
▁stuff	-7256
▁Lead	-7257
▁finds	-7258
▁translation	-7259
▁client	-7260
syl	-7261
ersonal	-7262
▁stations	-7263
▁overcome	-7264
▁hence	-7265
ucky	-7266
▁array	-7267
▁correctly	-7268
▁Ol	-7269
ishop	-7270
▁inspired	-7271
▁indigenous	-7272
etary	-7273
▁brows	-7274
ustain	-7275
▁sitting	-7276
icing	-7277
▁pin	-7278
▁Due	-7279
effect	-7280
▁enorm	-7281
▁Ut	-7282
▁processed	-7283
▁suscept	-7284
▁Rh	-7285
▁identifying	-7286
rays	-7287
▁coverage	-7288
▁pros	-7289
▁bees	-7290
uten	-7291
▁flows	-7292
▁antibiotics	-7293
▁writes	-7294
▁slave	-7295
▁ceremon	-7296
▁contribution	-7297
▁windows	-7298
▁Polit	-7299
▁Indeed	-7300
▁uniform	-7301
▁uncom	-7302
▁strain	-7303
▁objectives	-7304
▁rac	-7305
▁grows	-7306
▁occurring	-7307
▁player	-7308
▁Incre	-7309
▁inhabit	-7310
▁epis	-7311
iture	-7312
▁Avoid	-7313
▁dietary	-7314
isco	-7315
itual	-7316
▁vocabulary	-7317
▁worship	-7318
▁conference	-7319
▁Conservation	-7320
▁perm	-7321
▁IV	-7322
▁drought	-7323
▁decay	-7324
▁Alzheimer	-7325
▁driver	-7326
▁Unlike	-7327
▁TO	-7328
▁Ins	-7329
▁Mot	-7330
▁conce	-7331
▁giant	-7332
night	-7333
▁adverse	-7334
mers	-7335
▁acquired	-7336
yer	-7337
▁reaching	-7338
▁union	-7339
▁honey	-7340
▁Hospital	-7341
▁;	-7342
onym	-7343
▁heads	-7344
produ	-7345
▁imaging	-7346
inf	-7347
ura	-7348
▁les	-7349
▁paragraph	-7350
▁Survey	-7351
▁agent	-7352
▁emphasis	-7353
▁sunlight	-7354
▁Hebrew	-7355
▁worst	-7356
oids	-7357
▁perception	-7358
itory	-7359
▁fatty	-7360
cking	-7361
▁cattle	-7362
asant	-7363
▁Father	-7364
▁experiencing	-7365
▁Being	-7366
▁phrase	-7367
iological	-7368
angered	-7369
acent	-7370
va	-7371
icy	-7372
▁Cambridge	-7373
▁viewed	-7374
▁Did	-7375
▁Hor	-7376
▁asc	-7377
▁athlet	-7378
▁superior	-7379
spect	-7380
▁AM	-7381
▁Vitamin	-7382
▁directed	-7383
▁concentrations	-7384
▁duty	-7385
▁extend	-7386
▁Protection	-7387
▁Based	-7388
▁mir	-7389
ba	-7390
▁functioning	-7391
▁Obs	-7392
▁Korea	-7393
▁Corn	-7394
▁narrative	-7395
▁abilities	-7396
▁victim	-7397
▁alph	-7398
▁disabilities	-7399
▁CP	-7400
▁Division	-7401
▁vitamins	-7402
▁tables	-7403
door	-7404
orted	-7405
gien	-7406
▁peoples	-7407
▁covering	-7408
▁providers	-7409
▁meals	-7410
▁quantity	-7411
▁Queen	-7412
ercury	-7413
▁musical	-7414
isted	-7415
just	-7416
▁moderate	-7417
▁Play	-7418
▁protecting	-7419
▁Road	-7420
▁Ly	-7421
▁inequ	-7422
▁Force	-7423
soft	-7424
▁literary	-7425
writ	-7426
▁coc	-7427
▁wheel	-7428
▁oldest	-7429
▁relie	-7430
otherapy	-7431
▁mountains	-7432
▁automatically	-7433
▁commitment	-7434
▁Michigan	-7435
▁sup	-7436
▁Lee	-7437
mod	-7438
▁innovative	-7439
▁lymph	-7440
▁laser	-7441
▁Head	-7442
▁representation	-7443
▁coron	-7444
▁acres	-7445
trans	-7446
▁hardware	-7447
▁autism	-7448
▁wheat	-7449
▁stake	-7450
plete	-7451
▁Far	-7452
▁vel	-7453
▁protective	-7454
sylvania	-7455
▁contributed	-7456
▁AT	-7457
▁cooling	-7458
▁mixture	-7459
▁vaccines	-7460
▁Way	-7461
▁profit	-7462
HS	-7463
▁affecting	-7464
from	-7465
▁Books	-7466
▁Georgia	-7467
oli	-7468
▁authent	-7469
▁Policy	-7470
HA	-7471
▁Facebook	-7472
enger	-7473
▁conserv	-7474
ansas	-7475
▁argue	-7476
brid	-7477
▁preced	-7478
▁ampl	-7479
▁thermal	-7480
century	-7481
athered	-7482
▁DO	-7483
▁advent	-7484
print	-7485
▁programme	-7486
▁calling	-7487
▁Spring	-7488
▁colonial	-7489
▁mathematical	-7490
▁parameters	-7491
▁rect	-7492
▁SS	-7493
▁lip	-7494
▁productivity	-7495
New	-7496
▁mosquit	-7497
angle	-7498
▁sensors	-7499
▁Battle	-7500
▁regardless	-7501
▁polar	-7502
▁sensitivity	-7503
▁exhaust	-7504
▁planting	-7505
▁desert	-7506
▁addressed	-7507
▁surge	-7508
▁farms	-7509
▁weakness	-7510
▁IT	-7511
ptom	-7512
▁settlement	-7513
ENT	-7514
▁rational	-7515
holders	-7516
▁girl	-7517
▁counsel	-7518
▁resid	-7519
▁regarded	-7520
▁pandemic	-7521
ographical	-7522
rolled	-7523
▁Card	-7524
igare	-7525
▁thereby	-7526
rection	-7527
ao	-7528
▁quarter	-7529
har	-7530
lines	-7531
▁nice	-7532
▁forming	-7533
▁Small	-7534
▁hidden	-7535
atal	-7536
ailable	-7537
▁seat	-7538
ruit	-7539
usalem	-7540
▁gases	-7541
▁Him	-7542
▁robot	-7543
▁mine	-7544
▁personality	-7545
▁remed	-7546
usive	-7547
▁Analysis	-7548
▁Elizabeth	-7549
▁characteristic	-7550
▁taxes	-7551
▁overwhel	-7552
?"	-7553
▁supplements	-7554
ulpt	-7555
▁pla	-7556
▁democracy	-7557
▁Wal	-7558
▁manufacturers	-7559
dr	-7560
▁simultane	-7561
▁researcher	-7562
▁availability	-7563
▁bag	-7564
▁killing	-7565
ema	-7566
▁steam	-7567
▁insight	-7568
)||	-7569
▁chemistry	-7570
▁Impro	-7571
ogs	-7572
▁enables	-7573
▁descript	-7574
▁falling	-7575
▁tob	-7576
apor	-7577
▁separated	-7578
▁vertical	-7579
quir	-7580
▁aimed	-7581
ymes	-7582
acts	-7583
quar	-7584
▁Help	-7585
▁dress	-7586
▁finger	-7587
▁tumor	-7588
▁versions	-7589
▁Wil	-7590
▁AL	-7591
▁Thanks	-7592
',	-7593
▁Pennsylvania	-7594
▁Dutch	-7595
▁appointed	-7596
▁tor	-7597
▁reporting	-7598
▁Iss	-7599
▁deficiency	-7600
▁summary	-7601
hea	-7602
▁Little	-7603
▁lungs	-7604
▁smell	-7605
▁shoot	-7606
▁calculated	-7607
▁stones	-7608
▁Lim	-7609
▁technological	-7610
htt	-7611
▁herb	-7612
rical	-7613
▁interventions	-7614
irms	-7615
▁ensuring	-7616
▁psychology	-7617
▁sizes	-7618
▁elder	-7619
alities	-7620
▁disability	-7621
uset	-7622
▁educators	-7623
▁Palest	-7624
▁Later	-7625
▁cure	-7626
▁lens	-7627
▁quantum	-7628
▁assets	-7629
▁Consider	-7630
▁consumed	-7631
▁migration	-7632
allow	-7633
archy	-7634
▁rhyth	-7635
],	-7636
▁trauma	-7637
▁McC	-7638
adel	-7639
▁bless	-7640
▁neutral	-7641
▁ran	-7642
NS	-7643
iments	-7644
▁customer	-7645
.).	-7646
▁cotton	-7647
▁Blue	-7648
▁visited	-7649
▁scores	-7650
▁Scholar	-7651
▁cardiovascular	-7652
▁preserve	-7653
▁Mach	-7654
ricted	-7655
icular	-7656
▁Invest	-7657
▁officer	-7658
▁Drug	-7659
pled	-7660
▁Circ	-7661
▁analyze	-7662
▁losses	-7663
azon	-7664
▁abstract	-7665
una	-7666
▁introduce	-7667
Sp	-7668
▁believes	-7669
▁interactive	-7670
▁Building	-7671
erty	-7672
▁interface	-7673
usetts	-7674
▁carbohyd	-7675
▁updated	-7676
▁advis	-7677
achusetts	-7678
▁Arctic	-7679
▁heritage	-7680
▁panels	-7681
▁ordinary	-7682
▁tobacco	-7683
▁buried	-7684
)|	-7685
▁Writing	-7686
▁dance	-7687
▁Solar	-7688
▁comprom	-7689
▁illegal	-7690
▁orders	-7691
▁cas	-7692
▁batteries	-7693
▁chances	-7694
▁opposition	-7695
real	-7696
▁ven	-7697
▁Model	-7698
▁cyber	-7699
▁Jerusalem	-7700
▁Section	-7701
zer	-7702
▁Page	-7703
amine	-7704
▁argued	-7705
▁cord	-7706
▁Lin	-7707
▁improvements	-7708
▁humanity	-7709
▁exciting	-7710
▁initiative	-7711
▁ritual	-7712
▁adolesc	-7713
neys	-7714
▁gast	-7715
▁urine	-7716
▁variations	-7717
▁nutrient	-7718
▁tong	-7719
▁ton	-7720
▁computing	-7721
▁geomet	-7722
▁lock	-7723
▁achievement	-7724
▁alive	-7725
▁permission	-7726
▁pointed	-7727
advant	-7728
▁charged	-7729
▁button	-7730
Un	-7731
▁substit	-7732
▁Ira	-7733
aws	-7734
▁equation	-7735
▁Point	-7736
How	-7737
urches	-7738
iva	-7739
▁Spirit	-7740
▁Max	-7741
▁antioxid	-7742
▁harder	-7743
html	-7744
▁expanded	-7745
irth	-7746
▁Colorado	-7747
▁sensor	-7748
▁mothers	-7749
▁managing	-7750
▁chap	-7751
▁societies	-7752
▁CH	-7753
▁wisdom	-7754
anger	-7755
▁emerging	-7756
▁DC	-7757
▁flexible	-7758
▁Islamic	-7759
forest	-7760
▁proceed	-7761
▁sentences	-7762
▁embra	-7763
▁Justice	-7764
▁tap	-7765
hus	-7766
▁dimens	-7767
ami	-7768
▁logic	-7769
▁fra	-7770
▁linear	-7771
aren	-7772
▁cancers	-7773
rob	-7774
▁planets	-7775
▁dism	-7776
▁myst	-7777
▁plain	-7778
▁stopped	-7779
▁Digital	-7780
▁arguments	-7781
adow	-7782
▁owned	-7783
▁fellow	-7784
▁exhibit	-7785
rix	-7786
▁temporary	-7787
omer	-7788
mann	-7789
DS	-7790
berry	-7791
▁irrig	-7792
▁exploration	-7793
▁royal	-7794
▁spr	-7795
▁propag	-7796
asts	-7797
▁Hawai	-7798
▁behavioral	-7799
sen	-7800
▁flying	-7801
ivest	-7802
reated	-7803
▁pH	-7804
▁emotion	-7805
▁Process	-7806
▁physically	-7807
▁reasonable	-7808
▁Crit	-7809
▁attitude	-7810
▁grains	-7811
eting	-7812
▁fuels	-7813
▁AR	-7814
▁focusing	-7815
▁directions	-7816
▁elsewhere	-7817
▁engaging	-7818
▁boat	-7819
▁faces	-7820
▁Massachusetts	-7821
▁clock	-7822
▁ease	-7823
CP	-7824
▁dramatic	-7825
▁sched	-7826
opher	-7827
▁communications	-7828
▁Harvard	-7829
ependent	-7830
def	-7831
▁lists	-7832
▁Gar	-7833
▁keeps	-7834
BT	-7835
▁membrane	-7836
lete	-7837
▁Alexander	-7838
▁performing	-7839
.'	-7840
▁?	-7841
▁£	-7842
uther	-7843
▁Still	-7844
ourse	-7845
▁expectations	-7846
▁Parliament	-7847
endment	-7848
▁ethical	-7849
▁hunting	-7850
▁attach	-7851
▁fought	-7852
▁metals	-7853
▁waiting	-7854
▁poetry	-7855
%,	-7856
rize	-7857
▁spray	-7858
▁tribes	-7859
EF	-7860
▁flash	-7861
▁boundaries	-7862
▁ecological	-7863
▁fats	-7864
▁duration	-7865
▁Physical	-7866
▁classified	-7867
▁scope	-7868
▁capabilities	-7869
▁compost	-7870
▁Gener	-7871
▁styles	-7872
▁executive	-7873
▁resil	-7874
▁marketing	-7875
▁Mur	-7876
▁tempor	-7877
▁Systems	-7878
▁Pass	-7879
ecess	-7880
hire	-7881
▁Within	-7882
▁transmit	-7883
▁creatures	-7884
▁asp	-7885
▁eru	-7886
iger	-7887
▁oxid	-7888
▁dim	-7889
▁entertain	-7890
uits	-7891
▁tick	-7892
▁Often	-7893
amps	-7894
▁wonderful	-7895
▁Right	-7896
▁Economic	-7897
asy	-7898
▁Level	-7899
▁websites	-7900
lims	-7901
▁quiet	-7902
ipher	-7903
▁remarkable	-7904
ptic	-7905
▁drivers	-7906
OM	-7907
▁consciousness	-7908
▁manager	-7909
uum	-7910
▁lowest	-7911
▁scr	-7912
amination	-7913
▁EPA	-7914
▁threatened	-7915
▁Cub	-7916
▁Christianity	-7917
▁recycling	-7918
▁sevent	-7919
▁courts	-7920
▁evening	-7921
▁establishment	-7922
ipe	-7923
▁Stan	-7924
▁vegetation	-7925
sor	-7926
asma	-7927
▁container	-7928
▁gent	-7929
oul	-7930
▁Sunday	-7931
▁Laboratory	-7932
▁reverse	-7933
▁incident	-7934
ugg	-7935
▁priority	-7936
eor	-7937
▁tip	-7938
▁Ok	-7939
zo	-7940
For	-7941
▁Hum	-7942
esh	-7943
▁fing	-7944
▁settled	-7945
▁Confed	-7946
Med	-7947
cyclopedia	-7948
▁hormones	-7949
▁Ve	-7950
▁degrad	-7951
▁determining	-7952
▁exped	-7953
▁fatigue	-7954
▁hall	-7955
▁Agriculture	-7956
▁rh	-7957
▁deeply	-7958
kind	-7959
▁spoken	-7960
▁fisher	-7961
gr	-7962
▁ecosystems	-7963
▁labour	-7964
fulness	-7965
▁dominant	-7966
▁integration	-7967
ivestock	-7968
▁Saint	-7969
▁classical	-7970
erman	-7971
▁preferred	-7972
▁Bang	-7973
▁promoting	-7974
▁Cost	-7975
▁equality	-7976
▁Kids	-7977
▁watching	-7978
▁investigate	-7979
▁jur	-7980
lights	-7981
eries	-7982
unct	-7983
▁cann	-7984
vi	-7985
▁extension	-7986
▁trick	-7987
▁audio	-7988
▁evident	-7989
▁genome	-7990
▁Ice	-7991
lu	-7992
▁wider	-7993
▁enormous	-7994
▁contributions	-7995
▁colonies	-7996
utation	-7997
▁tens	-7998
ati	-7999
mented	-8000
ranean	-8001
▁parad	-8002
▁corresponding	-8003
▁hypothesis	-8004
▁Wildlife	-8005
▁streets	-8006
▁definitely	-8007
▁Navy	-8008
▁telling	-8009
▁Behav	-8010
ician	-8011
▁assumed	-8012
▁Philipp	-8013
▁NO	-8014
elve	-8015
▁households	-8016
▁||	-8017
▁gly	-8018
▁Iraq	-8019
▁conclus	-8020
bean	-8021
idal	-8022
istant	-8023
▁movie	-8024
▁perceived	-8025
▁Gall	-8026
▁Ram	-8027
▁shed	-8028
▁saved	-8029
▁safely	-8030
▁empty	-8031
▁sodium	-8032
And	-8033
▁gravity	-8034
Ex	-8035
▁RNA	-8036
▁Copyright	-8037
▁Chem	-8038
▁removing	-8039
▁districts	-8040
▁clothes	-8041
▁feels	-8042
ailing	-8043
etal	-8044
▁Li	-8045
▁attribut	-8046
▁Ha	-8047
CH	-8048
borne	-8049
▁minds	-8050
▁manual	-8051
mia	-8052
▁SP	-8053
▁Islands	-8054
▁promise	-8055
aints	-8056
▁universities	-8057
▁celebrated	-8058
anted	-8059
▁joints	-8060
▁lighting	-8061
▁Farm	-8062
▁dense	-8063
▁Standard	-8064
▁astronom	-8065
▁addiction	-8066
▁interior	-8067
▁entering	-8068
▁occas	-8069
▁kingdom	-8070
▁dies	-8071
▁Between	-8072
▁thread	-8073
jo	-8074
▁Fred	-8075
▁Understanding	-8076
▁ranging	-8077
▁reign	-8078
▁requirement	-8079
▁Pu	-8080
▁grounds	-8081
▁chair	-8082
▁prey	-8083
▁sculpt	-8084
wan	-8085
▁Put	-8086
▁applying	-8087
▁differ	-8088
▁committee	-8089
ogy	-8090
▁converted	-8091
▁differently	-8092
▁dairy	-8093
▁pilot	-8094
▁strike	-8095
▁orb	-8096
▁versus	-8097
▁Symptoms	-8098
rh	-8099
▁dating	-8100
▁Given	-8101
▁CE	-8102
▁fires	-8103
▁viral	-8104
urning	-8105
▁Ba	-8106
▁buff	-8107
▁assembly	-8108
▁Proble	-8109
edu	-8110
▁infants	-8111
▁tack	-8112
▁cough	-8113
▁Mond	-8114
▁Daniel	-8115
opl	-8116
▁Code	-8117
▁fur	-8118
▁painful	-8119
▁Fil	-8120
▁Place	-8121
tw	-8122
agen	-8123
▁Ott	-8124
▁engines	-8125
▁fo	-8126
gon	-8127
▁libr	-8128
Sh	-8129
▁continuing	-8130
asm	-8131
▁wearing	-8132
▁intr	-8133
▁dil	-8134
▁resc	-8135
▁traits	-8136
▁Examples	-8137
▁Norm	-8138
▁Francisco	-8139
bell	-8140
'.	-8141
▁sustainability	-8142
▁beat	-8143
▁Portug	-8144
▁Pain	-8145
▁spots	-8146
▁Blood	-8147
▁explicit	-8148
▁losing	-8149
encing	-8150
thon	-8151
▁targeted	-8152
▁appeal	-8153
nut	-8154
▁shaped	-8155
▁entit	-8156
▁convey	-8157
books	-8158
▁Gulf	-8159
▁embry	-8160
▁devast	-8161
eping	-8162
▁guess	-8163
▁Andrew	-8164
▁limitations	-8165
▁profile	-8166
iop	-8167
▁balanced	-8168
▁symbols	-8169
▁solving	-8170
mentia	-8171
▁acting	-8172
▁cul	-8173
MA	-8174
words	-8175
agan	-8176
▁pill	-8177
▁medicines	-8178
▁pupils	-8179
▁accompanied	-8180
▁Frid	-8181
▁newspaper	-8182
▁biodiversity	-8183
▁Van	-8184
CR	-8185
▁expertise	-8186
▁MA	-8187
▁heaven	-8188
▁Los	-8189
raham	-8190
▁aging	-8191
▁Bal	-8192
gener	-8193
▁Nob	-8194
orig	-8195
▁Testament	-8196
oto	-8197
▁province	-8198
▁nutritional	-8199
▁transmitted	-8200
▁passion	-8201
unc	-8202
▁Emer	-8203
olk	-8204
▁thesis	-8205
▁Interest	-8206
enced	-8207
ouds	-8208
▁violent	-8209
▁UV	-8210
elescope	-8211
▁emerged	-8212
▁convert	-8213
▁Historical	-8214
▁Capt	-8215
▁marg	-8216
box	-8217
▁Conference	-8218
erts	-8219
▁facilitate	-8220
▁loose	-8221
▁references	-8222
▁craft	-8223
▁verb	-8224
▁probability	-8225
▁Hence	-8226
▁Similarly	-8227
aka	-8228
▁adapted	-8229
▁CA	-8230
▁integr	-8231
IF	-8232
neum	-8233
▁clients	-8234
▁Indones	-8235
agnetic	-8236
▁sad	-8237
▁existed	-8238
▁wouldn	-8239
ols	-8240
ashes	-8241
uan	-8242
mentation	-8243
thod	-8244
▁drinks	-8245
▁barriers	-8246
▁mature	-8247
▁Major	-8248
▁handling	-8249
▁saving	-8250
▁transc	-8251
ila	-8252
▁accord	-8253
▁cow	-8254
ologically	-8255
▁Mid	-8256
▁raising	-8257
▁Much	-8258
▁ID	-8259
▁weigh	-8260
▁hat	-8261
▁Hindu	-8262
▁Introduction	-8263
flamm	-8264
▁attitudes	-8265
▁sulf	-8266
operative	-8267
▁anticip	-8268
▁circulation	-8269
▁Lew	-8270
uscript	-8271
▁Hard	-8272
▁assert	-8273
▁Fig	-8274
thew	-8275
▁bare	-8276
▁ham	-8277
▁HT	-8278
oons	-8279
▁trem	-8280
▁mouse	-8281
▁municip	-8282
▁obst	-8283
▁lifetime	-8284
▁virtually	-8285
zyme	-8286
▁grades	-8287
▁outbreak	-8288
▁actively	-8289
Gen	-8290
▁withdraw	-8291
▁stood	-8292
▁Var	-8293
▁prevalence	-8294
▁unn	-8295
▁begun	-8296
ackson	-8297
▁chromos	-8298
▁holiday	-8299
lymp	-8300
inois	-8301
▁gum	-8302
▁digestive	-8303
foot	-8304
▁Support	-8305
▁Ast	-8306
Google	-8307
▁Should	-8308
▁intention	-8309
endar	-8310
▁spinal	-8311
▁discussions	-8312
▁Material	-8313
ocolate	-8314
▁Music	-8315
▁atoms	-8316
▁cooperation	-8317
ifice	-8318
oves	-8319
▁Muslims	-8320
▁cub	-8321
▁personnel	-8322
▁origins	-8323
▁engagement	-8324
▁myself	-8325
▁complexity	-8326
▁acknowled	-8327
▁hygien	-8328
▁habitats	-8329
▁haven	-8330
When	-8331
▁sessions	-8332
▁involvement	-8333
▁tone	-8334
raine	-8335
Cl	-8336
▁chose	-8337
EG	-8338
▁hospitals	-8339
▁recre	-8340
▁notion	-8341
▁scenario	-8342
▁realized	-8343
▁Offic	-8344
itting	-8345
▁Short	-8346
▁Media	-8347
▁meaningful	-8348
▁Arts	-8349
▁opinions	-8350
▁replacement	-8351
▁controlling	-8352
▁scheme	-8353
section	-8354
cin	-8355
▁Bureau	-8356
▁peer	-8357
izers	-8358
disc	-8359
▁apparently	-8360
▁tact	-8361
▁gathered	-8362
▁Self	-8363
▁seriously	-8364
▁readily	-8365
▁friendly	-8366
▁insights	-8367
▁Occ	-8368
▁persu	-8369
▁club	-8370
▁purchased	-8371
▁resistant	-8372
roud	-8373
olt	-8374
earch	-8375
fast	-8376
▁juice	-8377
▁victory	-8378
esium	-8379
▁aggressive	-8380
▁Amazon	-8381
ocity	-8382
chain	-8383
▁welfare	-8384
▁cheap	-8385
▁ion	-8386
▁bleeding	-8387
▁wars	-8388
▁restore	-8389
▁shorter	-8390
eath	-8391
umer	-8392
▁Different	-8393
▁Wikipedia	-8394
specific	-8395
▁Colon	-8396
obile	-8397
▁beans	-8398
▁suit	-8399
▁thyroid	-8400
olves	-8401
▁Mess	-8402
▁immigrants	-8403
assium	-8404
▁unlikely	-8405
▁Watch	-8406
▁disadvant	-8407
zymes	-8408
ceans	-8409
▁AC	-8410
ilst	-8411
▁noticed	-8412
▁pollut	-8413
▁classic	-8414
▁reaches	-8415
▁choosing	-8416
friend	-8417
They	-8418
▁Call	-8419
▁occupied	-8420
▁restaur	-8421
▁Squ	-8422
▁shore	-8423
▁varied	-8424
▁graduate	-8425
ilson	-8426
▁soils	-8427
▁funded	-8428
▁Poly	-8429
▁Town	-8430
▁soph	-8431
▁planted	-8432
▁develops	-8433
▁pairs	-8434
▁pione	-8435
▁pel	-8436
▁Move	-8437
▁strategic	-8438
▁diarr	-8439
▁uncle	-8440
▁collective	-8441
▁vegetable	-8442
▁Prim	-8443
▁Chief	-8444
akespe	-8445
▁hal	-8446
▁Dictionary	-8447
adelph	-8448
▁specified	-8449
▁literally	-8450
▁armed	-8451
urrent	-8452
▁crown	-8453
RNA	-8454
ensed	-8455
▁neurons	-8456
▁Third	-8457
▁varies	-8458
▁joy	-8459
▁colony	-8460
▁precip	-8461
▁ears	-8462
▁contents	-8463
▁returns	-8464
atus	-8465
▁associate	-8466
▁Vietnam	-8467
▁specialized	-8468
▁photographs	-8469
plate	-8470
▁sees	-8471
▁celebrate	-8472
world	-8473
▁addresses	-8474
▁ash	-8475
▁Trust	-8476
▁alarm	-8477
▁glac	-8478
▁tends	-8479
▁breaking	-8480
▁Image	-8481
▁Biology	-8482
made	-8483
avirus	-8484
bel	-8485
▁span	-8486
▁sale	-8487
▁practition	-8488
▁workplace	-8489
OD	-8490
▁gods	-8491
▁Aff	-8492
▁constra	-8493
▁till	-8494
▁qualities	-8495
▁reveals	-8496
▁songs	-8497
▁dipl	-8498
requ	-8499
▁overview	-8500
akespeare	-8501
▁dropped	-8502
▁currency	-8503
▁spacecraft	-8504
▁representative	-8505
▁Rest	-8506
▁Select	-8507
▁frust	-8508
play	-8509
▁Ell	-8510
▁prime	-8511
▁anger	-8512
sex	-8513
▁default	-8514
▁annually	-8515
▁spoke	-8516
▁orange	-8517
▁Secretary	-8518
▁Greece	-8519
▁absorb	-8520
oded	-8521
swe	-8522
▁conversion	-8523
imp	-8524
▁analyzed	-8525
▁savings	-8526
rus	-8527
▁influences	-8528
▁Temple	-8529
▁basically	-8530
icts	-8531
eutic	-8532
▁prox	-8533
uity	-8534
▁deploy	-8535
▁sacred	-8536
▁wat	-8537
▁Jacob	-8538
▁Dam	-8539
▁developments	-8540
▁Const	-8541
▁tu	-8542
▁paying	-8543
▁happiness	-8544
▁displayed	-8545
awn	-8546
▁Illinois	-8547
▁Olymp	-8548
▁trace	-8549
▁Friday	-8550
▁Hyd	-8551
▁powder	-8552
▁Field	-8553
▁sciences	-8554
EA	-8555
▁coat	-8556
▁scat	-8557
▁metabolism	-8558
▁ho	-8559
▁Best	-8560
▁optimal	-8561
▁breaks	-8562
▁Mexican	-8563
aya	-8564
▁predicted	-8565
▁accurately	-8566
▁prescribed	-8567
▁dict	-8568
▁tension	-8569
▁Moses	-8570
▁globe	-8571
▁gif	-8572
▁reflected	-8573
▁representing	-8574
▁restoration	-8575
unning	-8576
▁tab	-8577
plo	-8578
▁enthus	-8579
▁Working	-8580
cule	-8581
▁recording	-8582
▁couldn	-8583
▁auto	-8584
▁Week	-8585
▁forecast	-8586
iner	-8587
▁Kent	-8588
▁Ministry	-8589
ois	-8590
▁profound	-8591
▁barrier	-8592
▁competitive	-8593
▁Diet	-8594
▁calculate	-8595
▁Print	-8596
▁Gre	-8597
▁pace	-8598
▁Nutrition	-8599
ais	-8600
▁Computer	-8601
adelphia	-8602
▁burden	-8603
aware	-8604
▁copyright	-8605
through	-8606
▁Near	-8607
iterranean	-8608
▁surgical	-8609
▁pets	-8610
▁Local	-8611
▁Abraham	-8612
▁sheep	-8613
ifer	-8614
ogens	-8615
▁clay	-8616
awa	-8617
▁privile	-8618
outheast	-8619
▁discipline	-8620
▁everywhere	-8621
!”	-8622
▁productive	-8623
▁tongue	-8624
▁Jackson	-8625
▁Rather	-8626
▁indirect	-8627
▁Microsoft	-8628
issipp	-8629
▁mask	-8630
▁creativity	-8631
▁throat	-8632
dd	-8633
vation	-8634
claim	-8635
▁divine	-8636
▁Rail	-8637
▁suicide	-8638
▁prayer	-8639
▁transferred	-8640
▁Obama	-8641
▁strange	-8642
▁arise	-8643
▁gardens	-8644
▁Convention	-8645
▁Fish	-8646
izz	-8647
▁spatial	-8648
lock	-8649
▁specialist	-8650
▁oste	-8651
▁Century	-8652
apes	-8653
▁gift	-8654
▁illnesses	-8655
▁livestock	-8656
▁severity	-8657
▁penet	-8658
▁posts	-8659
flu	-8660
▁kg	-8661
▁logical	-8662
▁quantities	-8663
issance	-8664
AB	-8665
▁Tri	-8666
▁Gh	-8667
▁permit	-8668
▁Creek	-8669
▁preparing	-8670
▁exploring	-8671
▁caps	-8672
sembly	-8673
▁accomplish	-8674
irable	-8675
urable	-8676
▁Clean	-8677
But	-8678
shaped	-8679
▁crypt	-8680
bury	-8681
ometer	-8682
▁assignment	-8683
▁incidence	-8684
oca	-8685
▁evolutionary	-8686
▁identical	-8687
▁Think	-8688
▁ownership	-8689
▁minimal	-8690
▁minority	-8691
iations	-8692
▁Ancient	-8693
▁analyses	-8694
▁sug	-8695
▁themes	-8696
▁revers	-8697
▁wise	-8698
onents	-8699
▁refused	-8700
▁Action	-8701
▁curve	-8702
▁wash	-8703
mega	-8704
▁churches	-8705
icking	-8706
▁Master	-8707
▁(“	-8708
apped	-8709
▁embed	-8710
▁Paper	-8711
▁preserved	-8712
▁mammals	-8713
▁maxim	-8714
▁Connect	-8715
▁sons	-8716
▁ultimate	-8717
▁optical	-8718
▁advances	-8719
▁regime	-8720
▁possibilities	-8721
▁bias	-8722
▁incent	-8723
▁Sustain	-8724
ocket	-8725
▁wing	-8726
▁registered	-8727
▁Wed	-8728
▁draft	-8729
cut	-8730
ught	-8731
▁oils	-8732
▁theoretical	-8733
▁candidate	-8734
▁restrictions	-8735
▁impair	-8736
mond	-8737
▁ster	-8738
▁motivation	-8739
rypt	-8740
aternal	-8741
▁Import	-8742
▁OS	-8743
▁Sus	-8744
rue	-8745
TH	-8746
▁sister	-8747
▁Tradition	-8748
text	-8749
▁Uk	-8750
▁Ide	-8751
▁puzz	-8752
OW	-8753
▁legit	-8754
▁compass	-8755
▁Typ	-8756
▁Senate	-8757
▁Text	-8758
▁vig	-8759
worth	-8760
elect	-8761
▁Area	-8762
otypes	-8763
▁Heritage	-8764
▁Hit	-8765
▁instances	-8766
▁managers	-8767
▁hydro	-8768
▁dimin	-8769
▁algorithm	-8770
▁streams	-8771
▁underground	-8772
▁Practice	-8773
▁bears	-8774
▁ol	-8775
▁invention	-8776
rait	-8777
▁judgment	-8778
▁paintings	-8779
bered	-8780
ifier	-8781
▁Fed	-8782
▁Brain	-8783
▁cellular	-8784
▁Mediterranean	-8785
▁perfectly	-8786
▁adopt	-8787
▁Relig	-8788
▁particle	-8789
▁suddenly	-8790
▁buying	-8791
▁channels	-8792
ocated	-8793
▁privacy	-8794
▁fraction	-8795
▁tomat	-8796
▁requiring	-8797
BM	-8798
▁Santa	-8799
▁PDF	-8800
green	-8801
▁passes	-8802
dep	-8803
isations	-8804
▁worker	-8805
Sc	-8806
▁satisfact	-8807
▁estate	-8808
▁beneath	-8809
▁rooms	-8810
▁inhabitants	-8811
▁Others	-8812
▁Fair	-8813
rowth	-8814
▁Origin	-8815
▁chicken	-8816
▁transplant	-8817
▁arthritis	-8818
▁Die	-8819
▁borrow	-8820
▁documented	-8821
mble	-8822
▁puts	-8823
▁designated	-8824
▁wal	-8825
aneous	-8826
▁PL	-8827
▁varying	-8828
▁outdoor	-8829
▁Marine	-8830
▁descend	-8831
▁Contact	-8832
ghan	-8833
▁Mississipp	-8834
regon	-8835
▁Mind	-8836
▁separation	-8837
▁Ren	-8838
▁tom	-8839
▁dimensions	-8840
▁Clinical	-8841
reprene	-8842
▁Ult	-8843
▁Prom	-8844
rub	-8845
▁rod	-8846
▁stere	-8847
▁minimize	-8848
▁Neg	-8849
▁Product	-8850
▁volunteers	-8851
▁enjoyed	-8852
power	-8853
▁payment	-8854
▁partnership	-8855
▁surprise	-8856
▁nom	-8857
▁noun	-8858
▁NOT	-8859
▁Rab	-8860
▁Altern	-8861
▁amino	-8862
▁distinguish	-8863
▁Commons	-8864
oked	-8865
▁inev	-8866
▁CT	-8867
▁bee	-8868
▁meetings	-8869
▁Philadelphia	-8870
▁statistical	-8871
▁Walk	-8872
▁conflicts	-8873
ref	-8874
▁soc	-8875
▁Answ	-8876
▁FDA	-8877
abling	-8878
▁utility	-8879
▁lakes	-8880
▁shr	-8881
▁unem	-8882
sk	-8883
▁vibr	-8884
▁Bern	-8885
▁Hem	-8886
▁contributing	-8887
▁Teachers	-8888
▁provision	-8889
▁susceptible	-8890
▁Log	-8891
▁Full	-8892
▁Antar	-8893
▁compos	-8894
▁reef	-8895
iblical	-8896
gments	-8897
▁Assessment	-8898
▁consequence	-8899
▁inch	-8900
▁consent	-8901
▁restricted	-8902
inces	-8903
▁teens	-8904
▁accounting	-8905
▁regulate	-8906
▁neglect	-8907
▁Monday	-8908
▁nuts	-8909
▁applies	-8910
▁herself	-8911
▁Individual	-8912
▁addressing	-8913
▁sending	-8914
imm	-8915
inth	-8916
▁eleph	-8917
OP	-8918
▁Line	-8919
▁magnitude	-8920
▁ft	-8921
isd	-8922
▁initiatives	-8923
uled	-8924
▁favour	-8925
function	-8926
▁encl	-8927
▁lingu	-8928
▁Tit	-8929
after	-8930
▁gate	-8931
▁fifth	-8932
▁Nevertheless	-8933
▁CDC	-8934
thur	-8935
▁simultaneously	-8936
▁swelling	-8937
▁absolutely	-8938
▁finish	-8939
▁disturb	-8940
▁zones	-8941
▁calm	-8942
▁villages	-8943
▁Son	-8944
▁employee	-8945
▁bought	-8946
▁bron	-8947
▁Garden	-8948
child	-8949
elly	-8950
terior	-8951
iler	-8952
ologic	-8953
▁corporate	-8954
▁phones	-8955
▁Applic	-8956
▁Wilson	-8957
▁Scientific	-8958
▁sleeping	-8959
▁segment	-8960
▁Teaching	-8961
▁Proper	-8962
▁worksheets	-8963
▁subsc	-8964
▁visits	-8965
▁rainfall	-8966
western	-8967
▁developmental	-8968
ceptions	-8969
orus	-8970
▁Ariz	-8971
▁flexibility	-8972
uis	-8973
▁acceptable	-8974
▁exclud	-8975
▁winds	-8976
oler	-8977
▁module	-8978
▁electrons	-8979
▁fascinating	-8980
aved	-8981
▁rib	-8982
iders	-8983
▁ranges	-8984
▁merch	-8985
▁inherent	-8986
▁proposal	-8987
▁wings	-8988
▁Schools	-8989
▁ruled	-8990
▁distant	-8991
▁~	-8992
▁dramatically	-8993
ker	-8994
▁doses	-8995
▁earthquake	-8996
▁sediment	-8997
▁Station	-8998
▁totally	-8999
▁establishing	-9000
▁Alaska	-9001
▁suggesting	-9002
▁entitled	-9003
▁hopes	-9004
▁attributed	-9005
▁invasion	-9006
▁isolation	-9007
▁summar	-9008
▁Fer	-9009
urse	-9010
▁manuscript	-9011
emies	-9012
No	-9013
▁Essay	-9014
▁elementary	-9015
press	-9016
acles	-9017
regular	-9018
bow	-9019
ouri	-9020
▁soy	-9021
▁remem	-9022
rics	-9023
▁Turn	-9024
▁invasive	-9025
orters	-9026
▁package	-9027
zone	-9028
▁tort	-9029
SP	-9030
▁dish	-9031
▁cycles	-9032
ospel	-9033
▁attempted	-9034
▁wooden	-9035
▁Luc	-9036
▁symptom	-9037
▁exceed	-9038
▁Oregon	-9039
▁debris	-9040
▁dementia	-9041
ika	-9042
ador	-9043
▁alumin	-9044
UL	-9045
rose	-9046
▁Sud	-9047
duction	-9048
omed	-9049
worm	-9050
aine	-9051
▁alert	-9052
▁efficiently	-9053
▁memor	-9054
▁neural	-9055
▁philosoph	-9056
▁gest	-9057
▁Ho	-9058
▁reserved	-9059
▁cited	-9060
ateral	-9061
▁minister	-9062
▁prosper	-9063
quality	-9064
▁Mississippi	-9065
▁pert	-9066
▁Nic	-9067
▁Egyptian	-9068
▁abandoned	-9069
▁deer	-9070
▁alongside	-9071
▁encounter	-9072
▁transformation	-9073
▁es	-9074
▁Corpor	-9075
▁copies	-9076
▁Wales	-9077
▁elections	-9078
▁medieval	-9079
amil	-9080
▁lecture	-9081
▁revenue	-9082
cho	-9083
▁hybrid	-9084
▁reproductive	-9085
▁Unt	-9086
mal	-9087
▁aside	-9088
eem	-9089
▁classification	-9090
▁incorporated	-9091
:||	-9092
▁bonds	-9093
enda	-9094
▁diagram	-9095
▁discharge	-9096
pdf	-9097
▁popularity	-9098
▁systematic	-9099
▁Univers	-9100
▁elevated	-9101
▁precisely	-9102
▁perpet	-9103
▁installation	-9104
▁regulatory	-9105
▁Aud	-9106
▁Ont	-9107
▁Apple	-9108
----	-9109
▁encouraging	-9110
▁relate	-9111
▁glob	-9112
▁amongst	-9113
▁contamination	-9114
▁scholar	-9115
▁peers	-9116
▁diets	-9117
▁absorption	-9118
▁blank	-9119
eras	-9120
▁hier	-9121
▁Bh	-9122
▁resemb	-9123
▁citizen	-9124
▁honest	-9125
▁translated	-9126
▁ow	-9127
ethe	-9128
▁enzymes	-9129
▁spreading	-9130
isting	-9131
urd	-9132
▁ending	-9133
▁Sn	-9134
▁distinction	-9135
▁Mrs	-9136
rin	-9137
▁endangered	-9138
Figure	-9139
▁LED	-9140
ji	-9141
▁tendency	-9142
ivation	-9143
▁Tar	-9144
▁Turk	-9145
▁scales	-9146
▁Ent	-9147
.),	-9148
▁confusion	-9149
iano	-9150
itches	-9151
▁stabil	-9152
▁burned	-9153
▁Adam	-9154
▁knee	-9155
▁Williams	-9156
▁repeat	-9157
▁strains	-9158
▁occasionally	-9159
▁faculty	-9160
erving	-9161
▁enforcement	-9162
▁tumors	-9163
itic	-9164
economic	-9165
▁deposits	-9166
ideo	-9167
▁metabolic	-9168
▁neurolog	-9169
http	-9170
▁subsid	-9171
▁Ash	-9172
▁combine	-9173
ffe	-9174
▁Tool	-9175
▁alternatives	-9176
▁surprising	-9177
▁Student	-9178
▁Mountain	-9179
efficient	-9180
▁brains	-9181
▁sovere	-9182
▁prol	-9183
▁Jr	-9184
▁Indigenous	-9185
▁whenever	-9186
▁excav	-9187
▁visiting	-9188
▁Encyclopedia	-9189
▁operated	-9190
▁PhD	-9191
sters	-9192
▁Need	-9193
▁abundance	-9194
▁engineer	-9195
▁robust	-9196
▁partial	-9197
▁irrigation	-9198
astics	-9199
▁incorporate	-9200
▁surrounded	-9201
▁democratic	-9202
▁diagnostic	-9203
▁Isa	-9204
▁canal	-9205
▁punishment	-9206
▁Arizona	-9207
anz	-9208
▁Making	-9209
▁Spe	-9210
▁achieving	-9211
▁morph	-9212
▁sensory	-9213
▁continent	-9214
▁legend	-9215
▁attractive	-9216
ori	-9217
▁reflection	-9218
ouses	-9219
eller	-9220
▁("	-9221
▁cream	-9222
▁anthrop	-9223
▁prevents	-9224
▁neighb	-9225
▁enhanced	-9226
profit	-9227
▁thirty	-9228
▁celeb	-9229
▁Training	-9230
aven	-9231
▁homework	-9232
▁predomin	-9233
▁radi	-9234
ictions	-9235
best	-9236
▁allergies	-9237
▁intra	-9238
emeter	-9239
▁pesticides	-9240
etically	-9241
▁folk	-9242
▁ancestors	-9243
▁hol	-9244
▁contaminated	-9245
igned	-9246
▁algorithms	-9247
olph	-9248
▁Turkey	-9249
▁Number	-9250
stru	-9251
ighth	-9252
▁hurt	-9253
▁rays	-9254
▁sectors	-9255
▁MP	-9256
▁partly	-9257
▁broke	-9258
▁collapse	-9259
▁Questions	-9260
▁Meanwhile	-9261
enter	-9262
▁Matthew	-9263
▁civilization	-9264
▁Berlin	-9265
uce	-9266
▁velocity	-9267
▁Below	-9268
▁surveys	-9269
▁complement	-9270
▁plates	-9271
▁Hig	-9272
▁extraord	-9273
quiry	-9274
▁collections	-9275
")	-9276
▁disk	-9277
▁holy	-9278
expected	-9279
▁elderly	-9280
▁dried	-9281
nia	-9282
▁Bol	-9283
▁prolong	-9284
▁reflects	-9285
uct	-9286
▁survived	-9287
itzer	-9288
even	-9289
▁Angeles	-9290
▁infectious	-9291
▁cable	-9292
▁relating	-9293
▁bull	-9294
▁hygiene	-9295
▁pipe	-9296
ricane	-9297
▁suggestions	-9298
▁certific	-9299
.:	-9300
▁Object	-9301
▁abundant	-9302
isition	-9303
▁producers	-9304
▁Fac	-9305
▁Write	-9306
▁penal	-9307
▁fant	-9308
DL	-9309
▁guarantee	-9310
▁Culture	-9311
di	-9312
▁healthier	-9313
▁magazine	-9314
▁expanding	-9315
▁empire	-9316
atoes	-9317
▁germ	-9318
▁muc	-9319
▁tough	-9320
▁arrival	-9321
▁clouds	-9322
▁chocolate	-9323
▁lob	-9324
imensional	-9325
▁Map	-9326
unar	-9327
imic	-9328
▁rough	-9329
▁describing	-9330
▁cyl	-9331
▁Besides	-9332
▁camps	-9333
▁BM	-9334
▁SC	-9335
ivities	-9336
▁vom	-9337
▁cuts	-9338
oline	-9339
ATION	-9340
▁Assembly	-9341
reshold	-9342
▁salmon	-9343
▁enzyme	-9344
▁conclusions	-9345
athan	-9346
▁dynamics	-9347
elihood	-9348
bage	-9349
ashed	-9350
▁organism	-9351
▁Risk	-9352
pos	-9353
▁invented	-9354
inery	-9355
▁Jack	-9356
▁Talk	-9357
▁containers	-9358
▁semi	-9359
▁Defin	-9360
▁mistakes	-9361
rint	-9362
PR	-9363
arks	-9364
▁disag	-9365
▁Name	-9366
▁films	-9367
▁platforms	-9368
▁register	-9369
▁spons	-9370
▁murder	-9371
!!	-9372
jud	-9373
▁influenza	-9374
▁doors	-9375
▁crack	-9376
rible	-9377
▁equipped	-9378
▁Pope	-9379
▁candidates	-9380
▁factory	-9381
eling	-9382
▁bottle	-9383
▁repet	-9384
▁Bell	-9385
▁Doc	-9386
▁Mother	-9387
▁thank	-9388
▁divide	-9389
▁straw	-9390
▁weaken	-9391
▁fluor	-9392
▁grammar	-9393
▁duties	-9394
▁chamber	-9395
▁onset	-9396
▁schem	-9397
▁rent	-9398
▁rom	-9399
enti	-9400
▁synthetic	-9401
▁shares	-9402
▁Future	-9403
mail	-9404
▁Real	-9405
▁Exerc	-9406
▁bell	-9407
▁kitchen	-9408
▁socio	-9409
▁mutations	-9410
▁Photo	-9411
▁panc	-9412
▁Event	-9413
▁oceans	-9414
▁Story	-9415
▁Theory	-9416
▁vaccination	-9417
▁hung	-9418
▁erect	-9419
▁codes	-9420
▁Peace	-9421
▁attended	-9422
▁horizontal	-9423
▁fiction	-9424
GE	-9425
page	-9426
ricks	-9427
▁twelve	-9428
▁beach	-9429
han	-9430
On	-9431
▁Standards	-9432
rimin	-9433
ubble	-9434
▁dying	-9435
▁trading	-9436
▁binding	-9437
▁Jones	-9438
▁cigare	-9439
▁Integ	-9440
▁Kn	-9441
▁dentist	-9442
▁physicians	-9443
illance	-9444
▁approval	-9445
▁confident	-9446
▁pneum	-9447
ropol	-9448
pre	-9449
ugs	-9450
▁selling	-9451
▁spine	-9452
▁developers	-9453
▁landing	-9454
redit	-9455
▁verte	-9456
TP	-9457
▁erosion	-9458
▁Sem	-9459
▁improves	-9460
▁fingers	-9461
mental	-9462
▁atmospheric	-9463
▁shoulder	-9464
▁crimes	-9465
▁adolescents	-9466
▁Parents	-9467
obic	-9468
▁GDP	-9469
▁GM	-9470
▁broader	-9471
▁Stephen	-9472
▁numer	-9473
▁eaten	-9474
▁assessments	-9475
ependence	-9476
▁CR	-9477
▁imagination	-9478
▁sheets	-9479
▁injured	-9480
▁shoes	-9481
▁consisting	-9482
imen	-9483
▁pale	-9484
owered	-9485
Ind	-9486
▁nursing	-9487
▁integrity	-9488
▁Tay	-9489
nesota	-9490
▁Dyn	-9491
▁width	-9492
▁valve	-9493
▁consistently	-9494
▁molecule	-9495
▁adoption	-9496
▁ul	-9497
▁painted	-9498
▁pine	-9499
▁swimming	-9500
▁reputation	-9501
▁economics	-9502
▁officially	-9503
▁Luther	-9504
,’	-9505
▁NY	-9506
▁speaker	-9507
▁%	-9508
▁Guard	-9509
▁reasoning	-9510
Os	-9511
▁affairs	-9512
▁Order	-9513
▁incom	-9514
▁Twitter	-9515
▁fitness	-9516
▁seiz	-9517
▁Philos	-9518
▁apps	-9519
▁throw	-9520
▁Cond	-9521
grade	-9522
▁utilized	-9523
▁Charl	-9524
▁accidents	-9525
▁Shakespeare	-9526
▁Create	-9527
▁reh	-9528
▁grad	-9529
ela	-9530
▁reviewed	-9531
ket	-9532
ineteenth	-9533
▁Bio	-9534
▁Iron	-9535
▁surviv	-9536
▁NE	-9537
ications	-9538
▁Cook	-9539
▁evaluated	-9540
▁Hu	-9541
da	-9542
▁Available	-9543
▁definitions	-9544
also	-9545
▁Poland	-9546
▁liberal	-9547
▁mile	-9548
▁allergic	-9549
isticated	-9550
oving	-9551
author	-9552
▁Lewis	-9553
▁finance	-9554
▁Maryland	-9555
arten	-9556
utical	-9557
▁tracking	-9558
▁memories	-9559
▁Nether	-9560
▁Enter	-9561
▁implementing	-9562
▁valley	-9563
▁offices	-9564
▁residential	-9565
duate	-9566
▁Death	-9567
▁contrad	-9568
▁boundary	-9569
wa	-9570
▁Jim	-9571
▁likelihood	-9572
▁Tenn	-9573
▁brothers	-9574
▁loan	-9575
▁exhibition	-9576
▁bags	-9577
▁bite	-9578
▁Script	-9579
arios	-9580
▁Missouri	-9581
▁phenomena	-9582
▁Jon	-9583
▁Sav	-9584
engers	-9585
▁struck	-9586
▁sequences	-9587
Be	-9588
▁Hot	-9589
▁consuming	-9590
oning	-9591
▁loud	-9592
▁absorbed	-9593
stic	-9594
▁entrance	-9595
▁bullying	-9596
▁pose	-9597
▁attributes	-9598
▁recall	-9599
▁appointment	-9600
▁stretch	-9601
▁subsequently	-9602
▁Hitler	-9603
gebra	-9604
▁Sleep	-9605
▁Living	-9606
▁sew	-9607
▁athletes	-9608
▁loop	-9609
▁potassium	-9610
▁avoiding	-9611
dess	-9612
▁myster	-9613
▁grams	-9614
▁partially	-9615
▁adjacent	-9616
▁retain	-9617
▁attacked	-9618
ushing	-9619
▁CS	-9620
▁adaptation	-9621
velength	-9622
▁tower	-9623
▁aggreg	-9624
▁Minnesota	-9625
▁Jun	-9626
▁Java	-9627
▁wage	-9628
▁posted	-9629
▁outline	-9630
▁shelter	-9631
ceeding	-9632
ods	-9633
▁inflation	-9634
fly	-9635
isons	-9636
▁collecting	-9637
esthetic	-9638
olds	-9639
▁emit	-9640
▁Arm	-9641
▁seal	-9642
▁Korean	-9643
▁Ah	-9644
ayer	-9645
▁ON	-9646
▁tag	-9647
▁Unit	-9648
▁Prince	-9649
▁abol	-9650
▁therapeutic	-9651
acle	-9652
istically	-9653
ctors	-9654
▁cave	-9655
▁Marc	-9656
▁wake	-9657
▁somewhere	-9658
rium	-9659
▁nic	-9660
▁receives	-9661
▁antibodies	-9662
▁prisoners	-9663
▁gray	-9664
To	-9665
aze	-9666
erb	-9667
▁welcome	-9668
▁displays	-9669
▁charges	-9670
▁circular	-9671
▁gentle	-9672
▁proud	-9673
▁historians	-9674
▁edges	-9675
found	-9676
estone	-9677
▁assistant	-9678
itus	-9679
list	-9680
reens	-9681
▁Na	-9682
▁Governor	-9683
healthy	-9684
inch	-9685
▁femin	-9686
ylon	-9687
▁anat	-9688
▁Cit	-9689
compass	-9690
▁plasma	-9691
▁depr	-9692
▁orientation	-9693
▁freely	-9694
ctu	-9695
▁Grade	-9696
you	-9697
▁Darwin	-9698
▁independently	-9699
burn	-9700
otion	-9701
▁Jersey	-9702
▁administrative	-9703
▁fatal	-9704
▁vag	-9705
▁busy	-9706
▁intermedi	-9707
▁Animal	-9708
▁Buddh	-9709
▁pleasure	-9710
▁assessed	-9711
ipation	-9712
iph	-9713
▁ber	-9714
▁Trade	-9715
itate	-9716
▁Mental	-9717
akh	-9718
▁license	-9719
osaur	-9720
▁returning	-9721
▁malaria	-9722
▁assault	-9723
▁kilometers	-9724
▁cosm	-9725
▁Francis	-9726
rons	-9727
berries	-9728
▁tolerance	-9729
pert	-9730
▁predators	-9731
ivate	-9732
▁missions	-9733
▁fan	-9734
CL	-9735
nea	-9736
▁Samuel	-9737
yan	-9738
▁fibers	-9739
▁wireless	-9740
▁vice	-9741
▁gran	-9742
BI	-9743
▁Daily	-9744
▁jurisd	-9745
forced	-9746
uv	-9747
▁Dun	-9748
▁submit	-9749
▁axis	-9750
▁awarded	-9751
▁ADHD	-9752
▁Flow	-9753
▁representatives	-9754
AF	-9755
▁refugees	-9756
▁parks	-9757
▁flavor	-9758
▁Allah	-9759
▁termin	-9760
▁commod	-9761
friendly	-9762
▁appreciate	-9763
▁Six	-9764
enh	-9765
step	-9766
▁campus	-9767
achel	-9768
aping	-9769
▁nodes	-9770
▁indicating	-9771
▁hazards	-9772
adequ	-9773
▁Marsh	-9774
▁export	-9775
▁thoroughly	-9776
▁intensive	-9777
▁sampling	-9778
▁Econom	-9779
antine	-9780
oting	-9781
▁Hur	-9782
uro	-9783
▁speakers	-9784
date	-9785
▁blo	-9786
▁Large	-9787
▁calendar	-9788
▁Afghan	-9789
▁password	-9790
▁Benef	-9791
▁retail	-9792
Fig	-9793
▁Patients	-9794
▁mi	-9795
▁reviews	-9796
▁prevented	-9797
▁convenient	-9798
iac	-9799
ermat	-9800
▁Davis	-9801
▁Ele	-9802
▁prescription	-9803
ulates	-9804
▁Chall	-9805
ques	-9806
bul	-9807
▁drives	-9808
thal	-9809
▁spark	-9810
Our	-9811
▁Core	-9812
▁Case	-9813
▁highlights	-9814
▁operational	-9815
raid	-9816
▁weekly	-9817
fire	-9818
▁Volume	-9819
▁cheese	-9820
orious	-9821
▁pond	-9822
▁toile	-9823
aning	-9824
orer	-9825
▁progressive	-9826
cled	-9827
▁altered	-9828
otten	-9829
Pl	-9830
angel	-9831
▁intelligent	-9832
▁acquire	-9833
thodox	-9834
▁drops	-9835
▁milit	-9836
▁trail	-9837
▁Nep	-9838
▁”	-9839
▁Carl	-9840
omal	-9841
▁beet	-9842
▁stems	-9843
▁pest	-9844
▁argues	-9845
▁Sab	-9846
▁Ontario	-9847
▁Statistics	-9848
▁fertilizer	-9849
▁arc	-9850
▁fles	-9851
▁borders	-9852
▁council	-9853
▁placing	-9854
▁seasonal	-9855
▁tanks	-9856
▁lasting	-9857
▁elabor	-9858
▁treaty	-9859
BD	-9860
QL	-9861
chnology	-9862
▁investments	-9863
▁Han	-9864
nings	-9865
gregation	-9866
▁browser	-9867
▁workshop	-9868
▁Chemical	-9869
▁cluster	-9870
aceutical	-9871
▁broadcast	-9872
▁mirror	-9873
▁shade	-9874
Ed	-9875
▁toxins	-9876
▁PR	-9877
▁Club	-9878
▁worn	-9879
▁deliber	-9880
about	-9881
▁avoided	-9882
▁monthly	-9883
▁unexpected	-9884
▁desk	-9885
▁pink	-9886
commun	-9887
anol	-9888
Ad	-9889
original	-9890
▁Five	-9891
▁Cold	-9892
▁pursue	-9893
▁protest	-9894
▁Mand	-9895
▁sophisticated	-9896
▁WHO	-9897
▁accomplished	-9898
action	-9899
atin	-9900
▁prospect	-9901
▁sacrifice	-9902
▁Germans	-9903
▁humidity	-9904
▁Nation	-9905
▁threshold	-9906
▁forever	-9907
▁beam	-9908
▁concentrated	-9909
umns	-9910
▁arrive	-9911
▁Present	-9912
dominal	-9913
▁reservoir	-9914
▁perf	-9915
▁boxes	-9916
▁speeds	-9917
▁cloth	-9918
▁vine	-9919
aver	-9920
yes	-9921
▁Path	-9922
▁Carib	-9923
▁ES	-9924
▁diarrhea	-9925
iances	-9926
▁struggling	-9927
▁bark	-9928
conn	-9929
▁grace	-9930
▁importantly	-9931
▁connecting	-9932
▁diver	-9933
▁Anne	-9934
▁decreases	-9935
▁Bush	-9936
▁bind	-9937
▁dispers	-9938
▁Hom	-9939
▁Hop	-9940
▁arranged	-9941
iscons	-9942
▁Cut	-9943
▁Electric	-9944
▁Sep	-9945
▁robots	-9946
▁promising	-9947
▁Ak	-9948
▁Currently	-9949
▁Corps	-9950
▁Mes	-9951
▁update	-9952
▁portray	-9953
▁occupation	-9954
▁Netherlands	-9955
III	-9956
▁Num	-9957
▁render	-9958
formed	-9959
▁cycl	-9960
▁flooding	-9961
▁capability	-9962
▁misc	-9963
▁bearing	-9964
▁participating	-9965
isconsin	-9966
thood	-9967
▁synthesis	-9968
arians	-9969
▁carries	-9970
▁libraries	-9971
emor	-9972
▁educated	-9973
▁courage	-9974
▁tourism	-9975
▁discl	-9976
DR	-9977
Pro	-9978
▁traveling	-9979
▁contrary	-9980
▁resolve	-9981
▁teaches	-9982
▁Enc	-9983
▁settlers	-9984
▁entreprene	-9985
▁Ten	-9986
▁symb	-9987
▁Democratic	-9988
plex	-9989
▁Certain	-9990
▁gaps	-9991
▁meditation	-9992
▁proport	-9993
▁Jefferson	-9994
▁refrig	-9995
▁Psychology	-9996
▁artistic	-9997
pany	-9998
▁Emperor	-9999
▁Diabetes	-10000
▁mapping	-10001
▁fault	-10002
▁hide	-10003
▁Fa	-10004
▁shallow	-10005
ogram	-10006
All	-10007
▁affordable	-10008
▁Bit	-10009
▁discom	-10010
▁Zh	-10011
▁qualified	-10012
▁extinction	-10013
▁pediatric	-10014
ontin	-10015
▁Marx	-10016
”)	-10017
▁submitted	-10018
ecessary	-10019
▁routes	-10020
▁modeling	-10021
▁impressive	-10022
.||	-10023
▁Has	-10024
▁Hung	-10025
▁fallen	-10026
effective	-10027
▁hardly	-10028
▁Hon	-10029
▁mini	-10030
PDF	-10031
▁criticism	-10032
▁prone	-10033
▁appet	-10034
▁administered	-10035
▁tribe	-10036
▁immunity	-10037
See	-10038
▁indoor	-10039
▁distances	-10040
▁Centers	-10041
▁colored	-10042
▁legacy	-10043
▁therapies	-10044
▁Satur	-10045
uction	-10046
▁publ	-10047
▁Romans	-10048
▁hill	-10049
▁Behavior	-10050
▁mobility	-10051
BA	-10052
▁sail	-10053
▁enlar	-10054
▁heal	-10055
▁founder	-10056
▁notable	-10057
▁exch	-10058
coin	-10059
▁patent	-10060
▁Indonesia	-10061
▁Rose	-10062
▁Question	-10063
▁organisation	-10064
▁comparing	-10065
▁excited	-10066
case	-10067
omon	-10068
▁elig	-10069
IST	-10070
arded	-10071
▁irregular	-10072
▁Tues	-10073
▁WW	-10074
▁designing	-10075
azz	-10076
iy	-10077
law	-10078
burgh	-10079
▁equations	-10080
sequently	-10081
▁defines	-10082
▁perspectives	-10083
▁manufacturer	-10084
▁heter	-10085
▁verse	-10086
inflamm	-10087
▁pou	-10088
▁fluids	-10089
▁Mathemat	-10090
generation	-10091
▁hypert	-10092
▁rejected	-10093
▁carbohydrates	-10094
▁aster	-10095
quarters	-10096
▁correlation	-10097
▁Along	-10098
▁tremend	-10099
▁Generally	-10100
▁confused	-10101
▁Opt	-10102
▁washing	-10103
▁inequality	-10104
▁Nazi	-10105
▁Scottish	-10106
▁Cape	-10107
PV	-10108
atile	-10109
FC	-10110
▁rend	-10111
▁expressions	-10112
▁imperial	-10113
▁rats	-10114
▁Oil	-10115
▁loyal	-10116
▁defects	-10117
▁dialogue	-10118
▁Quality	-10119
▁provisions	-10120
uclear	-10121
▁pushed	-10122
▁completion	-10123
▁Soft	-10124
ooked	-10125
▁STEM	-10126
▁meter	-10127
▁earned	-10128
iatric	-10129
▁reson	-10130
▁devoted	-10131
▁gear	-10132
▁guns	-10133
▁Discuss	-10134
▁illustrated	-10135
anium	-10136
▁enabled	-10137
▁constitutional	-10138
▁Protest	-10139
▁pests	-10140
insula	-10141
iotic	-10142
▁Sweden	-10143
▁Depending	-10144
▁doctrine	-10145
▁Search	-10146
ttes	-10147
▁controversial	-10148
▁ought	-10149
▁undergo	-10150
▁celebration	-10151
▁scenarios	-10152
▁Date	-10153
▁injection	-10154
▁distract	-10155
▁Sher	-10156
▁inspiration	-10157
atories	-10158
▁Wisconsin	-10159
nedy	-10160
▁demonstrates	-10161
chron	-10162
▁destination	-10163
▁configuration	-10164
ez	-10165
ja	-10166
income	-10167
▁embedded	-10168
▁wavelength	-10169
▁Hay	-10170
▁Additional	-10171
lings	-10172
anas	-10173
▁Balt	-10174
oa	-10175
▁encourages	-10176
▁deadly	-10177
uine	-10178
▁Thurs	-10179
vy	-10180
▁Physics	-10181
▁Example	-10182
psy	-10183
▁CN	-10184
vae	-10185
doi	-10186
▁obviously	-10187
PD	-10188
▁monument	-10189
▁thickness	-10190
arer	-10191
▁striking	-10192
▁cameras	-10193
▁jew	-10194
▁nort	-10195
▁Years	-10196
igm	-10197
▁wed	-10198
▁allergy	-10199
iative	-10200
onin	-10201
swered	-10202
▁Tro	-10203
ronaut	-10204
▁distinguished	-10205
abilitation	-10206
▁transformed	-10207
LS	-10208
rip	-10209
sized	-10210
▁Intellig	-10211
▁regen	-10212
▁namely	-10213
▁genus	-10214
▁Until	-10215
gged	-10216
▁persistent	-10217
▁pathways	-10218
▁Poll	-10219
▁utilize	-10220
▁bills	-10221
▁nerves	-10222
▁progression	-10223
▁Exec	-10224
▁Wednes	-10225
▁yes	-10226
▁cerv	-10227
▁rubber	-10228
▁epidemic	-10229
▁wages	-10230
▁traditionally	-10231
▁por	-10232
▁organisations	-10233
▁drainage	-10234
▁fertility	-10235
atre	-10236
▁dow	-10237
▁inflammatory	-10238
▁Begin	-10239
▁Os	-10240
▁mart	-10241
▁coral	-10242
▁hip	-10243
▁surprised	-10244
▁Index	-10245
▁mira	-10246
▁explored	-10247
▁contributes	-10248
▁multip	-10249
▁NG	-10250
▁Basic	-10251
▁immigration	-10252
cal	-10253
▁solely	-10254
▁sle	-10255
teenth	-10256
▁implies	-10257
▁Pay	-10258
Bl	-10259
▁harsh	-10260
ressing	-10261
▁Species	-10262
▁Grant	-10263
▁leak	-10264
▁Recent	-10265
▁Usually	-10266
istent	-10267
▁Cra	-10268
▁indicators	-10269
▁distinctive	-10270
▁bin	-10271
▁Yellow	-10272
▁historian	-10273
▁infin	-10274
▁overwhelming	-10275
ammad	-10276
▁Sens	-10277
▁confront	-10278
iversary	-10279
▁sel	-10280
▁tied	-10281
ulsion	-10282
▁afraid	-10283
▁AIDS	-10284
▁gathering	-10285
▁essence	-10286
▁spir	-10287
▁Carbon	-10288
▁mercury	-10289
iosity	-10290
spring	-10291
▁obser	-10292
▁recommends	-10293
▁preservation	-10294
▁PA	-10295
▁execution	-10296
▁Victoria	-10297
agger	-10298
▁Earl	-10299
▁relatives	-10300
▁sustained	-10301
▁Tree	-10302
▁discomfort	-10303
▁fate	-10304
▁golden	-10305
▁tape	-10306
▁asks	-10307
▁atomic	-10308
▁Du	-10309
▁League	-10310
▁priest	-10311
▁Rub	-10312
▁gains	-10313
▁algae	-10314
actic	-10315
▁Depression	-10316
fold	-10317
▁distribut	-10318
▁generating	-10319
▁alike	-10320
▁featured	-10321
phal	-10322
▁safer	-10323
▁Lower	-10324
▁promotes	-10325
entieth	-10326
▁lift	-10327
▁artif	-10328
idae	-10329
sub	-10330
▁rebu	-10331
▁bladder	-10332
▁ride	-10333
▁vector	-10334
▁vacuum	-10335
type	-10336
▁talks	-10337
▁attain	-10338
▁instant	-10339
▁magnesium	-10340
▁continuously	-10341
▁succeeded	-10342
▁@	-10343
▁deleg	-10344
▁uncertainty	-10345
▁Mos	-10346
▁Linux	-10347
▁mistake	-10348
▁Things	-10349
▁spelling	-10350
▁thrive	-10351
▁employers	-10352
▁emission	-10353
▁Download	-10354
▁associations	-10355
▁buck	-10356
▁brid	-10357
▁anten	-10358
arium	-10359
▁suspect	-10360
▁reproduction	-10361
▁searching	-10362
ERS	-10363
▁enabling	-10364
▁defeat	-10365
cult	-10366
▁occurrence	-10367
▁Pap	-10368
▁cope	-10369
inian	-10370
▁meteor	-10371
aft	-10372
onomous	-10373
dimensional	-10374
▁investigated	-10375
▁parliament	-10376
▁catal	-10377
▁Guid	-10378
▁Imag	-10379
fare	-10380
▁transactions	-10381
ropriate	-10382
▁Front	-10383
▁Kansas	-10384
▁Az	-10385
▁steady	-10386
▁jaw	-10387
vol	-10388
▁Types	-10389
RS	-10390
▁writings	-10391
▁opens	-10392
▁matrix	-10393
verages	-10394
nals	-10395
▁Dom	-10396
this	-10397
ergarten	-10398
rust	-10399
owa	-10400
▁Transport	-10401
▁acceptance	-10402
▁extrem	-10403
That	-10404
▁Comb	-10405
iking	-10406
▁Month	-10407
▁masses	-10408
▁alk	-10409
▁conducting	-10410
etch	-10411
▁Leon	-10412
afe	-10413
▁Dougl	-10414
▁methane	-10415
▁stakeholders	-10416
▁electronics	-10417
Le	-10418
▁extraordinary	-10419
▁racism	-10420
▁poorly	-10421
▁Wars	-10422
▁Throughout	-10423
▁Trump	-10424
▁Jane	-10425
▁weapon	-10426
▁Particip	-10427
▁substr	-10428
lam	-10429
▁Kim	-10430
▁°	-10431
▁governor	-10432
▁influential	-10433
rophic	-10434
▁feather	-10435
▁publications	-10436
▁Give	-10437
▁Tuesday	-10438
▁inclusion	-10439
RL	-10440
▁hazardous	-10441
▁Prime	-10442
▁keys	-10443
▁torn	-10444
icides	-10445
▁ethics	-10446
▁accompany	-10447
phones	-10448
▁zinc	-10449
ynt	-10450
▁Taylor	-10451
▁Duke	-10452
▁shouldn	-10453
▁Kennedy	-10454
ceeds	-10455
▁Results	-10456
onics	-10457
▁revolutionary	-10458
asses	-10459
▁Sac	-10460
urated	-10461
yard	-10462
▁mystery	-10463
▁permitted	-10464
▁rear	-10465
▁empower	-10466
▁frozen	-10467
▁firms	-10468
▁chron	-10469
▁Franklin	-10470
▁answered	-10471
TA	-10472
asal	-10473
▁dangers	-10474
▁multipl	-10475
▁acknowledge	-10476
▁counterpart	-10477
pson	-10478
▁integral	-10479
▁Lind	-10480
Co	-10481
▁Bor	-10482
Ref	-10483
▁Qur	-10484
▁toys	-10485
▁accordance	-10486
doors	-10487
▁nurse	-10488
▁columns	-10489
▁horn	-10490
▁von	-10491
▁markers	-10492
▁executed	-10493
seud	-10494
▁bits	-10495
reement	-10496
▁authentic	-10497
De	-10498
▁antibiotic	-10499
▁thorough	-10500
▁patri	-10501
osity	-10502
agle	-10503
▁Bad	-10504
▁Tax	-10505
▁Period	-10506
▁Sex	-10507
▁`	-10508
▁Rand	-10509
rat	-10510
orks	-10511
▁Thursday	-10512
▁compliance	-10513
▁locally	-10514
▁timing	-10515
▁vomiting	-10516
▁Ce	-10517
▁Tib	-10518
emetery	-10519
▁categor	-10520
▁Opp	-10521
▁Caribbean	-10522
▁enemies	-10523
▁mes	-10524
▁Wednesday	-10525
▁Jean	-10526
gered	-10527
▁labels	-10528
▁tubes	-10529
UC	-10530
▁yields	-10531
uns	-10532
▁magnet	-10533
▁GP	-10534
▁frog	-10535
▁hunger	-10536
▁calculations	-10537
auc	-10538
▁precision	-10539
▁classrooms	-10540
▁dominated	-10541
rared	-10542
.-	-10543
heastern	-10544
▁specimens	-10545
leton	-10546
▁volumes	-10547
acon	-10548
▁counties	-10549
Hz	-10550
▁Python	-10551
▁inadequ	-10552
▁Rog	-10553
▁Body	-10554
uble	-10555
▁pap	-10556
▁gau	-10557
▁Win	-10558
▁Industrial	-10559
**	-10560
front	-10561
▁Published	-10562
▁replic	-10563
▁Healthy	-10564
uting	-10565
▁rhythm	-10566
▁reserves	-10567
▁advertising	-10568
▁Very	-10569
inea	-10570
velt	-10571
▁declined	-10572
▁hang	-10573
▁storms	-10574
▁seasons	-10575
icting	-10576
▁hepat	-10577
Se	-10578
▁suspected	-10579
▁Deep	-10580
▁Urban	-10581
▁emerge	-10582
▁sperm	-10583
riction	-10584
ECT	-10585
▁arrangement	-10586
stration	-10587
▁Prior	-10588
▁economies	-10589
▁irre	-10590
▁Flu	-10591
▁ruling	-10592
▁investors	-10593
▁severely	-10594
storm	-10595
.]	-10596
▁Bow	-10597
▁rocket	-10598
arter	-10599
▁coins	-10600
▁packaging	-10601
▁diplom	-10602
▁swallow	-10603
▁Es	-10604
My	-10605
▁simulation	-10606
▁originated	-10607
neg	-10608
▁Mit	-10609
ysical	-10610
develop	-10611
▁dollar	-10612
ocent	-10613
▁rotation	-10614
ognition	-10615
▁scal	-10616
▁circles	-10617
owners	-10618
▁Polish	-10619
▁mail	-10620
▁pries	-10621
▁encompass	-10622
▁Greg	-10623
▁thinks	-10624
▁coinc	-10625
▁NS	-10626
▁Primary	-10627
enders	-10628
▁voting	-10629
eav	-10630
▁supplied	-10631
▁Show	-10632
▁crust	-10633
▁invited	-10634
mn	-10635
▁situated	-10636
▁territories	-10637
arts	-10638
▁stiff	-10639
▁Anim	-10640
rise	-10641
▁Ty	-10642
▁Ib	-10643
▁Ford	-10644
▁Rus	-10645
▁Fall	-10646
dated	-10647
▁Belg	-10648
▁disappear	-10649
▁Sa	-10650
cor	-10651
▁filters	-10652
▁inspect	-10653
▁necessity	-10654
▁census	-10655
othy	-10656
▁expenses	-10657
Pub	-10658
orient	-10659
▁tracks	-10660
▁chapters	-10661
▁facial	-10662
anth	-10663
▁lunch	-10664
▁pathogens	-10665
▁assumptions	-10666
▁nick	-10667
▁explaining	-10668
grad	-10669
▁Reserve	-10670
hester	-10671
vals	-10672
▁poems	-10673
▁Taking	-10674
oil	-10675
iors	-10676
ivals	-10677
▁receptors	-10678
▁liberty	-10679
▁considerably	-10680
▁genetics	-10681
▁overweight	-10682
▁Republican	-10683
oved	-10684
rels	-10685
hard	-10686
flies	-10687
▁brill	-10688
▁cataly	-10689
▁subtle	-10690
▁Gir	-10691
role	-10692
orney	-10693
▁Stone	-10694
▁Ni	-10695
osevelt	-10696
ternoon	-10697
▁filling	-10698
emed	-10699
▁potatoes	-10700
▁Marg	-10701
▁tired	-10702
▁politicians	-10703
▁Lt	-10704
essional	-10705
▁insu	-10706
▁ensures	-10707
▁deterior	-10708
▁phrases	-10709
high	-10710
▁dehyd	-10711
▁expend	-10712
▁whilst	-10713
▁expense	-10714
▁genuine	-10715
▁palm	-10716
▁skull	-10717
▁consensus	-10718
rell	-10719
feeding	-10720
▁restored	-10721
▁payments	-10722
hedral	-10723
At	-10724
▁PH	-10725
▁determination	-10726
▁institutional	-10727
▁combust	-10728
▁Magn	-10729
▁Materials	-10730
▁Job	-10731
▁ignore	-10732
uty	-10733
▁bulk	-10734
▁casual	-10735
ocaust	-10736
▁RE	-10737
asures	-10738
▁Knowledge	-10739
school	-10740
bro	-10741
▁ma	-10742
▁Evolution	-10743
▁expedition	-10744
▁peripher	-10745
▁gland	-10746
ancial	-10747
ko	-10748
▁yard	-10749
▁anch	-10750
▁Fram	-10751
osphere	-10752
▁condem	-10753
▁discoveries	-10754
▁caffe	-10755
▁stops	-10756
▁stressed	-10757
alo	-10758
▁dece	-10759
icked	-10760
▁apple	-10761
▁Plants	-10762
▁enact	-10763
▁Vers	-10764
GS	-10765
▁OR	-10766
▁commands	-10767
▁lying	-10768
ountered	-10769
▁hills	-10770
▁stimulate	-10771
▁FOR	-10772
▁cardiac	-10773
onymous	-10774
TC	-10775
▁protects	-10776
▁diagnose	-10777
ón	-10778
▁pride	-10779
▁metap	-10780
▁prevalent	-10781
▁foster	-10782
▁Ray	-10783
onent	-10784
▁EM	-10785
▁Eval	-10786
lear	-10787
▁loans	-10788
▁Always	-10789
▁illustrate	-10790
▁hack	-10791
▁presum	-10792
▁genetically	-10793
▁abroad	-10794
▁compat	-10795
▁metres	-10796
▁coordination	-10797
▁analog	-10798
▁Fem	-10799
▁chip	-10800
▁tang	-10801
▁Represent	-10802
▁Teacher	-10803
▁Ban	-10804
▁timber	-10805
▁referring	-10806
▁exclusively	-10807
cts	-10808
▁Educational	-10809
▁Bridge	-10810
▁IC	-10811
▁discussing	-10812
security	-10813
▁Monitor	-10814
▁Conc	-10815
▁Barb	-10816
▁orn	-10817
tte	-10818
▁festival	-10819
▁unemployment	-10820
▁moments	-10821
▁Movement	-10822
▁attracted	-10823
▁disposal	-10824
▁assumption	-10825
igration	-10826
▁belonging	-10827
▁encountered	-10828
▁kings	-10829
▁Perform	-10830
iki	-10831
▁chains	-10832
▁Account	-10833
▁aluminum	-10834
yt	-10835
TER	-10836
▁admitted	-10837
▁Love	-10838
▁Thank	-10839
▁realistic	-10840
▁Pear	-10841
yo	-10842
▁applicable	-10843
▁WH	-10844
▁marginal	-10845
▁impression	-10846
▁Requ	-10847
▁reserve	-10848
eared	-10849
▁dispar	-10850
▁phases	-10851
▁Miller	-10852
▁gums	-10853
▁incredible	-10854
▁boards	-10855
▁conservative	-10856
upp	-10857
▁newspapers	-10858
acher	-10859
▁nineteenth	-10860
▁Cro	-10861
▁limiting	-10862
▁Arist	-10863
▁Nap	-10864
▁Arthur	-10865
▁Cust	-10866
▁digit	-10867
▁Ra	-10868
hops	-10869
who	-10870
▁incredibly	-10871
asa	-10872
▁bowel	-10873
UM	-10874
▁satellites	-10875
!)	-10876
▁pitch	-10877
▁crash	-10878
▁shield	-10879
▁strand	-10880
ikes	-10881
ochond	-10882
▁fifty	-10883
▁herbs	-10884
xic	-10885
▁bands	-10886
▁incorrect	-10887
igma	-10888
▁transf	-10889
▁behalf	-10890
▁Advanced	-10891
▁preschool	-10892
arth	-10893
eous	-10894
▁recycled	-10895
▁Census	-10896
▁Roosevelt	-10897
▁senses	-10898
iolet	-10899
arest	-10900
▁extraction	-10901
▁recovered	-10902
erness	-10903
▁Syria	-10904
▁unity	-10905
▁catast	-10906
▁picked	-10907
▁mounted	-10908
▁texture	-10909
▁conversations	-10910
▁explos	-10911
▁sorts	-10912
Re	-10913
▁surre	-10914
range	-10915
there	-10916
rac	-10917
pm	-10918
onald	-10919
▁deals	-10920
▁Nig	-10921
▁relieve	-10922
▁Choose	-10923
▁menu	-10924
▁frequencies	-10925
▁groundwater	-10926
▁departments	-10927
▁telephone	-10928
▁Political	-10929
▁Captain	-10930
▁precious	-10931
▁bugs	-10932
▁Lu	-10933
▁gastro	-10934
▁SM	-10935
▁Was	-10936
run	-10937
▁Buddhist	-10938
▁respective	-10939
▁Muh	-10940
▁Ger	-10941
▁feas	-10942
thening	-10943
▁seeks	-10944
▁quad	-10945
▁determines	-10946
▁epidem	-10947
iley	-10948
▁Bru	-10949
▁ignored	-10950
▁Architect	-10951
▁Buddha	-10952
atching	-10953
▁Archae	-10954
otyp	-10955
▁viable	-10956
▁soap	-10957
▁precipitation	-10958
▁surveillance	-10959
▁larvae	-10960
▁Imper	-10961
▁Video	-10962
▁dinner	-10963
iro	-10964
▁arbit	-10965
▁cha	-10966
▁Arabic	-10967
▁Overall	-10968
▁repeatedly	-10969
▁telescope	-10970
▁entity	-10971
▁Mountains	-10972
▁damaging	-10973
▁Cham	-10974
ogene	-10975
ishers	-10976
▁Inv	-10977
▁Kat	-10978
▁Moh	-10979
▁pathway	-10980
▁wra	-10981
▁Collect	-10982
▁prolonged	-10983
▁manufactured	-10984
▁accessed	-10985
▁quote	-10986
▁galaxy	-10987
▁curious	-10988
▁Ark	-10989
▁scenes	-10990
▁programmes	-10991
▁shopping	-10992
▁UC	-10993
▁Cultural	-10994
▁Imm	-10995
▁Rout	-10996
▁ric	-10997
olly	-10998
▁organize	-10999
▁protocols	-11000
anna	-11001
▁fears	-11002
▁cooked	-11003
▁lig	-11004
▁Pict	-11005
▁flesh	-11006
egu	-11007
▁educate	-11008
FS	-11009
aki	-11010
▁specialists	-11011
▁beds	-11012
,'	-11013
▁Communication	-11014
ructive	-11015
▁conclude	-11016
inflammatory	-11017
▁guides	-11018
▁ic	-11019
▁Fle	-11020
▁Pow	-11021
▁geographic	-11022
wall	-11023
▁Draw	-11024
▁alien	-11025
ausea	-11026
▁Chap	-11027
▁physiological	-11028
iating	-11029
▁comparable	-11030
▁shipping	-11031
▁meets	-11032
rup	-11033
▁Creative	-11034
▁architectural	-11035
▁Hispan	-11036
▁disasters	-11037
▁Ethiop	-11038
▁attempting	-11039
▁appetite	-11040
arding	-11041
▁blacks	-11042
▁Jup	-11043
Ps	-11044
restrial	-11045
xious	-11046
iplinary	-11047
▁disput	-11048
▁portions	-11049
makers	-11050
▁dismiss	-11051
▁FA	-11052
▁makers	-11053
▁colleges	-11054
▁aids	-11055
▁Albert	-11056
▁prophe	-11057
instein	-11058
▁Compar	-11059
▁Therapy	-11060
▁Freder	-11061
▁inver	-11062
▁Dor	-11063
empl	-11064
hour	-11065
▁degradation	-11066
ordan	-11067
plan	-11068
▁machinery	-11069
irs	-11070
▁stuck	-11071
▁Series	-11072
▁spell	-11073
▁extends	-11074
▁galaxies	-11075
▁kin	-11076
▁Edition	-11077
▁Louisiana	-11078
▁Related	-11079
▁yeast	-11080
▁overse	-11081
host	-11082
▁Mission	-11083
▁dign	-11084
▁atom	-11085
▁Vo	-11086
▁Amendment	-11087
▁headaches	-11088
▁devastating	-11089
▁indicator	-11090
▁viewing	-11091
ilton	-11092
▁syll	-11093
▁EN	-11094
▁beta	-11095
▁decomp	-11096
human	-11097
▁bom	-11098
▁^	-11099
▁substitute	-11100
isible	-11101
▁examining	-11102
▁graphic	-11103
rying	-11104
▁electrom	-11105
▁beer	-11106
▁flies	-11107
lessly	-11108
▁furniture	-11109
▁shortly	-11110
▁skilled	-11111
▁philosophical	-11112
eland	-11113
▁inherited	-11114
▁angry	-11115
▁participated	-11116
▁datas	-11117
▁mud	-11118
▁flowing	-11119
▁mainstream	-11120
▁aquatic	-11121
▁rises	-11122
▁powered	-11123
▁Visual	-11124
▁abdominal	-11125
▁compact	-11126
▁crossing	-11127
▁Mu	-11128
▁vow	-11129
imedia	-11130
▁compassion	-11131
opathy	-11132
▁passive	-11133
▁tunnel	-11134
▁wealthy	-11135
▁gaining	-11136
▁Rod	-11137
▁careg	-11138
▁Analy	-11139
▁Diagn	-11140
▁pupp	-11141
▁Site	-11142
ochemical	-11143
bral	-11144
▁Pit	-11145
▁Effects	-11146
▁march	-11147
▁automatic	-11148
illy	-11149
▁traveled	-11150
▁Utah	-11151
▁stack	-11152
▁battles	-11153
cm	-11154
▁costly	-11155
▁Philippines	-11156
▁yoga	-11157
▁Had	-11158
natural	-11159
onto	-11160
▁forb	-11161
eld	-11162
ogl	-11163
▁SO	-11164
▁induced	-11165
▁Pa	-11166
▁Sustainable	-11167
isphere	-11168
▁campaigns	-11169
ibli	-11170
▁Facts	-11171
▁warmer	-11172
inton	-11173
▁Saturday	-11174
▁globally	-11175
▁Relations	-11176
aug	-11177
▁afternoon	-11178
▁quantitative	-11179
▁Nat	-11180
bestos	-11181
▁prostate	-11182
▁unnecessary	-11183
▁whales	-11184
▁pulled	-11185
estion	-11186
▁football	-11187
sun	-11188
apore	-11189
▁carcin	-11190
▁pharmac	-11191
▁nurses	-11192
▁Tips	-11193
essee	-11194
▁mutation	-11195
▁practitioners	-11196
father	-11197
▁lith	-11198
▁needle	-11199
▁outdoors	-11200
These	-11201
HT	-11202
▁Freedom	-11203
sur	-11204
▁biomass	-11205
orie	-11206
abetic	-11207
▁pipes	-11208
▁republic	-11209
EST	-11210
osex	-11211
▁collaborative	-11212
▁bor	-11213
▁pollutants	-11214
▁adul	-11215
▁unto	-11216
▁plaque	-11217
▁documentation	-11218
lation	-11219
▁designers	-11220
▁tech	-11221
▁grave	-11222
▁promoted	-11223
▁resilience	-11224
▁mutual	-11225
arse	-11226
▁Virt	-11227
▁assignments	-11228
▁coordin	-11229
▁anniversary	-11230
rets	-11231
▁operators	-11232
▁farmer	-11233
▁verbal	-11234
▁considerations	-11235
▁node	-11236
▁neighbors	-11237
lyn	-11238
▁Treaty	-11239
▁archaeological	-11240
▁efficacy	-11241
▁Clark	-11242
monary	-11243
▁conjunction	-11244
rage	-11245
▁cavity	-11246
▁interviews	-11247
▁shadow	-11248
▁affil	-11249
▁hind	-11250
▁Foreign	-11251
▁pec	-11252
▁singing	-11253
▁Pi	-11254
▁paths	-11255
▁coin	-11256
▁meanings	-11257
▁uter	-11258
dis	-11259
fn	-11260
▁cheaper	-11261
▁vapor	-11262
▁guided	-11263
▁Dur	-11264
▁ingredient	-11265
izational	-11266
▁Ball	-11267
▁Observ	-11268
▁religions	-11269
govern	-11270
▁Archived	-11271
ilty	-11272
▁hearts	-11273
▁pollen	-11274
etheless	-11275
opt	-11276
keys	-11277
▁Nich	-11278
▁belt	-11279
▁Hal	-11280
▁Bob	-11281
▁dimension	-11282
▁Argent	-11283
▁discusses	-11284
▁Dat	-11285
▁fleet	-11286
▁enterprise	-11287
▁descriptions	-11288
▁Prize	-11289
▁Raj	-11290
▁alb	-11291
▁announce	-11292
gress	-11293
▁residence	-11294
▁Hunt	-11295
non	-11296
▁motivated	-11297
ococc	-11298
▁voices	-11299
orb	-11300
▁obsc	-11301
▁Smart	-11302
▁Defense	-11303
▁methodology	-11304
▁Pas	-11305
oub	-11306
▁LG	-11307
▁acquisition	-11308
esy	-11309
▁resur	-11310
▁Military	-11311
sl	-11312
▁sau	-11313
▁Previous	-11314
▁Maybe	-11315
▁clusters	-11316
▁defeated	-11317
▁Tibet	-11318
ographer	-11319
▁snake	-11320
▁Stress	-11321
▁compensation	-11322
▁Bot	-11323
ibration	-11324
lastname	-11325
▁responded	-11326
elson	-11327
▁interpreted	-11328
▁Hawaii	-11329
imeter	-11330
asting	-11331
▁ceremony	-11332
▁dictionary	-11333
▁historically	-11334
▁alphabet	-11335
risk	-11336
▁PMID	-11337
▁rings	-11338
▁immense	-11339
▁initiated	-11340
▁Fisher	-11341
▁pushing	-11342
▁que	-11343
LC	-11344
▁Build	-11345
▁Summer	-11346
▁Tai	-11347
▁possession	-11348
▁worksheet	-11349
▁Credit	-11350
▁grants	-11351
▁Gil	-11352
▁rescue	-11353
inced	-11354
▁advised	-11355
arma	-11356
▁analyzing	-11357
uming	-11358
▁Ages	-11359
▁poisoning	-11360
conf	-11361
acular	-11362
▁united	-11363
▁odd	-11364
▁static	-11365
▁episode	-11366
uese	-11367
▁fails	-11368
▁checked	-11369
etry	-11370
shore	-11371
pur	-11372
iser	-11373
▁fulfill	-11374
▁absent	-11375
▁entities	-11376
hr	-11377
▁drawings	-11378
▁Team	-11379
▁arrested	-11380
▁bold	-11381
PP	-11382
▁Impact	-11383
▁retire	-11384
▁bay	-11385
▁distress	-11386
agus	-11387
onge	-11388
▁digestion	-11389
▁receptor	-11390
▁Around	-11391
arched	-11392
▁Jupiter	-11393
▁Personal	-11394
▁smallest	-11395
▁enters	-11396
ilateral	-11397
laration	-11398
▁Everyone	-11399
▁Publishing	-11400
▁propos	-11401
▁tremendous	-11402
▁disin	-11403
▁consp	-11404
▁empir	-11405
▁defect	-11406
▁Bon	-11407
▁dual	-11408
▁endeav	-11409
▁boats	-11410
ltry	-11411
▁dishes	-11412
▁checking	-11413
▁decent	-11414
▁Issue	-11415
▁personally	-11416
▁Includ	-11417
▁patch	-11418
▁astronaut	-11419
▁forty	-11420
▁Dub	-11421
vity	-11422
▁Golden	-11423
▁overt	-11424
▁profits	-11425
▁fled	-11426
weet	-11427
oen	-11428
activity	-11429
▁consisted	-11430
uana	-11431
▁brick	-11432
warf	-11433
▁Tal	-11434
▁Nort	-11435
▁imbal	-11436
good	-11437
▁regulated	-11438
ushes	-11439
▁counting	-11440
▁oxide	-11441
▁Sche	-11442
▁Bah	-11443
▁Confederate	-11444
▁Exercise	-11445
▁Boy	-11446
▁caffeine	-11447
keley	-11448
▁speaks	-11449
▁Resource	-11450
weed	-11451
abama	-11452
▁chips	-11453
▁basics	-11454
▁breathe	-11455
▁belongs	-11456
▁SE	-11457
▁ions	-11458
away	-11459
gic	-11460
▁Bird	-11461
▁Lady	-11462
▁cannab	-11463
▁fluctu	-11464
▁Chile	-11465
▁Chen	-11466
▁smok	-11467
▁contracts	-11468
▁colours	-11469
One	-11470
▁movies	-11471
▁Tennessee	-11472
▁structured	-11473
▁traged	-11474
▁Independence	-11475
▁slide	-11476
▁Anti	-11477
▁fungi	-11478
▁beef	-11479
▁satisfaction	-11480
▁Kenya	-11481
▁imposed	-11482
aret	-11483
▁staying	-11484
▁cer	-11485
▁reads	-11486
osaurs	-11487
▁persec	-11488
▁tempt	-11489
▁cod	-11490
▁drag	-11491
▁Norway	-11492
▁Corporation	-11493
ulative	-11494
▁Philip	-11495
link	-11496
look	-11497
Con	-11498
Do	-11499
▁neighbour	-11500
▁Clear	-11501
they	-11502
rology	-11503
olescent	-11504
Us	-11505
▁Market	-11506
▁replacing	-11507
olith	-11508
cr	-11509
▁Afghanistan	-11510
▁Cert	-11511
▁murd	-11512
itored	-11513
▁Pil	-11514
▁Rap	-11515
▁aspir	-11516
▁fee	-11517
▁purple	-11518
▁circuits	-11519
▁ren	-11520
▁obese	-11521
▁strengths	-11522
▁gifts	-11523
▁Memorial	-11524
▁mines	-11525
▁Command	-11526
▁NC	-11527
olas	-11528
▁accused	-11529
▁corruption	-11530
▁survivors	-11531
▁Radio	-11532
▁rou	-11533
▁pressures	-11534
▁cher	-11535
py	-11536
▁defining	-11537
ESS	-11538
attle	-11539
▁volcanic	-11540
▁integrate	-11541
▁governance	-11542
▁Hell	-11543
▁projected	-11544
▁Adams	-11545
▁promised	-11546
▁fragments	-11547
▁convention	-11548
▁Lie	-11549
▁Hong	-11550
▁heated	-11551
aund	-11552
otechnology	-11553
▁convinced	-11554
angers	-11555
whe	-11556
▁angles	-11557
exts	-11558
▁terminal	-11559
▁relates	-11560
▁dreams	-11561
▁polymer	-11562
▁interrupt	-11563
▁fraud	-11564
▁transparent	-11565
▁gross	-11566
▁denied	-11567
iotics	-11568
▁Bapt	-11569
letter	-11570
lades	-11571
white	-11572
▁deple	-11573
abs	-11574
▁substantially	-11575
mouth	-11576
▁chim	-11577
▁accumulation	-11578
▁builds	-11579
▁Sri	-11580
▁Tok	-11581
▁basket	-11582
▁BBC	-11583
first	-11584
▁pix	-11585
▁Block	-11586
▁Persian	-11587
▁Tele	-11588
▁Benefits	-11589
urred	-11590
▁prosec	-11591
▁Almost	-11592
appy	-11593
ilib	-11594
▁cro	-11595
▁Diego	-11596
▁Planning	-11597
▁butt	-11598
▁blame	-11599
▁indication	-11600
▁Innov	-11601
▁Eating	-11602
▁Lawrence	-11603
fol	-11604
▁bases	-11605
igs	-11606
▁Strateg	-11607
▁bars	-11608
olecular	-11609
▁Indiana	-11610
▁magic	-11611
ART	-11612
▁Sound	-11613
annel	-11614
▁steep	-11615
▁commemor	-11616
▁sore	-11617
▁closest	-11618
▁counts	-11619
▁carp	-11620
▁ignor	-11621
▁grey	-11622
▁emergence	-11623
▁insulation	-11624
▁photography	-11625
!"	-11626
▁raises	-11627
▁followers	-11628
rasound	-11629
▁Getting	-11630
etus	-11631
▁updates	-11632
▁highlighted	-11633
▁intervals	-11634
▁SD	-11635
▁equity	-11636
roleum	-11637
acre	-11638
▁abd	-11639
▁licensed	-11640
▁Definition	-11641
tics	-11642
▁Kentucky	-11643
▁rows	-11644
▁Nobel	-11645
opol	-11646
▁epit	-11647
▁Executive	-11648
induced	-11649
▁virtue	-11650
▁arteries	-11651
▁Singapore	-11652
▁Lic	-11653
▁volunteer	-11654
graduate	-11655
▁conceptual	-11656
IO	-11657
VD	-11658
scill	-11659
▁Gas	-11660
comp	-11661
spe	-11662
▁databases	-11663
▁lunar	-11664
▁Hind	-11665
▁tender	-11666
▁practiced	-11667
ewater	-11668
estinal	-11669
▁operator	-11670
▁publicly	-11671
▁Person	-11672
▁Fri	-11673
▁darkness	-11674
icul	-11675
▁Commer	-11676
▁corporations	-11677
▁glands	-11678
▁thrown	-11679
▁Buddhism	-11680
lah	-11681
forward	-11682
▁Holocaust	-11683
▁scheduled	-11684
▁actors	-11685
▁contexts	-11686
▁admit	-11687
▁geometry	-11688
▁introducing	-11689
odge	-11690
▁purchasing	-11691
kh	-11692
▁radioactive	-11693
▁hosts	-11694
▁Together	-11695
ikh	-11696
▁Armen	-11697
▁alleged	-11698
▁geography	-11699
▁Pra	-11700
▁explosion	-11701
▁Alabama	-11702
▁unclear	-11703
jamin	-11704
▁Castle	-11705
ationally	-11706
▁throne	-11707
▁vocal	-11708
▁comprehension	-11709
access	-11710
eterm	-11711
▁dirt	-11712
▁coding	-11713
▁Historic	-11714
▁Od	-11715
uster	-11716
▁symmet	-11717
▁Youth	-11718
▁refriger	-11719
▁artery	-11720
plus	-11721
▁hypertension	-11722
▁margin	-11723
▁Affairs	-11724
▁Rena	-11725
▁tear	-11726
▁Rain	-11727
▁twentieth	-11728
▁servers	-11729
heres	-11730
▁membership	-11731
▁Declaration	-11732
▁Lesson	-11733
▁breakfast	-11734
▁Answer	-11735
▁Cru	-11736
▁Collection	-11737
iencies	-11738
▁Veter	-11739
▁reliability	-11740
▁Kong	-11741
▁talked	-11742
▁Machine	-11743
▁Broad	-11744
▁kidneys	-11745
ulses	-11746
▁incidents	-11747
▁evac	-11748
▁cyt	-11749
▁Prevent	-11750
▁omega	-11751
▁Aqu	-11752
▁Fun	-11753
▁CL	-11754
▁monitored	-11755
▁floating	-11756
▁premature	-11757
▁Maria	-11758
▁castle	-11759
▁Appl	-11760
▁seemingly	-11761
▁Astr	-11762
▁basin	-11763
▁demonstration	-11764
▁Evidence	-11765
▁Total	-11766
▁dozen	-11767
▁bottles	-11768
▁weren	-11769
▁Mechan	-11770
asis	-11771
▁certified	-11772
fficiency	-11773
▁Joh	-11774
▁locate	-11775
▁conform	-11776
▁voters	-11777
▁Chemistry	-11778
▁headed	-11779
athic	-11780
▁biof	-11781
▁lact	-11782
WS	-11783
aying	-11784
bits	-11785
▁agenda	-11786
▁predictions	-11787
▁nucleus	-11788
▁hate	-11789
▁challenged	-11790
iens	-11791
▁navigation	-11792
▁customs	-11793
▁Vill	-11794
▁decreasing	-11795
▁brilliant	-11796
roach	-11797
▁Prophet	-11798
urally	-11799
organisms	-11800
▁Character	-11801
▁peaceful	-11802
▁imported	-11803
sets	-11804
writing	-11805
iasis	-11806
▁drew	-11807
▁Iowa	-11808
▁founding	-11809
screen	-11810
▁Fat	-11811
▁illustrations	-11812
▁Country	-11813
▁Games	-11814
fat	-11815
▁Staff	-11816
▁explores	-11817
▁pulse	-11818
▁Financial	-11819
▁crowd	-11820
▁practicing	-11821
po	-11822
▁menstru	-11823
▁AB	-11824
oths	-11825
▁caution	-11826
▁glory	-11827
▁railroad	-11828
▁Intelligence	-11829
▁geographical	-11830
▁offspring	-11831
▁asset	-11832
▁Cab	-11833
ARS	-11834
▁ED	-11835
▁soldier	-11836
▁icon	-11837
▁interval	-11838
▁constitu	-11839
▁combining	-11840
▁completing	-11841
angular	-11842
▁compete	-11843
pton	-11844
▁contra	-11845
▁mosquito	-11846
aments	-11847
aline	-11848
▁explanations	-11849
▁winning	-11850
▁symbolic	-11851
▁extending	-11852
▁Gro	-11853
▁Winter	-11854
held	-11855
▁declar	-11856
▁whites	-11857
▁hepatitis	-11858
▁cows	-11859
▁wells	-11860
▁bes	-11861
▁labeled	-11862
▁Portuguese	-11863
▁consultation	-11864
AV	-11865
▁Typically	-11866
▁lapt	-11867
▁pharmaceutical	-11868
▁presenting	-11869
appropriate	-11870
▁Syn	-11871
▁constraints	-11872
▁Austria	-11873
▁inherit	-11874
▁Tour	-11875
▁lesser	-11876
▁wax	-11877
▁maternal	-11878
▁stimulation	-11879
▁ger	-11880
cedented	-11881
▁passengers	-11882
▁Jordan	-11883
▁mul	-11884
▁wounded	-11885
▁enthusi	-11886
▁pound	-11887
▁constitute	-11888
▁pod	-11889
ighters	-11890
▁Alf	-11891
▁Brook	-11892
▁Dak	-11893
▁tribal	-11894
▁pigs	-11895
arbon	-11896
▁Deb	-11897
▁trap	-11898
assment	-11899
▁mixing	-11900
▁lean	-11901
▁worried	-11902
▁Turkish	-11903
giving	-11904
▁sacrific	-11905
▁Images	-11906
▁affirm	-11907
▁informal	-11908
▁Wy	-11909
▁imagery	-11910
hend	-11911
amma	-11912
▁Words	-11913
▁McG	-11914
supp	-11915
five	-11916
▁observing	-11917
iffs	-11918
itzerland	-11919
▁blockchain	-11920
▁Archives	-11921
▁Banglades	-11922
▁intu	-11923
▁Literature	-11924
▁missed	-11925
▁inadequate	-11926
▁Coal	-11927
▁Hope	-11928
▁suited	-11929
▁wool	-11930
UD	-11931
MD	-11932
▁Whit	-11933
▁Ku	-11934
▁surviving	-11935
▁rebell	-11936
▁Box	-11937
velation	-11938
hot	-11939
▁Eat	-11940
▁edited	-11941
▁requests	-11942
▁Upper	-11943
▁combinations	-11944
▁sugars	-11945
yers	-11946
▁elevation	-11947
▁feat	-11948
▁foundations	-11949
iciency	-11950
ingham	-11951
tein	-11952
▁Sci	-11953
▁mankind	-11954
▁Sant	-11955
▁socially	-11956
▁Stanford	-11957
▁voluntary	-11958
▁Aboriginal	-11959
▁headache	-11960
▁releases	-11961
▁Ross	-11962
▁resident	-11963
▁intermediate	-11964
▁Si	-11965
▁presidential	-11966
▁Mong	-11967
unciation	-11968
▁melan	-11969
▁undertaken	-11970
▁USDA	-11971
▁tackle	-11972
▁melting	-11973
▁Pediatric	-11974
lav	-11975
View	-11976
▁eligible	-11977
▁investigations	-11978
▁advocate	-11979
▁Past	-11980
▁desirable	-11981
▁microbes	-11982
▁Diseases	-11983
▁inputs	-11984
▁tries	-11985
▁caring	-11986
▁intestinal	-11987
▁bitter	-11988
▁HTML	-11989
▁Trib	-11990
▁lacking	-11991
erves	-11992
jan	-11993
▁melt	-11994
▁sphere	-11995
▁Tu	-11996
▁provinces	-11997
▁fart	-11998
backs	-11999
▁controversy	-12000
▁veterin	-12001
▁sho	-12002
▁Renaissance	-12003
▁exert	-12004
venue	-12005
▁Population	-12006
ova	-12007
▁exams	-12008
▁occasions	-12009
So	-12010
▁fees	-12011
▁Agricultural	-12012
arms	-12013
▁forgotten	-12014
vance	-12015
▁Travel	-12016
▁preferences	-12017
▁antioxidants	-12018
▁Democr	-12019
▁slope	-12020
▁shifts	-12021
zens	-12022
▁editing	-12023
▁breakdown	-12024
▁Les	-12025
▁saturated	-12026
▁terrible	-12027
ollo	-12028
▁lining	-12029
iscal	-12030
▁compression	-12031
version	-12032
▁briefly	-12033
pective	-12034
▁cement	-12035
▁readings	-12036
▁ozone	-12037
▁ties	-12038
▁gang	-12039
▁Looking	-12040
▁extracted	-12041
▁inquiry	-12042
▁Genesis	-12043
▁Beyond	-12044
▁Stock	-12045
▁CF	-12046
▁loads	-12047
▁preference	-12048
eton	-12049
▁marker	-12050
▁Tell	-12051
▁disciplines	-12052
▁Immun	-12053
arity	-12054
▁surely	-12055
▁artifacts	-12056
▁automated	-12057
▁norms	-12058
En	-12059
incial	-12060
▁landf	-12061
▁unhealthy	-12062
▁tomb	-12063
▁operates	-12064
▁carrier	-12065
▁bore	-12066
alin	-12067
▁attending	-12068
▁triggers	-12069
▁Capital	-12070
▁crystal	-12071
▁variability	-12072
▁Israeli	-12073
▁unpre	-12074
▁commander	-12075
▁tale	-12076
▁Regional	-12077
▁assessing	-12078
▁todd	-12079
edge	-12080
▁Editor	-12081
▁panic	-12082
ropolitan	-12083
▁neurological	-12084
▁trips	-12085
▁testim	-12086
uma	-12087
▁ink	-12088
nty	-12089
▁environmentally	-12090
▁subur	-12091
asted	-12092
lementary	-12093
▁deemed	-12094
atherine	-12095
▁Imperial	-12096
▁bike	-12097
orship	-12098
▁modes	-12099
▁reforms	-12100
▁Cass	-12101
▁dated	-12102
asia	-12103
▁Malays	-12104
▁Muhammad	-12105
ovenant	-12106
istence	-12107
▁Dental	-12108
▁slower	-12109
▁interference	-12110
arb	-12111
▁modules	-12112
▁rating	-12113
▁warrant	-12114
▁Benjamin	-12115
▁Kings	-12116
▁champ	-12117
▁cups	-12118
▁careers	-12119
▁proclaim	-12120
parent	-12121
▁firstname	-12122
▁altogether	-12123
▁promotion	-12124
▁titles	-12125
▁Fortunately	-12126
▁lenses	-12127
▁noble	-12128
mill	-12129
▁Syndrome	-12130
▁Prob	-12131
▁recru	-12132
▁Greeks	-12133
▁Loc	-12134
▁implant	-12135
▁workshops	-12136
▁divor	-12137
matic	-12138
▁Ara	-12139
▁Consequently	-12140
▁olive	-12141
▁calculation	-12142
▁Simon	-12143
▁radar	-12144
▁unders	-12145
▁quot	-12146
▁similarly	-12147
rosion	-12148
▁Ye	-12149
▁Nurs	-12150
tically	-12151
▁confined	-12152
▁agreements	-12153
isa	-12154
▁fool	-12155
▁dysfunction	-12156
▁pronounced	-12157
usions	-12158
▁eliminated	-12159
▁segments	-12160
▁grat	-12161
▁bicy	-12162
▁Game	-12163
▁Territ	-12164
▁intact	-12165
▁banking	-12166
bet	-12167
▁nausea	-12168
PC	-12169
▁notably	-12170
▁railway	-12171
▁wast	-12172
▁spite	-12173
▁Ze	-12174
▁Frequ	-12175
▁currents	-12176
▁chat	-12177
iously	-12178
▁legislative	-12179
adays	-12180
▁scattered	-12181
ilibrium	-12182
▁retreat	-12183
▁Wolf	-12184
▁prejud	-12185
▁median	-12186
▁Activity	-12187
▁coronavirus	-12188
▁Visit	-12189
▁separately	-12190
forestation	-12191
was	-12192
rea	-12193
rubs	-12194
▁reinforce	-12195
▁legitimate	-12196
▁modify	-12197
oT	-12198
▁admin	-12199
▁Switzerland	-12200
▁spont	-12201
▁fundament	-12202
▁sword	-12203
▁Leaders	-12204
letal	-12205
▁jet	-12206
▁»	-12207
▁discrimin	-12208
▁inability	-12209
▁closing	-12210
eu	-12211
▁graphics	-12212
▁Parkinson	-12213
imity	-12214
mus	-12215
▁Protect	-12216
dam	-12217
regn	-12218
▁Upon	-12219
immune	-12220
▁newborn	-12221
▁concentrate	-12222
illery	-12223
▁MIT	-12224
▁travels	-12225
▁systemic	-12226
olia	-12227
▁screw	-12228
▁seats	-12229
▁advocates	-12230
▁tuber	-12231
▁altitude	-12232
Read	-12233
▁artic	-12234
ierce	-12235
▁lesions	-12236
▁Nigeria	-12237
uate	-12238
▁bapt	-12239
▁unprecedented	-12240
▁selecting	-12241
rained	-12242
rosis	-12243
▁CM	-12244
▁EC	-12245
▁impaired	-12246
▁safegu	-12247
▁entertainment	-12248
▁obstacles	-12249
cription	-12250
▁journals	-12251
▁Bed	-12252
eman	-12253
▁relies	-12254
▁remembered	-12255
ulent	-12256
▁certification	-12257
▁negatively	-12258
▁modest	-12259
resistant	-12260
▁emperor	-12261
▁Hans	-12262
▁wires	-12263
▁Ps	-12264
▁depicted	-12265
erenn	-12266
▁delight	-12267
▁Would	-12268
▁unst	-12269
▁ok	-12270
▁delayed	-12271
▁silent	-12272
▁juven	-12273
▁tet	-12274
▁Link	-12275
▁evaluating	-12276
wind	-12277
▁truck	-12278
▁interfere	-12279
▁Brad	-12280
aughters	-12281
▁Soil	-12282
▁worlds	-12283
▁Toronto	-12284
arp	-12285
▁ecology	-12286
▁bridges	-12287
▁lighter	-12288
▁GPS	-12289
rans	-12290
▁Berkeley	-12291
▁Hun	-12292
▁YO	-12293
osures	-12294
▁realm	-12295
▁Success	-12296
▁extinct	-12297
▁permits	-12298
▁sensation	-12299
▁certificate	-12300
▁Patrick	-12301
▁Anth	-12302
▁lateral	-12303
▁loaded	-12304
icut	-12305
ijuana	-12306
cat	-12307
▁glasses	-12308
▁strictly	-12309
▁banned	-12310
▁pneumonia	-12311
▁Hou	-12312
▁Protocol	-12313
▁recur	-12314
▁crossed	-12315
▁chemotherapy	-12316
▁Focus	-12317
▁insufficient	-12318
▁creature	-12319
▁pole	-12320
▁freed	-12321
hal	-12322
▁wetlands	-12323
▁accommodate	-12324
▁ly	-12325
▁Reference	-12326
▁Newton	-12327
lict	-12328
▁Workshe	-12329
▁ruler	-12330
▁Eventually	-12331
….	-12332
dig	-12333
ni	-12334
▁AF	-12335
▁Methods	-12336
May	-12337
▁Testing	-12338
▁freshwater	-12339
▁similarities	-12340
▁Function	-12341
▁placement	-12342
ochem	-12343
▁Ground	-12344
▁Luke	-12345
▁Anderson	-12346
▁priests	-12347
bled	-12348
erto	-12349
▁Syd	-12350
▁registration	-12351
▁mast	-12352
▁triggered	-12353
▁dwell	-12354
▁secular	-12355
▁lets	-12356
▁Mas	-12357
▁Ros	-12358
▁probe	-12359
▁descendants	-12360
roups	-12361
km	-12362
▁continually	-12363
▁synthes	-12364
▁Ay	-12365
▁bowl	-12366
▁thumb	-12367
pers	-12368
▁Maine	-12369
▁Alcohol	-12370
▁gay	-12371
▁perceive	-12372
▁races	-12373
two	-12374
▁withdrawal	-12375
owed	-12376
▁footprint	-12377
▁airpl	-12378
▁Share	-12379
▁Gi	-12380
▁TB	-12381
lux	-12382
intestinal	-12383
▁Kit	-12384
▁grocer	-12385
▁Cuba	-12386
energy	-12387
.(	-12388
▁activists	-12389
▁revised	-12390
zech	-12391
amel	-12392
▁teachings	-12393
oping	-12394
▁workforce	-12395
heum	-12396
▁impacted	-12397
▁upset	-12398
itational	-12399
▁retrie	-12400
▁plastics	-12401
▁mush	-12402
post	-12403
▁erad	-12404
▁monetary	-12405
▁Domin	-12406
▁Kind	-12407
ths	-12408
▁scrap	-12409
vo	-12410
▁sor	-12411
▁statue	-12412
reas	-12413
PL	-12414
lies	-12415
▁divisions	-12416
▁combustion	-12417
▁individ	-12418
▁generator	-12419
▁dependence	-12420
▁indo	-12421
bird	-12422
▁proc	-12423
▁navigate	-12424
▁uncons	-12425
▁Kal	-12426
▁lasted	-12427
▁Orthodox	-12428
▁Mathematics	-12429
▁citizenship	-12430
▁Wel	-12431
▁Torah	-12432
uated	-12433
▁Anton	-12434
▁bulbs	-12435
▁Douglas	-12436
▁ty	-12437
names	-12438
▁Skin	-12439
▁bats	-12440
▁destructive	-12441
▁scarce	-12442
▁titled	-12443
▁Compan	-12444
▁Accessed	-12445
▁Easter	-12446
▁Ow	-12447
▁fired	-12448
▁stayed	-12449
▁explicitly	-12450
▁inspire	-12451
▁autonomous	-12452
▁longest	-12453
▁toll	-12454
▁PS	-12455
▁Allen	-12456
▁extensively	-12457
▁inclusive	-12458
▁warned	-12459
▁inval	-12460
▁lawn	-12461
okes	-12462
▁coupled	-12463
Eng	-12464
▁veins	-12465
▁wounds	-12466
▁Kir	-12467
▁screens	-12468
▁compress	-12469
▁naval	-12470
▁offset	-12471
ocytes	-12472
▁fits	-12473
▁Regular	-12474
▁retained	-12475
▁strikes	-12476
▁exclusive	-12477
▁behave	-12478
kg	-12479
ryption	-12480
▁toilet	-12481
▁stir	-12482
▁edit	-12483
▁pyram	-12484
▁algebra	-12485
ellar	-12486
▁knock	-12487
▁votes	-12488
▁activated	-12489
▁Bangladesh	-12490
▁pointing	-12491
itives	-12492
▁Authority	-12493
▁positively	-12494
▁Course	-12495
▁fungus	-12496
▁Sin	-12497
▁autumn	-12498
▁charts	-12499
▁transcript	-12500
itar	-12501
▁activation	-12502
▁legally	-12503
▁underm	-12504
▁consolid	-12505
▁joining	-12506
▁template	-12507
▁Better	-12508
▁Mosc	-12509
arency	-12510
▁surgeon	-12511
▁Aer	-12512
▁brut	-12513
▁critics	-12514
▁Beach	-12515
eded	-12516
PM	-12517
▁tablets	-12518
▁transaction	-12519
▁comprised	-12520
▁functionality	-12521
▁strat	-12522
▁landscapes	-12523
▁judges	-12524
wealth	-12525
▁billions	-12526
▁Southeast	-12527
▁ore	-12528
▁parasites	-12529
▁gel	-12530
▁warfare	-12531
▁Recently	-12532
eps	-12533
▁Aristot	-12534
▁rehabilitation	-12535
▁antioxidant	-12536
▁PV	-12537
rock	-12538
▁mechanics	-12539
▁cultivation	-12540
▁seas	-12541
▁inspection	-12542
▁impairment	-12543
▁surroundings	-12544
▁intens	-12545
ben	-12546
ashing	-12547
▁Skills	-12548
▁collaps	-12549
▁generates	-12550
▁sake	-12551
▁weeds	-12552
third	-12553
▁dispute	-12554
▁harmony	-12555
▁identifies	-12556
rish	-12557
▁Tech	-12558
▁Song	-12559
▁regards	-12560
▁standardized	-12561
▁Technical	-12562
▁therapist	-12563
▁poultry	-12564
proof	-12565
▁Lanc	-12566
▁vic	-12567
▁Soci	-12568
▁Term	-12569
▁bip	-12570
oard	-12571
ometric	-12572
▁guilty	-12573
▁mosquitoes	-12574
()	-12575
▁strip	-12576
▁ank	-12577
olutions	-12578
▁Dal	-12579
▁worms	-12580
fortable	-12581
▁trapped	-12582
▁prosperity	-12583
bin	-12584
▁Conserv	-12585
▁microbial	-12586
▁outstanding	-12587
obacter	-12588
ixed	-12589
▁cock	-12590
▁Fried	-12591
▁Improve	-12592
▁transported	-12593
▁anxious	-12594
▁snakes	-12595
▁jurisdiction	-12596
▁breeds	-12597
▁checks	-12598
▁patches	-12599
▁achievements	-12600
▁employer	-12601
▁Sarah	-12602
▁silicon	-12603
▁directory	-12604
▁acknowledged	-12605
phen	-12606
▁disabled	-12607
ucks	-12608
esteem	-12609
ugar	-12610
▁outbreaks	-12611
▁eliminating	-12612
▁praise	-12613
▁competing	-12614
▁Night	-12615
▁fusion	-12616
▁Einstein	-12617
▁sixth	-12618
▁Dog	-12619
▁luck	-12620
ambo	-12621
▁Fif	-12622
▁Causes	-12623
▁examines	-12624
rade	-12625
opter	-12626
▁Initiative	-12627
▁Esp	-12628
▁sends	-12629
▁Imagine	-12630
▁fossils	-12631
▁burial	-12632
▁blocked	-12633
rophy	-12634
▁Nuclear	-12635
▁cous	-12636
▁damages	-12637
▁oct	-12638
▁deployed	-12639
▁Ms	-12640
▁peas	-12641
▁sink	-12642
otional	-12643
▁Return	-12644
▁remedy	-12645
▁trains	-12646
four	-12647
raul	-12648
▁phon	-12649
▁Protestant	-12650
▁alleg	-12651
▁ate	-12652
▁layout	-12653
▁]	-12654
▁coating	-12655
ulture	-12656
▁Annual	-12657
▁crafts	-12658
oriented	-12659
▁Ukraine	-12660
▁Hart	-12661
▁gallons	-12662
▁Hamilton	-12663
▁traces	-12664
▁economically	-12665
▁Sel	-12666
▁Burn	-12667
▁Loss	-12668
▁Excel	-12669
▁Alliance	-12670
aran	-12671
▁Viol	-12672
▁Bishop	-12673
olis	-12674
▁isot	-12675
▁lux	-12676
Pe	-12677
▁pour	-12678
▁Determ	-12679
▁Police	-12680
▁conception	-12681
▁Roc	-12682
marks	-12683
▁microbi	-12684
esthes	-12685
▁displace	-12686
▁dissolved	-12687
dy	-12688
▁considers	-12689
▁orth	-12690
▁EV	-12691
Col	-12692
▁desper	-12693
otive	-12694
▁linguistic	-12695
▁inevitable	-12696
oz	-12697
▁jack	-12698
lan	-12699
▁Problems	-12700
▁passages	-12701
▁intrig	-12702
Com	-12703
▁Vacc	-12704
▁recognised	-12705
▁VI	-12706
unes	-12707
nee	-12708
▁Hyp	-12709
▁Bud	-12710
▁yog	-12711
opor	-12712
▁threatening	-12713
▁eternal	-12714
▁binary	-12715
▁ranks	-12716
▁Swedish	-12717
amous	-12718
itime	-12719
▁sanct	-12720
▁disappeared	-12721
▁MRI	-12722
▁uncommon	-12723
▁subjected	-12724
▁settlements	-12725
▁Award	-12726
▁invisible	-12727
▁bod	-12728
▁packed	-12729
▁flowering	-12730
▁watershed	-12731
lahoma	-12732
▁info	-12733
aus	-12734
▁municipal	-12735
idth	-12736
▁hungry	-12737
▁mitochond	-12738
▁Higher	-12739
▁cervical	-12740
person	-12741
▁Pack	-12742
▁downt	-12743
▁innovations	-12744
▁Oak	-12745
▁Heat	-12746
adi	-12747
▁rhet	-12748
▁baseline	-12749
▁paste	-12750
▁Industry	-12751
▁Sydney	-12752
▁Walter	-12753
▁shooting	-12754
▁drilling	-12755
▁exploitation	-12756
▁dump	-12757
▁factories	-12758
ennis	-12759
ORD	-12760
bone	-12761
▁grab	-12762
▁planes	-12763
▁plural	-12764
▁Philosophy	-12765
▁cram	-12766
▁Haz	-12767
▁Pharm	-12768
▁refined	-12769
imb	-12770
chi	-12771
▁grasp	-12772
▁stretching	-12773
▁’	-12774
▁aug	-12775
▁Publ	-12776
▁Gand	-12777
aga	-12778
▁watched	-12779
▁millenn	-12780
▁rival	-12781
▁somehow	-12782
▁Poor	-12783
rones	-12784
▁cater	-12785
▁soda	-12786
onduct	-12787
▁diesel	-12788
▁restaurants	-12789
inar	-12790
▁publishing	-12791
▁potato	-12792
▁disse	-12793
▁cruel	-12794
▁outlined	-12795
▁Chronic	-12796
▁inserted	-12797
▁evolve	-12798
▁Beng	-12799
▁Weight	-12800
▁coh	-12801
▁besides	-12802
▁afterwards	-12803
▁promises	-12804
▁damp	-12805
▁Title	-12806
▁instructional	-12807
eech	-12808
▁Software	-12809
▁centres	-12810
Ab	-12811
▁Palestine	-12812
vas	-12813
▁asbestos	-12814
FA	-12815
▁Eu	-12816
▁myths	-12817
▁hoped	-12818
▁earthquakes	-12819
▁cel	-12820
▁TR	-12821
▁Too	-12822
▁rash	-12823
▁floods	-12824
▁Wright	-12825
stan	-12826
path	-12827
▁Hug	-12828
OV	-12829
▁adjusted	-12830
▁Emergency	-12831
only	-12832
▁rolling	-12833
▁Pos	-12834
▁Dick	-12835
▁electromagnetic	-12836
uncture	-12837
hematic	-12838
▁bench	-12839
▁Basin	-12840
▁toxicity	-12841
rehend	-12842
htm	-12843
▁voy	-12844
▁opio	-12845
▁IL	-12846
▁temporal	-12847
▁suppress	-12848
▁Multiple	-12849
▁witnessed	-12850
▁critically	-12851
▁vulnerability	-12852
▁designer	-12853
▁Dry	-12854
▁ports	-12855
agu	-12856
▁amph	-12857
▁individually	-12858
▁Economics	-12859
▁shells	-12860
▁Universe	-12861
▁sequencing	-12862
wich	-12863
▁odds	-12864
imore	-12865
▁Moscow	-12866
▁Moore	-12867
▁cultivated	-12868
▁Nan	-12869
▁struggles	-12870
Im	-12871
▁nasal	-12872
▁rum	-12873
▁dos	-12874
Cs	-12875
▁Mun	-12876
▁gardening	-12877
▁Biological	-12878
▁plug	-12879
▁pumps	-12880
▁cortex	-12881
▁seaf	-12882
▁Traditional	-12883
▁Brig	-12884
▁embrace	-12885
▁Explain	-12886
▁retention	-12887
powered	-12888
▁purely	-12889
▁McK	-12890
▁Bitcoin	-12891
▁frames	-12892
▁maintains	-12893
▁monarch	-12894
ilies	-12895
▁Cand	-12896
▁Could	-12897
▁Notes	-12898
Te	-12899
▁prelim	-12900
▁Extension	-12901
▁intestine	-12902
mates	-12903
▁Connecticut	-12904
▁Camb	-12905
▁transit	-12906
▁weed	-12907
▁Denmark	-12908
don	-12909
idel	-12910
▁Saturn	-12911
Qu	-12912
▁unsu	-12913
▁prototype	-12914
▁prediction	-12915
▁questionna	-12916
▁appreciation	-12917
▁↑	-12918
▁instructor	-12919
▁drill	-12920
▁stamp	-12921
pose	-12922
▁walked	-12923
▁sufficiently	-12924
▁Plus	-12925
▁ram	-12926
▁tutorial	-12927
▁inventory	-12928
▁Der	-12929
Can	-12930
pler	-12931
▁enrich	-12932
▁failing	-12933
▁piano	-12934
▁Professional	-12935
GA	-12936
▁tears	-12937
▁Quant	-12938
▁liber	-12939
aza	-12940
▁recipe	-12941
aron	-12942
▁Dark	-12943
▁abdomen	-12944
▁Proceed	-12945
▁solved	-12946
▁jun	-12947
▁organizational	-12948
▁Ts	-12949
▁preliminary	-12950
pher	-12951
arches	-12952
ulatory	-12953
▁tomatoes	-12954
ili	-12955
lihood	-12956
▁whale	-12957
▁cum	-12958
oglob	-12959
articles	-12960
▁variants	-12961
▁attribute	-12962
▁traumatic	-12963
ignty	-12964
lip	-12965
▁primitive	-12966
▁PRO	-12967
▁hasn	-12968
▁mant	-12969
▁oak	-12970
▁forcing	-12971
▁ventilation	-12972
aman	-12973
▁unconscious	-12974
▁Czech	-12975
imination	-12976
len	-12977
▁Nev	-12978
▁pathogen	-12979
▁oscill	-12980
bound	-12981
▁parish	-12982
▁Members	-12983
educ	-12984
ensing	-12985
esar	-12986
pin	-12987
▁compromise	-12988
PubMed	-12989
▁sour	-12990
▁negotiations	-12991
rost	-12992
▁Weather	-12993
▁harvesting	-12994
▁Legisl	-12995
▁recommendation	-12996
▁Apart	-12997
▁satisfied	-12998
mind	-12999
▁Summary	-13000
▁Oklahoma	-13001
driven	-13002
avy	-13003
▁arrangements	-13004
cerpt	-13005
▁Fox	-13006
▁Simple	-13007
▁dozens	-13008
▁SA	-13009
▁friction	-13010
▁publish	-13011
Tube	-13012
▁delicate	-13013
▁Activities	-13014
▁Live	-13015
▁schemes	-13016
▁wellbeing	-13017
▁accordingly	-13018
▁priorit	-13019
▁requested	-13020
ige	-13021
▁gluten	-13022
▁monaster	-13023
▁q	-13024
▁illustrates	-13025
izoph	-13026
▁Magazine	-13027
▁excluded	-13028
test	-13029
▁ana	-13030
▁valued	-13031
ancies	-13032
▁Foot	-13033
▁CON	-13034
plicit	-13035
▁Snow	-13036
threat	-13037
▁spirits	-13038
▁quoted	-13039
dem	-13040
▁posture	-13041
▁countless	-13042
▁consec	-13043
ardo	-13044
▁attachment	-13045
▁True	-13046
▁gently	-13047
▁episodes	-13048
▁crystals	-13049
▁compiled	-13050
▁Communist	-13051
▁problematic	-13052
ania	-13053
▁stopping	-13054
note	-13055
▁queen	-13056
▁Region	-13057
▁Dh	-13058
▁urgent	-13059
▁supportive	-13060
▁investigating	-13061
▁strings	-13062
▁biblical	-13063
erk	-13064
▁utilizing	-13065
▁emphasize	-13066
▁clinic	-13067
▁stain	-13068
▁Autom	-13069
▁succ	-13070
▁palace	-13071
▁failures	-13072
▁matching	-13073
▁Ltd	-13074
▁untreated	-13075
ppers	-13076
coma	-13077
▁resolved	-13078
▁Fest	-13079
▁folks	-13080
▁mobil	-13081
▁enroll	-13082
▁Stage	-13083
roscience	-13084
▁gasoline	-13085
tech	-13086
▁uncomfortable	-13087
alling	-13088
▁Prep	-13089
▁Ever	-13090
▁Problem	-13091
▁permanently	-13092
ierra	-13093
▁obtaining	-13094
ository	-13095
▁investing	-13096
▁formerly	-13097
▁respondents	-13098
adows	-13099
▁terrain	-13100
▁Gram	-13101
▁wheels	-13102
▁Salt	-13103
▁teenagers	-13104
▁Lakes	-13105
▁temples	-13106
aux	-13107
▁diamond	-13108
izophren	-13109
▁peripheral	-13110
▁Bos	-13111
imental	-13112
acerb	-13113
▁riding	-13114
▁microscope	-13115
▁deficit	-13116
▁nurt	-13117
redict	-13118
▁stocks	-13119
uliar	-13120
▁hes	-13121
pres	-13122
▁handful	-13123
engu	-13124
▁Apollo	-13125
▁seizures	-13126
ricular	-13127
▁dignity	-13128
▁Venus	-13129
▁sins	-13130
▁energ	-13131
▁tourists	-13132
▁goddess	-13133
ioned	-13134
some	-13135
▁perceptions	-13136
▁Ta	-13137
rots	-13138
▁suspended	-13139
atics	-13140
▁likes	-13141
▁connects	-13142
▁ants	-13143
PE	-13144
▁Alexand	-13145
Lear	-13146
emen	-13147
▁trunk	-13148
▁unions	-13149
▁delivering	-13150
▁infrared	-13151
illes	-13152
SE	-13153
▁Joint	-13154
▁instinct	-13155
month	-13156
▁remedies	-13157
▁rip	-13158
sels	-13159
▁thou	-13160
▁Citiz	-13161
▁oun	-13162
▁Complete	-13163
▁triangle	-13164
▁ammon	-13165
▁EL	-13166
▁draws	-13167
▁LGBT	-13168
▁strengthening	-13169
▁apples	-13170
▁clot	-13171
ante	-13172
▁descent	-13173
▁parameter	-13174
▁Bron	-13175
▁passenger	-13176
week	-13177
pit	-13178
▁mas	-13179
▁Various	-13180
▁intim	-13181
▁bloom	-13182
▁Growth	-13183
▁metall	-13184
▁Chi	-13185
▁silk	-13186
▁Anglo	-13187
▁tragedy	-13188
▁macro	-13189
ifiers	-13190
culosis	-13191
▁Foods	-13192
▁heading	-13193
onut	-13194
▁incentives	-13195
▁reconstruct	-13196
▁Europeans	-13197
▁sits	-13198
▁Run	-13199
ocide	-13200
▁translate	-13201
▁appliances	-13202
▁approaching	-13203
stud	-13204
▁turtles	-13205
▁Juda	-13206
▁orch	-13207
▁counterparts	-13208
▁berries	-13209
▁Harry	-13210
▁Frederick	-13211
▁assass	-13212
arming	-13213
▁dwarf	-13214
AND	-13215
▁bureau	-13216
▁OK	-13217
▁balls	-13218
▁Ky	-13219
acity	-13220
▁Partners	-13221
▁ambit	-13222
▁landed	-13223
▁allev	-13224
▁hub	-13225
▁apost	-13226
ailand	-13227
site	-13228
▁Napole	-13229
▁bulb	-13230
▁frost	-13231
othel	-13232
▁Graph	-13233
▁wastewater	-13234
▁elite	-13235
▁everybody	-13236
▁pipeline	-13237
▁Description	-13238
log	-13239
second	-13240
ector	-13241
▁variant	-13242
▁feathers	-13243
▁astronomers	-13244
▁lectures	-13245
▁arom	-13246
urities	-13247
▁substrate	-13248
▁traff	-13249
▁demanding	-13250
autions	-13251
▁Christopher	-13252
%),	-13253
▁elaborate	-13254
reach	-13255
▁secured	-13256
▁Late	-13257
▁Hait	-13258
▁lion	-13259
retion	-13260
MM	-13261
▁burns	-13262
▁Sports	-13263
▁Jenn	-13264
▁pressing	-13265
▁Ord	-13266
depth	-13267
▁dot	-13268
▁rigid	-13269
▁unwanted	-13270
▁allies	-13271
▁Disorder	-13272
oporosis	-13273
▁Babylon	-13274
amation	-13275
artz	-13276
BL	-13277
ipt	-13278
▁Eye	-13279
ulse	-13280
▁presentations	-13281
▁Bull	-13282
▁sexually	-13283
▁indoors	-13284
▁moder	-13285
With	-13286
▁mad	-13287
▁troubles	-13288
▁Creating	-13289
▁recipes	-13290
▁Howard	-13291
▁mysterious	-13292
▁aggression	-13293
▁empathy	-13294
▁Content	-13295
perature	-13296
▁drying	-13297
▁underwater	-13298
vasive	-13299
▁Recomm	-13300
▁asym	-13301
▁retired	-13302
▁Dra	-13303
vised	-13304
▁cargo	-13305
▁lin	-13306
▁Lank	-13307
▁Northwest	-13308
▁URL	-13309
▁editors	-13310
ensions	-13311
▁Wi	-13312
cellular	-13313
▁×	-13314
▁specify	-13315
▁Lev	-13316
▁touching	-13317
▁Khan	-13318
▁drum	-13319
ilingual	-13320
▁harvested	-13321
endix	-13322
▁analytical	-13323
▁civilian	-13324
▁keyboard	-13325
▁Alber	-13326
▁Dakota	-13327
▁induce	-13328
ocene	-13329
▁Gospel	-13330
leans	-13331
▁Ens	-13332
bling	-13333
▁stro	-13334
▁File	-13335
▁metaphor	-13336
ATE	-13337
▁arises	-13338
▁Proceedings	-13339
▁DE	-13340
▁priorities	-13341
ethyl	-13342
cils	-13343
▁learner	-13344
▁urinary	-13345
abase	-13346
estab	-13347
▁Gib	-13348
▁exacerb	-13349
aunt	-13350
John	-13351
▁Academic	-13352
alry	-13353
▁reproduce	-13354
▁Record	-13355
▁Animals	-13356
▁horizon	-13357
▁obligations	-13358
▁stimulus	-13359
▁smile	-13360
▁Peru	-13361
erce	-13362
fin	-13363
▁Cos	-13364
insic	-13365
Table	-13366
▁companion	-13367
▁sulfur	-13368
▁formats	-13369
▁chromosome	-13370
rator	-13371
▁appropriately	-13372
▁fracture	-13373
▁Delhi	-13374
▁Thom	-13375
▁potent	-13376
axis	-13377
▁eager	-13378
▁breakthrough	-13379
▁Base	-13380
▁bug	-13381
▁wishes	-13382
▁Price	-13383
▁Ka	-13384
▁charging	-13385
▁Consult	-13386
▁homeless	-13387
▁electroly	-13388
▁Wang	-13389
▁modification	-13390
source	-13391
▁Nelson	-13392
▁flux	-13393
▁hoping	-13394
▁modifications	-13395
▁hob	-13396
▁defence	-13397
▁Lef	-13398
rative	-13399
▁tonnes	-13400
pub	-13401
▁immers	-13402
▁incons	-13403
▁DS	-13404
edic	-13405
expensive	-13406
▁supporters	-13407
▁singular	-13408
▁da	-13409
herence	-13410
building	-13411
▁arsen	-13412
▁Amb	-13413
uz	-13414
▁nationwide	-13415
food	-13416
▁alignment	-13417
▁Brand	-13418
▁washed	-13419
▁freezing	-13420
▁lowering	-13421
▁exceptional	-13422
▁Queens	-13423
pack	-13424
▁trillion	-13425
▁pean	-13426
▁birthday	-13427
▁proposals	-13428
ynthesis	-13429
▁Changes	-13430
▁pursuit	-13431
▁acidic	-13432
▁abnormalities	-13433
▁pm	-13434
▁Margaret	-13435
doc	-13436
▁livelihood	-13437
▁abortion	-13438
▁shops	-13439
som	-13440
▁Join	-13441
adian	-13442
▁disappoint	-13443
piece	-13444
▁Guidelines	-13445
inging	-13446
ativity	-13447
▁Measure	-13448
▁parental	-13449
sight	-13450
▁portable	-13451
lighten	-13452
▁disciples	-13453
▁fans	-13454
plicity	-13455
PT	-13456
▁Cov	-13457
roximately	-13458
▁Ori	-13459
▁Hi	-13460
▁Agreement	-13461
overs	-13462
stock	-13463
▁puzzle	-13464
dependent	-13465
▁conditioning	-13466
prot	-13467
Or	-13468
▁Soon	-13469
▁combines	-13470
▁likewise	-13471
▁illustration	-13472
▁inferior	-13473
▁consistency	-13474
irie	-13475
▁cookies	-13476
▁perenn	-13477
ysics	-13478
▁Victorian	-13479
▁wherever	-13480
▁RF	-13481
ivic	-13482
▁obligation	-13483
agrams	-13484
▁rulers	-13485
▁Tob	-13486
anny	-13487
▁recruit	-13488
▁silence	-13489
▁Hold	-13490
▁deriv	-13491
tha	-13492
▁litter	-13493
cha	-13494
▁upt	-13495
▁YouTube	-13496
▁tourist	-13497
▁masks	-13498
▁bon	-13499
▁vascular	-13500
▁adhes	-13501
▁Brother	-13502
▁assembled	-13503
▁networking	-13504
▁bol	-13505
▁comprises	-13506
▁flee	-13507
▁strongest	-13508
ulas	-13509
▁prohibited	-13510
▁shame	-13511
astically	-13512
▁adventure	-13513
▁petition	-13514
▁gravitational	-13515
▁responding	-13516
count	-13517
▁Alt	-13518
▁Cloud	-13519
▁straightforward	-13520
▁Critical	-13521
▁Chair	-13522
hol	-13523
▁formally	-13524
ifiable	-13525
▁occasional	-13526
▁temporarily	-13527
▁peculiar	-13528
opsy	-13529
▁wre	-13530
▁drama	-13531
▁stool	-13532
▁signature	-13533
▁Verm	-13534
▁Marshall	-13535
▁Eve	-13536
▁equilibrium	-13537
▁rept	-13538
▁shark	-13539
▁intoler	-13540
▁appar	-13541
▁Parks	-13542
▁Federation	-13543
▁Manufact	-13544
▁capitalism	-13545
TSD	-13546
atis	-13547
ograms	-13548
▁membranes	-13549
▁utter	-13550
▁interconn	-13551
IH	-13552
▁burst	-13553
▁harness	-13554
▁lasts	-13555
▁radius	-13556
▁infest	-13557
▁Thailand	-13558
By	-13559
▁empirical	-13560
▁crude	-13561
orrh	-13562
▁Orleans	-13563
▁noting	-13564
▁Bart	-13565
▁Sad	-13566
▁compelling	-13567
▁sie	-13568
▁climb	-13569
esterday	-13570
▁curiosity	-13571
▁cruc	-13572
▁blade	-13573
ulph	-13574
isan	-13575
▁Joe	-13576
▁offensive	-13577
▁exceptions	-13578
Ne	-13579
▁respected	-13580
rod	-13581
aceous	-13582
▁CC	-13583
neath	-13584
▁Document	-13585
zes	-13586
▁USS	-13587
uter	-13588
▁tent	-13589
▁microorganisms	-13590
▁RA	-13591
▁fathers	-13592
▁ambitious	-13593
▁interven	-13594
▁nearest	-13595
hew	-13596
▁Planet	-13597
▁shelf	-13598
▁excite	-13599
ouch	-13600
via	-13601
▁Ottoman	-13602
▁Nile	-13603
home	-13604
ophers	-13605
▁acre	-13606
iatry	-13607
achelor	-13608
VI	-13609
▁supervision	-13610
▁carved	-13611
▁letting	-13612
Fi	-13613
▁Occup	-13614
▁mitigate	-13615
▁ultrasound	-13616
▁commissioned	-13617
▁reflecting	-13618
▁trusted	-13619
▁beverages	-13620
▁enhancing	-13621
▁submar	-13622
utenant	-13623
▁stimuli	-13624
▁Michel	-13625
▁adulthood	-13626
▁printer	-13627
▁contacts	-13628
▁Abs	-13629
▁proximity	-13630
emics	-13631
▁antibody	-13632
houses	-13633
▁Concept	-13634
hu	-13635
uto	-13636
news	-13637
esty	-13638
▁alternate	-13639
▁Organic	-13640
▁daughters	-13641
▁resting	-13642
▁communicating	-13643
▁verify	-13644
▁Hud	-13645
▁neighboring	-13646
▁Mort	-13647
▁Spect	-13648
alia	-13649
▁medicinal	-13650
▁Rot	-13651
▁bush	-13652
▁coordinate	-13653
inters	-13654
ridge	-13655
mother	-13656
bes	-13657
▁wilderness	-13658
▁worthy	-13659
▁quotes	-13660
▁surprisingly	-13661
▁SQL	-13662
▁Colomb	-13663
▁lawyer	-13664
▁Tel	-13665
pha	-13666
▁disagree	-13667
group	-13668
▁Stra	-13669
▁grazing	-13670
▁pedest	-13671
▁handled	-13672
▁rif	-13673
▁entries	-13674
▁Isaac	-13675
▁iv	-13676
vic	-13677
▁sharks	-13678
▁buffer	-13679
odus	-13680
▁snack	-13681
▁Curriculum	-13682
▁desires	-13683
▁charity	-13684
▁clarity	-13685
▁memorial	-13686
▁sanitation	-13687
▁farther	-13688
▁documentary	-13689
rians	-13690
▁producer	-13691
elta	-13692
▁differential	-13693
▁mandatory	-13694
fram	-13695
▁Safe	-13696
▁dye	-13697
▁mol	-13698
leys	-13699
▁cubic	-13700
itated	-13701
▁dermat	-13702
▁fright	-13703
▁pear	-13704
▁museums	-13705
keeping	-13706
etric	-13707
▁fifteen	-13708
▁specially	-13709
laim	-13710
▁Swiss	-13711
▁fluoride	-13712
▁highway	-13713
▁IBM	-13714
▁bub	-13715
▁Cas	-13716
oubted	-13717
▁dolph	-13718
▁Gab	-13719
▁yards	-13720
▁Used	-13721
▁deny	-13722
▁discount	-13723
▁Vari	-13724
▁portrait	-13725
▁rust	-13726
▁adject	-13727
▁resort	-13728
▁Records	-13729
▁watering	-13730
▁counseling	-13731
▁easiest	-13732
fting	-13733
▁jewel	-13734
oni	-13735
iage	-13736
▁switching	-13737
▁authorized	-13738
▁Lam	-13739
▁shoulders	-13740
▁fisheries	-13741
▁Taiwan	-13742
▁righteous	-13743
style	-13744
▁judicial	-13745
▁shower	-13746
▁colorful	-13747
mi	-13748
▁woods	-13749
▁Say	-13750
▁pseud	-13751
▁spill	-13752
antry	-13753
▁satisfy	-13754
▁jar	-13755
▁Individuals	-13756
pop	-13757
▁Subject	-13758
▁composite	-13759
▁Aristotle	-13760
▁americ	-13761
▁fitted	-13762
nowned	-13763
▁Virtual	-13764
raulic	-13765
▁organizing	-13766
▁Hyper	-13767
="	-13768
▁emphasized	-13769
▁rituals	-13770
▁Explore	-13771
▁propri	-13772
▁congest	-13773
imated	-13774
hn	-13775
▁periodic	-13776
▁limb	-13777
▁Calcul	-13778
lie	-13779
welling	-13780
▁garlic	-13781
▁Ig	-13782
uning	-13783
▁Houston	-13784
▁phosphorus	-13785
▁bullet	-13786
▁dynasty	-13787
▁Construction	-13788
▁domains	-13789
Res	-13790
obia	-13791
orse	-13792
▁metric	-13793
ti	-13794
▁cooler	-13795
▁Production	-13796
▁momentum	-13797
ardless	-13798
▁adaptive	-13799
▁stew	-13800
▁limbs	-13801
▁reluct	-13802
gly	-13803
▁elephant	-13804
ocur	-13805
▁hanging	-13806
▁ministry	-13807
▁profiles	-13808
▁seism	-13809
▁thir	-13810
▁simulations	-13811
▁Silver	-13812
conscious	-13813
▁practically	-13814
inge	-13815
▁microw	-13816
ockets	-13817
▁determin	-13818
▁exit	-13819
igo	-13820
▁demanded	-13821
▁Baltimore	-13822
▁Few	-13823
mans	-13824
▁tire	-13825
▁salvation	-13826
math	-13827
▁revision	-13828
ctica	-13829
charge	-13830
▁laugh	-13831
▁hay	-13832
▁Cart	-13833
▁philosopher	-13834
▁maximize	-13835
▁Pun	-13836
▁filed	-13837
▁anyway	-13838
▁trash	-13839
▁qualitative	-13840
▁cylinder	-13841
istle	-13842
▁Dead	-13843
▁Antarctic	-13844
▁gover	-13845
▁exports	-13846
▁recreational	-13847
▁reass	-13848
▁incorporating	-13849
▁glue	-13850
▁reactor	-13851
▁imped	-13852
▁treasure	-13853
▁meta	-13854
▁Solomon	-13855
otine	-13856
▁treats	-13857
▁ib	-13858
▁processor	-13859
▁barely	-13860
▁Nearly	-13861
▁corrupt	-13862
▁participant	-13863
▁patron	-13864
▁depressed	-13865
▁spider	-13866
▁pulmonary	-13867
▁Ped	-13868
esthet	-13869
▁fost	-13870
▁fantastic	-13871
▁maturity	-13872
▁Manual	-13873
▁Ethiopia	-13874
▁entrepreneurs	-13875
▁Ga	-13876
▁pad	-13877
▁expressing	-13878
▁infinite	-13879
▁tactics	-13880
▁shortage	-13881
▁differs	-13882
▁semic	-13883
▁erected	-13884
▁imperative	-13885
▁acted	-13886
▁Byz	-13887
▁Estab	-13888
ocate	-13889
onder	-13890
▁Signs	-13891
▁discourse	-13892
▁firmly	-13893
▁deaf	-13894
▁poses	-13895
OG	-13896
▁gradual	-13897
▁preserving	-13898
elle	-13899
▁Stay	-13900
ilage	-13901
▁Range	-13902
▁Religion	-13903
▁targeting	-13904
birds	-13905
▁Programme	-13906
▁spotted	-13907
▁Rule	-13908
alg	-13909
Sm	-13910
▁eco	-13911
when	-13912
▁pist	-13913
▁sovereignty	-13914
▁Gord	-13915
▁Likewise	-13916
olen	-13917
▁blend	-13918
▁declining	-13919
▁batt	-13920
▁hect	-13921
▁advertise	-13922
▁protests	-13923
▁holidays	-13924
▁textbook	-13925
▁Olympic	-13926
▁McD	-13927
uru	-13928
process	-13929
▁claiming	-13930
▁Respons	-13931
Why	-13932
▁foliage	-13933
▁Truth	-13934
▁Liver	-13935
▁±	-13936
▁headquarters	-13937
▁pulling	-13938
brates	-13939
izophrenia	-13940
▁neighborhoods	-13941
▁Thor	-13942
▁restaurant	-13943
▁epic	-13944
▁Square	-13945
▁Roberts	-13946
▁armies	-13947
▁seam	-13948
▁Oral	-13949
▁punct	-13950
▁beaches	-13951
▁definitive	-13952
▁weekend	-13953
▁Lang	-13954
▁Peninsula	-13955
▁aesthetic	-13956
iguous	-13957
isol	-13958
▁nutrit	-13959
lad	-13960
▁pile	-13961
ryst	-13962
▁gig	-13963
▁ceiling	-13964
▁flags	-13965
▁..	-13966
width	-13967
▁Simply	-13968
▁tomorrow	-13969
▁couples	-13970
control	-13971
▁glow	-13972
▁Band	-13973
▁scans	-13974
▁LE	-13975
analysis	-13976
▁contaminants	-13977
▁specimen	-13978
breaking	-13979
▁Allow	-13980
▁timely	-13981
orescent	-13982
acial	-13983
▁sprou	-13984
▁friendship	-13985
▁anemia	-13986
▁Puerto	-13987
▁Columbus	-13988
▁Eric	-13989
▁shifting	-13990
walk	-13991
▁predominantly	-13992
▁Clinton	-13993
▁stresses	-13994
▁synchron	-13995
▁Guinea	-13996
▁lady	-13997
▁Chris	-13998
▁Shel	-13999
ymn	-14000
▁Photos	-14001
▁traced	-14002
▁vein	-14003
▁exercising	-14004
▁gauge	-14005
limited	-14006
▁kindergarten	-14007
▁backgrounds	-14008
▁relevance	-14009
ragon	-14010
▁Everything	-14011
▁fractures	-14012
▁reefs	-14013
▁Saud	-14014
▁Originally	-14015
▁numerical	-14016
▁relaxation	-14017
▁reductions	-14018
▁hotel	-14019
▁abandon	-14020
▁trim	-14021
▁petroleum	-14022
▁Birth	-14023
▁carn	-14024
▁dens	-14025
▁Adapt	-14026
▁incub	-14027
▁sweat	-14028
bus	-14029
▁Vien	-14030
▁Memory	-14031
versely	-14032
▁veterans	-14033
▁asleep	-14034
▁Sudan	-14035
▁Friends	-14036
▁leather	-14037
▁Ru	-14038
▁Mercury	-14039
SD	-14040
▁aligned	-14041
lem	-14042
▁validity	-14043
))	-14044
orical	-14045
▁lightning	-14046
▁dinosaurs	-14047
umph	-14048
riages	-14049
▁stays	-14050
▁confusing	-14051
▁Seattle	-14052
yst	-14053
▁Interestingly	-14054
▁abst	-14055
▁compatible	-14056
▁inexpensive	-14057
yg	-14058
esthesia	-14059
▁tie	-14060
▁wolf	-14061
due	-14062
lessness	-14063
▁intric	-14064
▁Clinic	-14065
▁simpler	-14066
PN	-14067
ensis	-14068
▁societal	-14069
▁unint	-14070
ressions	-14071
opard	-14072
▁signaling	-14073
▁Recon	-14074
▁storing	-14075
cost	-14076
▁kern	-14077
▁Plat	-14078
ringe	-14079
▁glyc	-14080
oubtedly	-14081
▁irritation	-14082
▁attorney	-14083
▁dealt	-14084
▁Sources	-14085
izable	-14086
▁hell	-14087
▁Batt	-14088
▁coping	-14089
▁Articles	-14090
disciplinary	-14091
▁preventive	-14092
▁Flore	-14093
▁termed	-14094
▁dop	-14095
prises	-14096
▁iod	-14097
▁terrestrial	-14098
enc	-14099
▁na	-14100
▁cosmic	-14101
urate	-14102
▁Stop	-14103
▁theor	-14104
▁parking	-14105
▁serum	-14106
▁subjective	-14107
▁humanitarian	-14108
▁approached	-14109
▁citation	-14110
▁ket	-14111
▁hierarchy	-14112
▁meg	-14113
▁Seven	-14114
▁Advis	-14115
▁lamp	-14116
▁justify	-14117
▁Influ	-14118
▁bloodstream	-14119
▁administrators	-14120
▁Catal	-14121
▁voted	-14122
speed	-14123
▁trucks	-14124
▁courtesy	-14125
▁NAT	-14126
▁marijuana	-14127
forming	-14128
▁Acts	-14129
▁exhibits	-14130
ESCO	-14131
▁introduces	-14132
▁transparency	-14133
▁Iceland	-14134
flower	-14135
mel	-14136
▁clues	-14137
▁congress	-14138
▁favorable	-14139
▁upcoming	-14140
▁conve	-14141
▁Whatever	-14142
▁keen	-14143
▁elastic	-14144
expl	-14145
▁commerce	-14146
▁Gender	-14147
aro	-14148
▁tutor	-14149
sim	-14150
▁Finland	-14151
▁declare	-14152
▁spectacular	-14153
▁pocket	-14154
▁hollow	-14155
isite	-14156
▁Forum	-14157
▁dorm	-14158
▁Cover	-14159
▁dirty	-14160
market	-14161
▁novels	-14162
▁testimony	-14163
▁baking	-14164
▁clicking	-14165
▁Universal	-14166
usually	-14167
▁brands	-14168
▁fungal	-14169
▁Tow	-14170
ophil	-14171
▁declaration	-14172
▁linking	-14173
▁enforce	-14174
▁Tut	-14175
dose	-14176
▁vend	-14177
▁Sierra	-14178
iw	-14179
▁HE	-14180
nutrition	-14181
▁asteroid	-14182
▁continental	-14183
▁comply	-14184
▁toy	-14185
▁selective	-14186
weg	-14187
▁laying	-14188
odia	-14189
▁matches	-14190
▁odor	-14191
holder	-14192
▁Antarctica	-14193
ificant	-14194
▁craw	-14195
▁fiscal	-14196
▁evolving	-14197
▁veterinarian	-14198
▁esoph	-14199
threatening	-14200
▁tales	-14201
ansk	-14202
▁Rat	-14203
▁Scripture	-14204
▁Argentina	-14205
▁EX	-14206
gree	-14207
▁trait	-14208
oria	-14209
▁escaped	-14210
▁None	-14211
▁comparative	-14212
▁Chron	-14213
▁herbal	-14214
▁cigarettes	-14215
bot	-14216
▁rewards	-14217
▁grocery	-14218
▁astronomy	-14219
unks	-14220
atern	-14221
▁hits	-14222
▁seventh	-14223
▁correction	-14224
edience	-14225
▁Nag	-14226
▁Aware	-14227
▁appearing	-14228
▁Fu	-14229
▁elephants	-14230
▁arose	-14231
▁recognizing	-14232
▁underneath	-14233
prof	-14234
▁Born	-14235
▁Member	-14236
TO	-14237
imeters	-14238
ounding	-14239
▁crimin	-14240
pa	-14241
elong	-14242
▁zo	-14243
ulus	-14244
WA	-14245
▁Alb	-14246
minute	-14247
▁Reports	-14248
aders	-14249
▁Dogs	-14250
▁Nevada	-14251
REE	-14252
▁Steve	-14253
▁navig	-14254
points	-14255
olics	-14256
▁Kid	-14257
▁Donald	-14258
ilepsy	-14259
acterial	-14260
upuncture	-14261
ixty	-14262
bola	-14263
▁________	-14264
▁destroying	-14265
▁Task	-14266
▁ethanol	-14267
▁reconstruction	-14268
▁HPV	-14269
▁sticks	-14270
▁administer	-14271
ivated	-14272
ousing	-14273
▁boom	-14274
▁penalty	-14275
▁sq	-14276
▁refuse	-14277
▁marry	-14278
▁shrubs	-14279
Int	-14280
▁servants	-14281
▁Side	-14282
▁BCE	-14283
▁sap	-14284
▁thrust	-14285
comput	-14286
▁Experts	-14287
▁iP	-14288
▁genre	-14289
▁Athens	-14290
▁crystall	-14291
▁deciding	-14292
▁Ecology	-14293
rades	-14294
▁guaranteed	-14295
▁talent	-14296
▁concert	-14297
▁Application	-14298
cap	-14299
▁Identify	-14300
▁concludes	-14301
ERE	-14302
sens	-14303
▁autonomy	-14304
eat	-14305
▁IoT	-14306
▁Communications	-14307
▁minorities	-14308
▁Galile	-14309
▁Row	-14310
▁geological	-14311
▁Hopkins	-14312
rings	-14313
▁Brun	-14314
ship	-14315
▁athe	-14316
▁picking	-14317
itol	-14318
▁precautions	-14319
▁deck	-14320
▁commercially	-14321
▁suggestion	-14322
▁occupational	-14323
ulator	-14324
▁retirement	-14325
▁Categ	-14326
▁ER	-14327
▁Judaism	-14328
▁demonstrating	-14329
ho	-14330
▁Nepal	-14331
strong	-14332
ijing	-14333
▁Americas	-14334
▁wolves	-14335
▁Important	-14336
ogical	-14337
ometry	-14338
▁upward	-14339
▁Want	-14340
▁runoff	-14341
▁invested	-14342
▁tide	-14343
▁shots	-14344
▁estrogen	-14345
roit	-14346
▁stating	-14347
▁Belgium	-14348
▁corrosion	-14349
▁demographic	-14350
pen	-14351
▁verses	-14352
▁Pent	-14353
▁anatomy	-14354
▁alpha	-14355
▁acou	-14356
▁plag	-14357
▁Hispanic	-14358
▁routinely	-14359
▁quit	-14360
▁NA	-14361
ardship	-14362
▁poster	-14363
▁centered	-14364
▁envelop	-14365
pill	-14366
headed	-14367
▁overseas	-14368
▁consequently	-14369
TE	-14370
▁nights	-14371
▁Provide	-14372
▁withstand	-14373
▁Harris	-14374
▁counted	-14375
itably	-14376
▁Titan	-14377
▁rendered	-14378
▁Susan	-14379
▁adolescent	-14380
ylogen	-14381
▁histories	-14382
▁Posted	-14383
▁volcano	-14384
▁Molecular	-14385
▁advise	-14386
▁morality	-14387
▁Ple	-14388
▁Malaysia	-14389
▁tended	-14390
▁Ul	-14391
▁curt	-14392
▁Pick	-14393
▁animation	-14394
▁feasible	-14395
▁PD	-14396
▁hurricane	-14397
▁stressful	-14398
ondition	-14399
system	-14400
▁cables	-14401
▁violation	-14402
urb	-14403
▁lips	-14404
opoly	-14405
▁Cognitive	-14406
wick	-14407
▁simplest	-14408
▁prize	-14409
▁Ultimately	-14410
▁Phill	-14411
ignant	-14412
will	-14413
▁Tower	-14414
▁Letters	-14415
▁Increased	-14416
▁gam	-14417
chem	-14418
▁romantic	-14419
▁packages	-14420
abited	-14421
▁cooperative	-14422
gencies	-14423
▁exempl	-14424
▁Illust	-14425
▁fox	-14426
mont	-14427
▁CEO	-14428
▁fibre	-14429
▁commanded	-14430
▁aquarium	-14431
▁eruption	-14432
ollen	-14433
▁Lith	-14434
▁incomplete	-14435
▁uncon	-14436
▁Sah	-14437
opa	-14438
▁governing	-14439
▁wellness	-14440
▁planetary	-14441
▁diabetic	-14442
▁shifted	-14443
▁broadly	-14444
ME	-14445
direct	-14446
▁fut	-14447
▁fastest	-14448
▁turbine	-14449
olithic	-14450
chell	-14451
▁salary	-14452
▁adequately	-14453
▁arrow	-14454
▁suppliers	-14455
heumat	-14456
sea	-14457
asi	-14458
▁Anthony	-14459
▁autoimmune	-14460
án	-14461
rer	-14462
▁ideology	-14463
dec	-14464
▁Arabia	-14465
mitt	-14466
▁Principles	-14467
▁umb	-14468
lightenment	-14469
▁delicious	-14470
▁Rio	-14471
phy	-14472
▁Avenue	-14473
▁accounted	-14474
▁je	-14475
▁Private	-14476
▁Josh	-14477
▁injust	-14478
LY	-14479
▁nests	-14480
generative	-14481
▁Bry	-14482
iller	-14483
▁Eight	-14484
▁reminder	-14485
▁tragic	-14486
▁nesting	-14487
icultural	-14488
▁flame	-14489
▁climates	-14490
▁coloring	-14491
▁mistaken	-14492
▁Disorders	-14493
▁amendment	-14494
raviolet	-14495
▁Egg	-14496
▁Role	-14497
▁hosted	-14498
astes	-14499
erers	-14500
▁coli	-14501
▁Issues	-14502
▁Portugal	-14503
▁neurop	-14504
▁Province	-14505
thirds	-14506
inence	-14507
▁Ug	-14508
omnia	-14509
idation	-14510
▁rebellion	-14511
tem	-14512
eted	-14513
▁visually	-14514
erred	-14515
viously	-14516
▁complaints	-14517
▁kills	-14518
▁overnight	-14519
▁lucky	-14520
▁paradigm	-14521
arted	-14522
▁IR	-14523
▁brushing	-14524
▁scholarship	-14525
▁compuls	-14526
▁territorial	-14527
▁nour	-14528
▁unfortunately	-14529
▁whereby	-14530
▁fertile	-14531
▁theology	-14532
▁encryption	-14533
▁Tun	-14534
▁Robinson	-14535
▁SH	-14536
utter	-14537
▁acceleration	-14538
▁→	-14539
▁Morgan	-14540
▁receiver	-14541
▁monuments	-14542
card	-14543
MR	-14544
▁Palace	-14545
▁balloon	-14546
▁venture	-14547
▁Database	-14548
▁Gallery	-14549
▁advocacy	-14550
▁climbing	-14551
▁newer	-14552
▁pleasant	-14553
open	-14554
size	-14555
▁Yale	-14556
▁boiling	-14557
▁Pier	-14558
▁adjustments	-14559
▁secretary	-14560
▁Institution	-14561
?)	-14562
je	-14563
▁uterus	-14564
▁surrender	-14565
▁accessibility	-14566
▁cannabis	-14567
General	-14568
▁aver	-14569
▁herd	-14570
▁credits	-14571
▁pesticide	-14572
▁deposit	-14573
▁displaced	-14574
▁Cav	-14575
▁plots	-14576
▁faithful	-14577
sky	-14578
▁attraction	-14579
obi	-14580
▁Observatory	-14581
▁badly	-14582
owing	-14583
ignment	-14584
ista	-14585
▁Vision	-14586
Christ	-14587
▁perme	-14588
▁debates	-14589
▁Crown	-14590
▁Wat	-14591
▁coronary	-14592
learning	-14593
▁Mason	-14594
▁Written	-14595
▁verbs	-14596
▁cleaner	-14597
▁mentally	-14598
▁injected	-14599
▁contest	-14600
▁Performance	-14601
urg	-14602
▁Surgery	-14603
▁firing	-14604
▁endless	-14605
▁Canal	-14606
▁ghost	-14607
▁Fourth	-14608
▁wanting	-14609
▁Russell	-14610
▁Birds	-14611
irts	-14612
[...]
