<unk>	0
<s>	0
</s>	0
<0x00>	0
<0x01>	0
<0x02>	0
<0x03>	0
<0x04>	0
<0x05>	0
<0x06>	0
<0x07>	0
<0x08>	0
<0x09>	0
<0x0A>	0
<0x0B>	0
<0x0C>	0
<0x0D>	0
<0x0E>	0
<0x0F>	0
<0x10>	0
<0x11>	0
<0x12>	0
<0x13>	0
<0x14>	0
<0x15>	0
<0x16>	0
<0x17>	0
<0x18>	0
<0x19>	0
<0x1A>	0
<0x1B>	0
<0x1C>	0
<0x1D>	0
<0x1E>	0
<0x1F>	0
<0x20>	0
<0x21>	0
<0x22>	0
<0x23>	0
<0x24>	0
<0x25>	0
<0x26>	0
<0x27>	0
<0x28>	0
<0x29>	0
<0x2A>	0
<0x2B>	0
<0x2C>	0
<0x2D>	0
<0x2E>	0
<0x2F>	0
<0x30>	0
<0x31>	0
<0x32>	0
<0x33>	0
<0x34>	0
<0x35>	0
<0x36>	0
<0x37>	0
<0x38>	0
<0x39>	0
<0x3A>	0
<0x3B>	0
<0x3C>	0
<0x3D>	0
<0x3E>	0
<0x3F>	0
<0x40>	0
<0x41>	0
<0x42>	0
<0x43>	0
<0x44>	0
<0x45>	0
<0x46>	0
<0x47>	0
<0x48>	0
<0x49>	0
<0x4A>	0
<0x4B>	0
<0x4C>	0
<0x4D>	0
<0x4E>	0
<0x4F>	0
<0x50>	0
<0x51>	0
<0x52>	0
<0x53>	0
<0x54>	0
<0x55>	0
<0x56>	0
<0x57>	0
<0x58>	0
<0x59>	0
<0x5A>	0
<0x5B>	0
<0x5C>	0
<0x5D>	0
<0x5E>	0
<0x5F>	0
<0x60>	0
<0x61>	0
<0x62>	0
<0x63>	0
<0x64>	0
<0x65>	0
<0x66>	0
<0x67>	0
<0x68>	0
<0x69>	0
<0x6A>	0
<0x6B>	0
<0x6C>	0
<0x6D>	0
<0x6E>	0
<0x6F>	0
<0x70>	0
<0x71>	0
<0x72>	0
<0x73>	0
<0x74>	0
<0x75>	0
<0x76>	0
<0x77>	0
<0x78>	0
<0x79>	0
<0x7A>	0
<0x7B>	0
<0x7C>	0
<0x7D>	0
<0x7E>	0
<0x7F>	0
<0x80>	0
<0x81>	0
<0x82>	0
<0x83>	0
<0x84>	0
<0x85>	0
<0x86>	0
<0x87>	0
<0x88>	0
<0x89>	0
<0x8A>	0
<0x8B>	0
<0x8C>	0
<0x8D>	0
<0x8E>	0
<0x8F>	0
<0x90>	0
<0x91>	0
<0x92>	0
<0x93>	0
<0x94>	0
<0x95>	0
<0x96>	0
<0x97>	0
<0x98>	0
<0x99>	0
<0x9A>	0
<0x9B>	0
<0x9C>	0
<0x9D>	0
<0x9E>	0
<0x9F>	0
<0xA0>	0
<0xA1>	0
<0xA2>	0
<0xA3>	0
<0xA4>	0
<0xA5>	0
<0xA6>	0
<0xA7>	0
<0xA8>	0
<0xA9>	0
<0xAA>	0
<0xAB>	0
<0xAC>	0
<0xAD>	0
<0xAE>	0
<0xAF>	0
<0xB0>	0
<0xB1>	0
<0xB2>	0
<0xB3>	0
<0xB4>	0
<0xB5>	0
<0xB6>	0
<0xB7>	0
<0xB8>	0
<0xB9>	0
<0xBA>	0
<0xBB>	0
<0xBC>	0
<0xBD>	0
<0xBE>	0
<0xBF>	0
<0xC0>	0
<0xC1>	0
<0xC2>	0
<0xC3>	0
<0xC4>	0
<0xC5>	0
<0xC6>	0
<0xC7>	0
<0xC8>	0
<0xC9>	0
<0xCA>	0
<0xCB>	0
<0xCC>	0
<0xCD>	0
<0xCE>	0
<0xCF>	0
<0xD0>	0
<0xD1>	0
<0xD2>	0
<0xD3>	0
<0xD4>	0
<0xD5>	0
<0xD6>	0
<0xD7>	0
<0xD8>	0
<0xD9>	0
<0xDA>	0
<0xDB>	0
<0xDC>	0
<0xDD>	0
<0xDE>	0
<0xDF>	0
<0xE0>	0
<0xE1>	0
<0xE2>	0
<0xE3>	0
<0xE4>	0
<0xE5>	0
<0xE6>	0
<0xE7>	0
<0xE8>	0
<0xE9>	0
<0xEA>	0
<0xEB>	0
<0xEC>	0
<0xED>	0
<0xEE>	0
<0xEF>	0
<0xF0>	0
<0xF1>	0
<0xF2>	0
<0xF3>	0
<0xF4>	0
<0xF5>	0
<0xF6>	0
<0xF7>	0
<0xF8>	0
<0xF9>	0
<0xFA>	0
<0xFB>	0
<0xFC>	0
<0xFD>	0
<0xFE>	0
<0xFF>	0
▁t	-0
▁a	-1
he	-2
in	-3
re	-4
▁the	-5
on	-6
er	-7
▁s	-8
at	-9
▁o	-10
en	-11
▁c	-12
es	-13
▁w	-14
is	-15
nd	-16
it	-17
or	-18
▁p	-19
al	-20
▁b	-21
an	-22
▁f	-23
ed	-24
▁of	-25
ing	-26
▁in	-27
ou	-28
ar	-29
▁m	-30
▁and	-31
▁to	-32
ic	-33
▁d	-34
ion	-35
le	-36
ro	-37
as	-38
▁h	-39
ent	-40
▁th	-41
ct	-42
il	-43
▁e	-44
▁T	-45
▁re	-46
om	-47
ve	-48
▁l	-49
st	-50
▁n	-51
ly	-52
▁be	-53
▁is	-54
▁A	-55
se	-56
ol	-57
▁g	-58
ation	-59
im	-60
id	-61
et	-62
▁S	-63
ut	-64
ce	-65
ur	-66
ot	-67
▁I	-68
ow	-69
ra	-70
ch	-71
▁for	-72
ig	-73
▁C	-74
▁u	-75
▁on	-76
▁y	-77
▁that	-78
▁st	-79
ver	-80
▁The	-81
ir	-82
ay	-83
ul	-84
am	-85
ith	-86
el	-87
▁as	-88
▁pro	-89
▁are	-90
ad	-91
▁you	-92
her	-93
▁con	-94
▁M	-95
▁an	-96
▁with	-97
if	-98
▁or	-99
▁P	-100
▁it	-101
▁wh	-102
▁al	-103
od	-104
ter	-105
▁B	-106
▁(	-107
ment	-108
ge	-109
▁W	-110
th	-111
op	-112
ate	-113
ers	-114
ist	-115
ill	-116
▁H	-117
ess	-118
▁de	-119
▁he	-120
ab	-121
ies	-122
▁ex	-123
▁su	-124
ect	-125
ore	-126
▁com	-127
▁we	-128
us	-129
ity	-130
▁D	-131
▁ha	-132
est	-133
ive	-134
res	-135
ac	-136
ke	-137
um	-138
▁E	-139
ld	-140
rom	-141
▁v	-142
▁F	-143
▁-	-144
os	-145
ant	-146
▁R	-147
qu	-148
em	-149
▁can	-150
▁by	-151
iv	-152
ain	-153
nt	-154
pp	-155
▁at	-156
igh	-157
ud	-158
▁ch	-159
▁from	-160
ort	-161
oc	-162
▁r	-163
▁ne	-164
▁N	-165
and	-166
▁was	-167
ial	-168
▁se	-169
▁L	-170
▁G	-171
ure	-172
un	-173
▁le	-174
art	-175
▁not	-176
▁have	-177
ical	-178
ri	-179
▁en	-180
▁sh	-181
og	-182
▁sp	-183
▁O	-184
▁this	-185
ight	-186
▁In	-187
▁ab	-188
▁wor	-189
pt	-190
all	-191
rou	-192
red	-193
our	-194
ost	-195
ome	-196
ions	-197
ther	-198
ould	-199
ich	-200
du	-201
gh	-202
▁im	-203
▁us	-204
ine	-205
per	-206
▁pl	-207
out	-208
ated	-209
ag	-210
▁your	-211
ard	-212
▁their	-213
ide	-214
act	-215
ff	-216
ell	-217
▁U	-218
▁Th	-219
▁J	-220
ear	-221
▁int	-222
pl	-223
age	-224
ast	-225
ak	-226
ans	-227
ust	-228
▁k	-229
▁whe	-230
▁they	-231
ood	-232
ec	-233
▁will	-234
iz	-235
ous	-236
▁which	-237
▁ad	-238
▁all	-239
▁inc	-240
▁cont	-241
ib	-242
ult	-243
end	-244
▁more	-245
cc	-246
▁dis	-247
ru	-248
▁“	-249
▁comp	-250
ap	-251
vel	-252
ong	-253
▁res	-254
ip	-255
▁has	-256
ew	-257
ations	-258
ia	-259
▁do	-260
orm	-261
so	-262
ere	-263
ater	-264
ild	-265
are	-266
ary	-267
able	-268
ks	-269
▁cl	-270
▁man	-271
▁other	-272
ence	-273
ual	-274
ry	-275
ep	-276
▁te	-277
▁but	-278
ind	-279
▁imp	-280
ents	-281
ach	-282
▁also	-283
ake	-284
ance	-285
▁per	-286
▁me	-287
reat	-288
▁one	-289
ign	-290
▁St	-291
ose	-292
▁were	-293
ress	-294
ase	-295
▁It	-296
ass	-297
av	-298
▁j	-299
au	-300
▁so	-301
▁out	-302
ice	-303
ition	-304
one	-305
ction	-306
ber	-307
▁This	-308
▁about	-309
ime	-310
very	-311
▁app	-312
▁"	-313
▁un	-314
ace	-315
▁stud	-316
▁part	-317
▁ar	-318
▁K	-319
ord	-320
ok	-321
ens	-322
ount	-323
▁pe	-324
ack	-325
ory	-326
▁ev	-327
▁inf	-328
ire	-329
▁sy	-330
ish	-331
▁who	-332
ame	-333
ors	-334
ike	-335
▁sc	-336
▁comm	-337
▁them	-338
ub	-339
ue	-340
ite	-341
ang	-342
ces	-343
now	-344
low	-345
ound	-346
▁pre	-347
).	-348
▁may	-349
ree	-350
▁Ch	-351
▁up	-352
olog	-353
ric	-354
▁bec	-355
ile	-356
▁qu	-357
▁than	-358
ays	-359
ople	-360
▁Y	-361
▁his	-362
ie	-363
iff	-364
▁some	-365
▁year	-366
▁V	-367
ail	-368
▁rec	-369
▁when	-370
ings	-371
nder	-372
ates	-373
▁there	-374
▁work	-375
mer	-376
ren	-377
▁go	-378
▁into	-379
▁its	-380
▁been	-381
▁tra	-382
▁time	-383
vers	-384
▁people	-385
ough	-386
▁how	-387
ian	-388
▁over	-389
▁ag	-390
rit	-391
▁ro	-392
alth	-393
erv	-394
ph	-395
lud	-396
▁use	-397
▁these	-398
ons	-399
▁diff	-400
▁our	-401
rough	-402
ally	-403
ause	-404
▁col	-405
te	-406
ll	-407
▁cons	-408
▁sa	-409
▁like	-410
ms	-411
ove	-412
ond	-413
▁ra	-414
ific	-415
▁tr	-416
tern	-417
▁act	-418
▁bl	-419
▁know	-420
ities	-421
▁bet	-422
▁most	-423
int	-424
ook	-425
▁need	-426
▁hel	-427
ning	-428
row	-429
ys	-430
ments	-431
we	-432
▁acc	-433
lic	-434
les	-435
▁under	-436
▁Wh	-437
irst	-438
lect	-439
ject	-440
velop	-441
▁new	-442
stem	-443
▁des	-444
ious	-445
▁help	-446
▁if	-447
ffect	-448
▁such	-449
▁had	-450
▁child	-451
▁would	-452
▁includ	-453
ient	-454
▁tw	-455
▁any	-456
▁rel	-457
▁rep	-458
ational	-459
ob	-460
cess	-461
ple	-462
▁what	-463
ating	-464
▁Un	-465
▁used	-466
ool	-467
▁produ	-468
ular	-469
yp	-470
▁gen	-471
▁prov	-472
▁ph	-473
ative	-474
hed	-475
ov	-476
▁pr	-477
▁fe	-478
ced	-479
▁off	-480
▁only	-481
▁many	-482
▁develop	-483
▁through	-484
▁As	-485
▁ind	-486
▁am	-487
round	-488
▁first	-489
▁no	-490
ise	-491
▁di	-492
ark	-493
▁spec	-494
▁–	-495
ics	-496
▁em	-497
oss	-498
uring	-499
ful	-500
ath	-501
▁ac	-502
ne	-503
fter	-504
uc	-505
▁system	-506
ink	-507
eth	-508
ts	-509
▁reg	-510
▁He	-511
▁exp	-512
▁po	-513
hen	-514
▁differe	-515
iss	-516
oth	-517
als	-518
ility	-519
▁two	-520
rib	-521
),	-522
▁add	-523
erm	-524
old	-525
rop	-526
ten	-527
ible	-528
▁dec	-529
ange	-530
▁should	-531
▁health	-532
▁sur	-533
ased	-534
▁water	-535
ures	-536
▁ob	-537
ower	-538
▁ass	-539
ble	-540
ife	-541
▁fl	-542
arch	-543
▁att	-544
▁well	-545
ract	-546
▁supp	-547
ram	-548
ert	-549
▁rem	-550
own	-551
fore	-552
ng	-553
▁inv	-554
▁years	-555
▁sm	-556
▁co	-557
aw	-558
▁If	-559
its	-560
ween	-561
▁get	-562
ick	-563
▁make	-564
gan	-565
cy	-566
▁high	-567
hes	-568
ade	-569
▁sub	-570
▁could	-571
▁where	-572
chn	-573
sel	-574
▁rese	-575
ution	-576
▁bu	-577
▁between	-578
▁We	-579
ied	-580
ily	-581
▁import	-582
xt	-583
ience	-584
chool	-585
ology	-586
ants	-587
▁pres	-588
▁trans	-589
ting	-590
▁pers	-591
wn	-592
uch	-593
ever	-594
form	-595
▁How	-596
ural	-597
▁lear	-598
▁Al	-599
ident	-600
▁ear	-601
▁Re	-602
▁inst	-603
meric	-604
▁An	-605
ines	-606
▁For	-607
iet	-608
▁form	-609
▁num	-610
▁her	-611
ited	-612
ata	-613
▁exam	-614
ins	-615
▁disc	-616
▁mod	-617
▁inter	-618
gy	-619
▁pol	-620
ness	-621
ont	-622
▁different	-623
ually	-624
▁exper	-625
▁car	-626
land	-627
ft	-628
ists	-629
▁med	-630
▁long	-631
▁effect	-632
▁found	-633
▁inform	-634
▁just	-635
▁world	-636
▁sim	-637
▁because	-638
▁typ	-639
ict	-640
aking	-641
▁way	-642
▁even	-643
▁ke	-644
▁ed	-645
▁after	-646
oy	-647
get	-648
▁incre	-649
▁very	-650
▁lar	-651
▁see	-652
ck	-653
▁Americ	-654
▁then	-655
vent	-656
▁Pro	-657
ivers	-658
▁det	-659
ature	-660
urn	-661
▁count	-662
▁said	-663
▁sign	-664
▁cent	-665
▁hum	-666
ives	-667
▁resp	-668
cept	-669
other	-670
▁var	-671
ically	-672
cer	-673
ef	-674
ism	-675
▁prog	-676
▁Com	-677
ollow	-678
▁every	-679
▁pat	-680
arm	-681
▁They	-682
▁children	-683
▁ref	-684
▁those	-685
iew	-686
▁gener	-687
▁process	-688
ases	-689
.”	-690
▁pub	-691
▁call	-692
▁techn	-693
iron	-694
ues	-695
▁ca	-696
ps	-697
▁each	-698
▁requ	-699
▁There	-700
▁ext	-701
▁important	-702
ds	-703
▁gra	-704
▁loc	-705
ody	-706
ork	-707
▁fact	-708
▁result	-709
ros	-710
▁sec	-711
▁being	-712
ages	-713
▁food	-714
▁cre	-715
led	-716
▁sk	-717
▁life	-718
▁commun	-719
▁soc	-720
▁students	-721
ruct	-722
▁information	-723
▁mon	-724
▁art	-725
▁partic	-726
▁set	-727
tle	-728
▁much	-729
▁You	-730
ices	-731
ved	-732
▁read	-733
..	-734
▁lead	-735
▁during	-736
▁fam	-737
imes	-738
▁she	-739
▁dep	-740
▁follow	-741
cent	-742
▁level	-743
▁ent	-744
ather	-745
▁dist	-746
▁|	-747
▁grow	-748
▁my	-749
▁own	-750
▁does	-751
▁data	-752
▁def	-753
▁proble	-754
ize	-755
▁find	-756
ward	-757
▁av	-758
ized	-759
▁right	-760
▁Ar	-761
vern	-762
ection	-763
▁But	-764
▁person	-765
▁good	-766
▁aut	-767
any	-768
▁study	-769
▁che	-770
gg	-771
▁back	-772
▁cur	-773
▁made	-774
▁min	-775
▁school	-776
▁ins	-777
io	-778
▁same	-779
viron	-780
▁What	-781
▁using	-782
▁Sp	-783
▁str	-784
||	-785
hip	-786
▁end	-787
stand	-788
▁Sc	-789
▁test	-790
ality	-791
▁treat	-792
▁expl	-793
read	-794
onom	-795
▁before	-796
ential	-797
▁small	-798
ted	-799
▁comple	-800
▁gl	-801
und	-802
ergy	-803
ale	-804
▁New	-805
▁bo	-806
▁sol	-807
▁both	-808
▁often	-809
▁show	-810
▁Ind	-811
▁main	-812
ock	-813
▁pop	-814
▁dise	-815
.,	-816
orn	-817
▁hist	-818
▁take	-819
▁prot	-820
▁grou	-821
ivid	-822
▁ris	-823
▁less	-824
iel	-825
▁day	-826
▁br	-827
ien	-828
inal	-829
▁val	-830
imate	-831
rol	-832
omen	-833
▁while	-834
ars	-835
akes	-836
ince	-837
ix	-838
ute	-839
nce	-840
▁And	-841
vironment	-842
▁research	-843
ax	-844
▁body	-845
▁serv	-846
▁again	-847
ty	-848
▁poss	-849
ined	-850
der	-851
▁provid	-852
▁When	-853
▁vis	-854
▁now	-855
ex	-856
▁around	-857
▁state	-858
▁design	-859
▁power	-860
▁redu	-861
iqu	-862
▁fun	-863
iversity	-864
dition	-865
▁These	-866
ished	-867
▁number	-868
com	-869
oh	-870
ier	-871
▁hand	-872
▁organ	-873
▁activ	-874
▁down	-875
ral	-876
▁occ	-877
▁lit	-878
▁ec	-879
▁support	-880
iety	-881
▁mem	-882
hers	-883
▁look	-884
iving	-885
irect	-886
▁start	-887
▁common	-888
up	-889
air	-890
ves	-891
▁class	-892
ger	-893
▁To	-894
day	-895
ital	-896
▁cell	-897
ulation	-898
,”	-899
▁cle	-900
▁elect	-901
ters	-902
ury	-903
▁must	-904
▁human	-905
▁bel	-906
▁plan	-907
▁care	-908
▁three	-909
▁char	-910
ah	-911
ium	-912
▁Is	-913
ven	-914
ered	-915
ving	-916
▁Se	-917
rain	-918
rent	-919
▁conf	-920
▁ser	-921
uss	-922
▁point	-923
ains	-924
ave	-925
aj	-926
▁allow	-927
▁report	-928
▁example	-929
gen	-930
▁including	-931
▁dr	-932
ross	-933
ional	-934
▁understand	-935
▁est	-936
ouse	-937
anc	-938
▁great	-939
▁build	-940
ull	-941
▁govern	-942
▁contin	-943
▁him	-944
cl	-945
▁adv	-946
▁land	-947
▁Res	-948
▁large	-949
▁cor	-950
▁op	-951
ash	-952
acter	-953
ron	-954
itions	-955
▁De	-956
The	-957
▁equ	-958
oms	-959
▁educ	-960
way	-961
▁did	-962
▁Ad	-963
ids	-964
aterial	-965
▁eas	-966
self	-967
▁pract	-968
▁som	-969
▁writ	-970
the	-971
▁‘	-972
▁met	-973
▁known	-974
reen	-975
▁gu	-976
▁called	-977
ared	-978
iver	-979
▁cour	-980
ially	-981
ets	-982
▁At	-983
▁still	-984
outh	-985
ividual	-986
els	-987
▁const	-988
▁though	-989
▁beh	-990
▁energy	-991
▁public	-992
ering	-993
▁ret	-994
ries	-995
▁think	-996
me	-997
ired	-998
▁Ex	-999
iven	-1000
ources	-1001
▁quest	-1002
▁learn	-1003
▁place	-1004
▁few	-1005
▁might	-1006
▁environment	-1007
itive	-1008
▁want	-1009
▁caus	-1010
ected	-1011
."	-1012
▁However	-1013
▁product	-1014
▁sym	-1015
oci	-1016
iod	-1017
eng	-1018
▁University	-1019
▁appro	-1020
▁impro	-1021
▁ide	-1022
erest	-1023
▁stand	-1024
de	-1025
line	-1026
▁change	-1027
▁tem	-1028
▁chang	-1029
▁Con	-1030
ption	-1031
▁don	-1032
▁mat	-1033
▁iss	-1034
ank	-1035
▁air	-1036
▁Eng	-1037
▁light	-1038
osed	-1039
▁project	-1040
▁pot	-1041
inc	-1042
agn	-1043
▁Ph	-1044
▁play	-1045
lish	-1046
▁material	-1047
ination	-1048
ording	-1049
▁ben	-1050
▁disease	-1051
ffic	-1052
bers	-1053
▁Sh	-1054
ization	-1055
▁prof	-1056
raph	-1057
▁individual	-1058
▁phys	-1059
oun	-1060
▁pur	-1061
▁without	-1062
▁ve	-1063
bs	-1064
▁bre	-1065
angu	-1066
alk	-1067
ense	-1068
iness	-1069
ration	-1070
esp	-1071
▁within	-1072
▁American	-1073
ason	-1074
▁development	-1075
▁include	-1076
▁present	-1077
illion	-1078
▁imm	-1079
▁eng	-1080
▁spe	-1081
▁home	-1082
ertain	-1083
arent	-1084
▁meth	-1085
▁risk	-1086
▁best	-1087
ior	-1088
▁dem	-1089
▁&	-1090
▁blood	-1091
▁cap	-1092
▁area	-1093
▁direct	-1094
ental	-1095
▁Be	-1096
▁ident	-1097
▁Cl	-1098
▁pain	-1099
ability	-1100
less	-1101
man	-1102
erc	-1103
▁sit	-1104
ner	-1105
ton	-1106
ived	-1107
▁sl	-1108
▁pos	-1109
▁pass	-1110
gin	-1111
▁another	-1112
▁mus	-1113
eral	-1114
▁Le	-1115
sp	-1116
ify	-1117
▁meas	-1118
▁women	-1119
atural	-1120
ats	-1121
▁On	-1122
▁better	-1123
▁keep	-1124
▁mark	-1125
ource	-1126
▁Q	-1127
▁So	-1128
▁belie	-1129
ills	-1130
▁program	-1131
orth	-1132
ield	-1133
▁social	-1134
▁become	-1135
arc	-1136
▁ant	-1137
▁interest	-1138
▁Pl	-1139
ug	-1140
ajor	-1141
▁bas	-1142
ware	-1143
ris	-1144
ining	-1145
▁proper	-1146
ccess	-1147
▁rest	-1148
▁law	-1149
▁control	-1150
▁—	-1151
ified	-1152
▁provide	-1153
▁opp	-1154
▁low	-1155
▁cause	-1156
▁anim	-1157
ians	-1158
rodu	-1159
▁saf	-1160
ways	-1161
▁old	-1162
▁Can	-1163
▁cult	-1164
▁sever	-1165
az	-1166
ik	-1167
ological	-1168
ently	-1169
▁here	-1170
rap	-1171
tt	-1172
ients	-1173
▁avail	-1174
▁anal	-1175
▁tre	-1176
icle	-1177
▁Col	-1178
▁move	-1179
atic	-1180
▁too	-1181
ider	-1182
ision	-1183
▁last	-1184
▁leg	-1185
▁early	-1186
▁[	-1187
▁oper	-1188
▁method	-1189
▁desc	-1190
▁learning	-1191
▁top	-1192
▁mil	-1193
hor	-1194
▁econom	-1195
lished	-1196
▁means	-1197
▁real	-1198
ern	-1199
ards	-1200
ained	-1201
here	-1202
▁benef	-1203
▁government	-1204
oid	-1205
▁dev	-1206
▁history	-1207
▁family	-1208
▁occur	-1209
ories	-1210
▁En	-1211
view	-1212
▁indu	-1213
▁percent	-1214
▁second	-1215
▁par	-1216
▁fore	-1217
▁perform	-1218
use	-1219
ission	-1220
▁war	-1221
▁possible	-1222
▁current	-1223
ention	-1224
▁against	-1225
▁ele	-1226
▁United	-1227
▁bus	-1228
▁invol	-1229
▁says	-1230
▁plant	-1231
str	-1232
▁group	-1233
amp	-1234
▁Comm	-1235
▁major	-1236
▁Te	-1237
▁say	-1238
▁cost	-1239
▁feel	-1240
▁fin	-1241
▁order	-1242
ote	-1243
▁happ	-1244
rist	-1245
▁able	-1246
▁langu	-1247
▁addition	-1248
▁infl	-1249
▁particular	-1250
ples	-1251
▁et	-1252
▁several	-1253
▁near	-1254
▁cal	-1255
▁All	-1256
▁affect	-1257
▁scient	-1258
▁mean	-1259
▁unt	-1260
▁One	-1261
▁Z	-1262
▁prevent	-1263
▁ter	-1264
ograph	-1265
irc	-1266
▁prom	-1267
▁hig	-1268
▁treatment	-1269
▁things	-1270
▁period	-1271
▁open	-1272
▁areas	-1273
▁ess	-1274
ator	-1275
▁available	-1276
par	-1277
ina	-1278
▁signific	-1279
▁orig	-1280
ogn	-1281
▁Some	-1282
▁access	-1283
ww	-1284
▁lim	-1285
▁others	-1286
ots	-1287
,"	-1288
▁following	-1289
ek	-1290
▁el	-1291
osp	-1292
▁species	-1293
ling	-1294
▁since	-1295
ends	-1296
cing	-1297
▁With	-1298
sy	-1299
idence	-1300
▁.	-1301
▁God	-1302
▁head	-1303
▁non	-1304
ocus	-1305
▁Or	-1306
ane	-1307
▁times	-1308
ole	-1309
▁del	-1310
▁mar	-1311
▁men	-1312
urop	-1313
ames	-1314
ended	-1315
ones	-1316
▁list	-1317
▁month	-1318
▁name	-1319
▁fac	-1320
▁come	-1321
▁country	-1322
▁based	-1323
une	-1324
ret	-1325
▁run	-1326
▁problem	-1327
▁National	-1328
▁creat	-1329
▁cond	-1330
port	-1331
▁States	-1332
▁lo	-1333
ilar	-1334
aper	-1335
▁conn	-1336
▁Cent	-1337
ances	-1338
▁free	-1339
▁among	-1340
ploy	-1341
▁type	-1342
▁problems	-1343
▁four	-1344
elf	-1345
▁age	-1346
▁press	-1347
to	-1348
▁fre	-1349
▁By	-1350
sc	-1351
▁post	-1352
▁natural	-1353
▁impact	-1354
▁hard	-1355
though	-1356
▁levels	-1357
▁certain	-1358
▁gr	-1359
▁put	-1360
oint	-1361
▁amount	-1362
▁case	-1363
▁making	-1364
abor	-1365
▁bir	-1366
eg	-1367
work	-1368
urther	-1369
ably	-1370
▁rece	-1371
▁object	-1372
▁local	-1373
ring	-1374
▁struct	-1375
be	-1376
ope	-1377
icult	-1378
▁cho	-1379
▁let	-1380
ox	-1381
▁flow	-1382
▁intern	-1383
ething	-1384
▁comput	-1385
▁vol	-1386
ised	-1387
▁Wor	-1388
▁success	-1389
▁Bl	-1390
ortun	-1391
▁little	-1392
oks	-1393
▁view	-1394
uture	-1395
br	-1396
▁heart	-1397
▁sw	-1398
▁bi	-1399
omm	-1400
urope	-1401
▁young	-1402
ication	-1403
ression	-1404
▁focus	-1405
▁mult	-1406
▁book	-1407
▁bro	-1408
▁significant	-1409
atory	-1410
▁US	-1411
▁cells	-1412
▁vir	-1413
▁Med	-1414
stit	-1415
▁due	-1416
▁potential	-1417
olution	-1418
▁far	-1419
▁Af	-1420
▁systems	-1421
▁associ	-1422
▁technology	-1423
▁turn	-1424
▁short	-1425
agement	-1426
ately	-1427
yd	-1428
▁until	-1429
▁days	-1430
▁create	-1431
ides	-1432
▁Fr	-1433
por	-1434
ptoms	-1435
▁Ear	-1436
ggest	-1437
ledge	-1438
▁likely	-1439
cle	-1440
▁education	-1441
▁fil	-1442
▁invest	-1443
▁function	-1444
▁cancer	-1445
▁something	-1446
over	-1447
▁Europe	-1448
▁rad	-1449
▁$	-1450
▁behav	-1451
▁usually	-1452
ead	-1453
▁Christ	-1454
▁given	-1455
resent	-1456
ending	-1457
ember	-1458
▁determ	-1459
▁comb	-1460
ured	-1461
▁needs	-1462
▁consum	-1463
▁increase	-1464
▁circ	-1465
ged	-1466
hem	-1467
▁later	-1468
▁along	-1469
▁effective	-1470
▁community	-1471
pect	-1472
ither	-1473
aps	-1474
face	-1475
▁That	-1476
▁always	-1477
▁enc	-1478
▁rele	-1479
▁temper	-1480
aken	-1481
▁today	-1482
▁language	-1483
▁Im	-1484
▁suggest	-1485
▁space	-1486
ape	-1487
aster	-1488
▁course	-1489
▁experience	-1490
pr	-1491
▁specific	-1492
▁profess	-1493
▁teac	-1494
▁ey	-1495
▁brain	-1496
▁parent	-1497
ecially	-1498
▁dra	-1499
not	-1500
▁difficult	-1501
▁give	-1502
▁million	-1503
▁dam	-1504
ours	-1505
ators	-1506
▁seem	-1507
▁'	-1508
af	-1509
▁appear	-1510
▁why	-1511
▁past	-1512
__	-1513
▁applic	-1514
▁While	-1515
▁future	-1516
▁words	-1517
▁conditions	-1518
▁try	-1519
▁results	-1520
▁death	-1521
ried	-1522
isc	-1523
▁various	-1524
▁require	-1525
▁clear	-1526
▁tool	-1527
▁improve	-1528
vious	-1529
obal	-1530
▁next	-1531
▁special	-1532
ohn	-1533
▁researc	-1534
▁Dr	-1535
▁sing	-1536
▁business	-1537
rug	-1538
asing	-1539
ned	-1540
▁record	-1541
especially	-1542
ym	-1543
atch	-1544
▁team	-1545
▁works	-1546
ilities	-1547
▁plants	-1548
aining	-1549
ique	-1550
▁polit	-1551
▁ill	-1552
▁author	-1553
etic	-1554
▁across	-1555
▁working	-1556
ode	-1557
oph	-1558
▁begin	-1559
ored	-1560
orts	-1561
▁similar	-1562
▁toget	-1563
▁discuss	-1564
▁together	-1565
of	-1566
▁cr	-1567
▁above	-1568
▁obs	-1569
put	-1570
▁ask	-1571
▁line	-1572
▁changes	-1573
mit	-1574
▁higher	-1575
app	-1576
idd	-1577
▁necess	-1578
▁mov	-1579
ler	-1580
oney	-1581
▁er	-1582
▁key	-1583
▁side	-1584
▁crit	-1585
▁ways	-1586
ruction	-1587
▁countries	-1588
ribut	-1589
min	-1590
▁Afric	-1591
▁respons	-1592
▁ens	-1593
▁least	-1594
▁enough	-1595
▁away	-1596
▁strong	-1597
ateg	-1598
▁symptoms	-1599
aves	-1600
▁exist	-1601
▁Ab	-1602
iation	-1603
ray	-1604
▁Health	-1605
▁complete	-1606
▁Gen	-1607
▁population	-1608
nal	-1609
▁chem	-1610
▁patients	-1611
sw	-1612
▁gre	-1613
▁Brit	-1614
amm	-1615
aces	-1616
▁describ	-1617
▁colle	-1618
▁character	-1619
▁Go	-1620
▁opt	-1621
▁especially	-1622
▁cy	-1623
▁century	-1624
omes	-1625
oot	-1626
▁kind	-1627
most	-1628
▁types	-1629
pos	-1630
▁step	-1631
▁protect	-1632
▁sens	-1633
▁net	-1634
▁Stud	-1635
iting	-1636
▁left	-1637
ires	-1638
▁mot	-1639
▁going	-1640
//	-1641
▁John	-1642
▁effects	-1643
thing	-1644
ush	-1645
acy	-1646
▁full	-1647
▁never	-1648
▁After	-1649
selves	-1650
aring	-1651
ilt	-1652
▁tru	-1653
aching	-1654
▁Ne	-1655
▁term	-1656
let	-1657
lement	-1658
▁World	-1659
▁cases	-1660
▁Resear	-1661
▁estab	-1662
▁Do	-1663
▁chall	-1664
▁sure	-1665
▁consider	-1666
▁physical	-1667
▁sal	-1668
▁however	-1669
itor	-1670
ables	-1671
duct	-1672
▁nut	-1673
▁Am	-1674
alf	-1675
▁big	-1676
ipp	-1677
▁having	-1678
▁dig	-1679
ysis	-1680
chie	-1681
side	-1682
▁makes	-1683
▁lower	-1684
▁War	-1685
▁Tr	-1686
▁role	-1687
ument	-1688
▁prim	-1689
▁norm	-1690
eds	-1691
://	-1692
ges	-1693
▁mind	-1694
▁lot	-1695
▁live	-1696
▁Intern	-1697
acc	-1698
atures	-1699
ley	-1700
▁whether	-1701
▁z	-1702
▁science	-1703
▁Car	-1704
ready	-1705
▁concer	-1706
ung	-1707
▁text	-1708
▁English	-1709
▁account	-1710
▁knowledge	-1711
▁sum	-1712
▁range	-1713
▁She	-1714
ott	-1715
▁general	-1716
aut	-1717
▁subject	-1718
▁activities	-1719
▁house	-1720
▁relations	-1721
▁self	-1722
▁fund	-1723
▁reduce	-1724
▁below	-1725
▁ground	-1726
▁studies	-1727
ery	-1728
...	-1729
bon	-1730
▁products	-1731
apt	-1732
▁Germ	-1733
▁Ge	-1734
ann	-1735
▁quality	-1736
▁further	-1737
lo	-1738
▁production	-1739
▁wr	-1740
▁really	-1741
ency	-1742
▁wind	-1743
▁Mar	-1744
▁growth	-1745
▁polic	-1746
▁resources	-1747
oman	-1748
oura	-1749
leep	-1750
verage	-1751
ites	-1752
▁skills	-1753
▁influ	-1754
icro	-1755
aim	-1756
▁reason	-1757
▁article	-1758
ification	-1759
▁pred	-1760
▁city	-1761
▁Cal	-1762
edi	-1763
ibility	-1764
▁loss	-1765
sych	-1766
▁employ	-1767
istic	-1768
▁paper	-1769
▁done	-1770
▁value	-1771
▁activity	-1772
▁story	-1773
▁oil	-1774
▁already	-1775
▁Pr	-1776
cul	-1777
▁eff	-1778
▁indust	-1779
▁became	-1780
osis	-1781
▁Cont	-1782
▁researchers	-1783
mber	-1784
▁question	-1785
ued	-1786
etimes	-1787
ream	-1788
▁fall	-1789
▁toward	-1790
▁medical	-1791
▁represent	-1792
ird	-1793
▁seen	-1794
fact	-1795
amin	-1796
for	-1797
ae	-1798
ee	-1799
iol	-1800
▁climate	-1801
by	-1802
▁word	-1803
▁issues	-1804
▁particip	-1805
▁close	-1806
▁Acc	-1807
▁May	-1808
urity	-1809
▁recomm	-1810
▁achie	-1811
▁phot	-1812
▁Ass	-1813
unt	-1814
rams	-1815
ands	-1816
ety	-1817
▁building	-1818
▁according	-1819
▁site	-1820
▁source	-1821
uation	-1822
overed	-1823
erence	-1824
ER	-1825
▁sun	-1826
▁groups	-1827
▁skin	-1828
▁offic	-1829
▁bat	-1830
▁indic	-1831
augh	-1832
▁drug	-1833
NA	-1834
▁ur	-1835
ips	-1836
▁field	-1837
▁recogn	-1838
▁Man	-1839
▁event	-1840
iple	-1841
▁soil	-1842
▁developed	-1843
▁flu	-1844
ask	-1845
▁model	-1846
esc	-1847
▁cut	-1848
▁red	-1849
▁stat	-1850
▁address	-1851
▁healthy	-1852
▁South	-1853
▁questions	-1854
▁Rep	-1855
▁pressure	-1856
rel	-1857
▁North	-1858
ournal	-1859
▁tradition	-1860
▁deg	-1861
▁either	-1862
▁mass	-1863
▁surface	-1864
▁doct	-1865
▁rather	-1866
▁once	-1867
▁Dep	-1868
▁rate	-1869
▁Many	-1870
fer	-1871
▁meet	-1872
▁five	-1873
ival	-1874
ights	-1875
▁America	-1876
▁single	-1877
org	-1878
▁prob	-1879
▁stress	-1880
▁neg	-1881
▁ann	-1882
eter	-1883
ivity	-1884
idered	-1885
urch	-1886
ublic	-1887
rect	-1888
rict	-1889
iam	-1890
▁abs	-1891
▁pay	-1892
▁white	-1893
▁week	-1894
▁htt	-1895
▁size	-1896
▁market	-1897
▁created	-1898
ison	-1899
▁Soc	-1900
▁init	-1901
▁Hist	-1902
▁tell	-1903
▁national	-1904
▁detail	-1905
fficient	-1906
▁opportun	-1907
▁sound	-1908
ibr	-1909
▁Sy	-1910
▁taken	-1911
▁fr	-1912
▁collect	-1913
▁diet	-1914
▁fri	-1915
▁No	-1916
roll	-1917
wh	-1918
▁simple	-1919
▁understanding	-1920
▁wide	-1921
▁materials	-1922
▁Act	-1923
▁concept	-1924
▁animals	-1925
▁engine	-1926
▁quick	-1927
▁maint	-1928
▁frequ	-1929
ications	-1930
▁hold	-1931
val	-1932
▁living	-1933
▁practice	-1934
▁dog	-1935
aging	-1936
▁members	-1937
▁whole	-1938
▁comes	-1939
▁=	-1940
ule	-1941
▁fail	-1942
▁considered	-1943
ening	-1944
▁actually	-1945
▁introdu	-1946
reme	-1947
▁repl	-1948
▁Pe	-1949
▁ver	-1950
▁lay	-1951
▁essential	-1952
ivil	-1953
▁Aust	-1954
▁avoid	-1955
AS	-1956
▁Fl	-1957
▁evidence	-1958
▁associated	-1959
▁tot	-1960
ober	-1961
▁needed	-1962
ensive	-1963
▁Gu	-1964
▁fat	-1965
ales	-1966
▁Earth	-1967
▁required	-1968
oon	-1969
▁ability	-1970
illed	-1971
▁sent	-1972
artment	-1973
):	-1974
▁student	-1975
▁adult	-1976
▁exerc	-1977
▁condition	-1978
▁fish	-1979
▁provides	-1980
ney	-1981
enn	-1982
▁global	-1983
▁increased	-1984
utions	-1985
▁experien	-1986
▁answ	-1987
▁published	-1988
▁cannot	-1989
▁return	-1990
ump	-1991
▁related	-1992
▁themselves	-1993
▁Co	-1994
▁Most	-1995
ging	-1996
▁nature	-1997
▁dom	-1998
▁services	-1999
▁black	-2000
▁dest	-2001
▁factors	-2002
▁doc	-2003
bo	-2004
▁observ	-2005
▁famil	-2006
like	-2007
▁came	-2008
▁complex	-2009
▁gas	-2010
▁states	-2011
▁York	-2012
▁management	-2013
acks	-2014
ai	-2015
▁money	-2016
▁entire	-2017
▁weight	-2018
▁Research	-2019
aced	-2020
▁parts	-2021
▁Here	-2022
▁green	-2023
erve	-2024
▁vers	-2025
▁cat	-2026
▁coll	-2027
▁More	-2028
▁relationship	-2029
reg	-2030
▁soft	-2031
lying	-2032
hing	-2033
▁Em	-2034
▁X	-2035
▁idea	-2036
▁histor	-2037
gest	-2038
sh	-2039
".	-2040
▁parents	-2041
▁State	-2042
▁thought	-2043
▁clean	-2044
▁months	-2045
uel	-2046
epend	-2047
▁online	-2048
yn	-2049
▁Su	-2050
▁computer	-2051
▁port	-2052
▁His	-2053
▁prop	-2054
itud	-2055
▁link	-2056
▁Fe	-2057
▁job	-2058
▁relig	-2059
go	-2060
aged	-2061
▁produce	-2062
▁Your	-2063
mon	-2064
vere	-2065
urs	-2066
▁necessary	-2067
▁almost	-2068
yl	-2069
▁react	-2070
▁economic	-2071
▁personal	-2072
▁chemical	-2073
olic	-2074
▁color	-2075
izing	-2076
eding	-2077
▁upon	-2078
▁modern	-2079
ened	-2080
▁popular	-2081
▁sleep	-2082
▁prote	-2083
▁approach	-2084
.)	-2085
ores	-2086
▁individuals	-2087
▁lab	-2088
▁political	-2089
ID	-2090
▁suff	-2091
based	-2092
sequ	-2093
▁reading	-2094
▁therap	-2095
▁measure	-2096
▁half	-2097
▁stop	-2098
hib	-2099
ply	-2100
▁arch	-2101
▁rights	-2102
▁assess	-2103
rad	-2104
▁writing	-2105
▁taking	-2106
▁win	-2107
utes	-2108
▁ever	-2109
▁benefits	-2110
▁emer	-2111
ections	-2112
rown	-2113
chan	-2114
▁bar	-2115
▁itself	-2116
▁content	-2117
▁super	-2118
▁Pre	-2119
▁priv	-2120
emic	-2121
▁cop	-2122
ences	-2123
▁farm	-2124
▁fire	-2125
▁industry	-2126
▁throughout	-2127
▁path	-2128
▁School	-2129
itary	-2130
ma	-2131
▁tar	-2132
▁check	-2133
anced	-2134
oll	-2135
▁company	-2136
iction	-2137
▁pattern	-2138
usion	-2139
▁hours	-2140
▁inj	-2141
▁training	-2142
▁talk	-2143
▁conduct	-2144
icles	-2145
▁App	-2146
▁Canad	-2147
ese	-2148
▁shows	-2149
▁safe	-2150
ES	-2151
▁hab	-2152
▁Int	-2153
pro	-2154
uck	-2155
erous	-2156
yle	-2157
▁diagn	-2158
▁heat	-2159
▁ge	-2160
onse	-2161
▁Although	-2162
▁arr	-2163
▁began	-2164
▁break	-2165
▁contact	-2166
▁analysis	-2167
▁arg	-2168
▁temperature	-2169
▁mor	-2170
▁Me	-2171
▁took	-2172
▁Per	-2173
▁According	-2174
ume	-2175
▁longer	-2176
irm	-2177
ches	-2178
iddle	-2179
son	-2180
▁easy	-2181
▁causes	-2182
▁Instit	-2183
▁regular	-2184
▁service	-2185
▁action	-2186
▁helps	-2187
▁increasing	-2188
ising	-2189
▁Qu	-2190
▁Other	-2191
▁recent	-2192
aily	-2193
reng	-2194
▁yet	-2195
▁ut	-2196
▁bur	-2197
▁region	-2198
ze	-2199
▁lives	-2200
▁contain	-2201
▁caused	-2202
▁built	-2203
▁travel	-2204
itation	-2205
▁environmental	-2206
nces	-2207
▁vide	-2208
AT	-2209
▁deb	-2210
▁mach	-2211
▁interact	-2212
▁spread	-2213
▁disord	-2214
hold	-2215
apan	-2216
astic	-2217
▁rul	-2218
▁la	-2219
▁anc	-2220
▁separ	-2221
pid	-2222
▁fru	-2223
▁sense	-2224
▁British	-2225
▁CO	-2226
▁ce	-2227
▁designed	-2228
▁sam	-2229
▁Us	-2230
ows	-2231
▁liter	-2232
ronic	-2233
ns	-2234
▁eat	-2235
▁claim	-2236
▁ensure	-2237
▁Sec	-2238
igure	-2239
▁From	-2240
▁princ	-2241
fully	-2242
▁includes	-2243
lt	-2244
▁surv	-2245
▁schools	-2246
▁six	-2247
▁lif	-2248
▁Science	-2249
▁behavior	-2250
▁regard	-2251
▁wild	-2252
▁thing	-2253
▁Par	-2254
▁previous	-2255
ufact	-2256
▁structure	-2257
▁heav	-2258
abet	-2259
ropri	-2260
ript	-2261
▁meaning	-2262
gar	-2263
▁bring	-2264
▁sat	-2265
AR	-2266
▁total	-2267
▁positive	-2268
▁matter	-2269
my	-2270
het	-2271
▁scientists	-2272
▁foods	-2273
▁etc	-2274
▁terms	-2275
▁variety	-2276
ricult	-2277
▁Jew	-2278
lex	-2279
estern	-2280
empt	-2281
aff	-2282
▁society	-2283
▁Cons	-2284
▁Of	-2285
minist	-2286
▁bacter	-2287
▁poll	-2288
▁Not	-2289
▁damage	-2290
istance	-2291
▁--	-2292
ederal	-2293
▁carbon	-2294
iment	-2295
asc	-2296
▁Pres	-2297
▁Will	-2298
▁Rec	-2299
aving	-2300
▁provided	-2301
ulations	-2302
inary	-2303
▁position	-2304
▁India	-2305
▁programs	-2306
▁average	-2307
▁sex	-2308
duc	-2309
vey	-2310
istics	-2311
▁ste	-2312
ively	-2313
▁II	-2314
▁encoura	-2315
▁Ed	-2316
▁slow	-2317
ster	-2318
▁Japan	-2319
▁deep	-2320
hood	-2321
icine	-2322
▁webs	-2323
▁prec	-2324
▁compan	-2325
▁shown	-2326
▁rev	-2327
▁•	-2328
▁compl	-2329
▁true	-2330
▁conc	-2331
lands	-2332
▁methods	-2333
ched	-2334
▁uses	-2335
▁doing	-2336
▁challeng	-2337
▁issue	-2338
▁face	-2339
▁electric	-2340
▁standard	-2341
▁identify	-2342
▁love	-2343
▁believe	-2344
▁sometimes	-2345
rior	-2346
▁bal	-2347
oor	-2348
▁Ke	-2349
▁music	-2350
▁simply	-2351
▁page	-2352
ister	-2353
▁Min	-2354
▁Comp	-2355
▁streng	-2356
imately	-2357
▁earth	-2358
▁Austral	-2359
aling	-2360
▁Part	-2361
▁threat	-2362
▁sources	-2363
atives	-2364
▁target	-2365
▁remov	-2366
▁subst	-2367
▁review	-2368
verse	-2369
▁accept	-2370
ades	-2371
ene	-2372
aries	-2373
amed	-2374
▁emot	-2375
▁original	-2376
▁sust	-2377
▁safety	-2378
▁exc	-2379
▁vari	-2380
new	-2381
▁Gl	-2382
rought	-2383
▁King	-2384
light	-2385
▁normal	-2386
▁compon	-2387
▁visit	-2388
▁events	-2389
▁image	-2390
room	-2391
▁cust	-2392
▁involved	-2393
▁kids	-2394
mb	-2395
▁Ag	-2396
▁Har	-2397
▁viol	-2398
▁outside	-2399
lease	-2400
elling	-2401
▁response	-2402
▁developing	-2403
▁harm	-2404
▁pict	-2405
▁greater	-2406
▁doesn	-2407
ials	-2408
aches	-2409
issions	-2410
▁Now	-2411
▁virus	-2412
▁led	-2413
▁tax	-2414
▁written	-2415
▁movement	-2416
▁origin	-2417
rast	-2418
▁growing	-2419
ners	-2420
▁fem	-2421
▁share	-2422
▁compet	-2423
ises	-2424
ength	-2425
eration	-2426
▁Child	-2427
oles	-2428
▁feet	-2429
dom	-2430
arily	-2431
▁getting	-2432
rand	-2433
ervation	-2434
▁integ	-2435
▁particularly	-2436
▁mechan	-2437
uge	-2438
umb	-2439
▁network	-2440
▁serious	-2441
▁Count	-2442
▁Jan	-2443
▁tend	-2444
▁Our	-2445
▁attention	-2446
▁basic	-2447
▁psych	-2448
▁relative	-2449
▁manufact	-2450
pose	-2451
rie	-2452
▁camp	-2453
▁culture	-2454
▁Ac	-2455
▁implement	-2456
▁reported	-2457
▁Educ	-2458
▁continue	-2459
ming	-2460
ban	-2461
idge	-2462
know	-2463
▁aware	-2464
▁Bo	-2465
▁extreme	-2466
▁China	-2467
▁patient	-2468
▁First	-2469
▁poor	-2470
▁squ	-2471
▁correct	-2472
▁refer	-2473
ctions	-2474
▁Bec	-2475
▁Sm	-2476
▁displ	-2477
▁numbers	-2478
▁someone	-2479
ems	-2480
▁Center	-2481
▁log	-2482
ads	-2483
▁veget	-2484
▁Art	-2485
▁wood	-2486
▁forms	-2487
▁forest	-2488
▁emb	-2489
▁takes	-2490
isions	-2491
▁micro	-2492
▁ox	-2493
▁My	-2494
raft	-2495
▁looking	-2496
IS	-2497
rench	-2498
fect	-2499
▁teachers	-2500
▁generally	-2501
hel	-2502
▁lack	-2503
▁demon	-2504
▁financ	-2505
▁produced	-2506
▁animal	-2507
▁allows	-2508
Th	-2509
ucle	-2510
▁mess	-2511
▁easily	-2512
▁draw	-2513
bor	-2514
▁print	-2515
IN	-2516
▁daily	-2517
▁bab	-2518
▁night	-2519
▁tools	-2520
▁select	-2521
▁During	-2522
ief	-2523
rated	-2524
▁appl	-2525
▁hyd	-2526
set	-2527
▁late	-2528
▁Ju	-2529
▁magn	-2530
▁mental	-2531
▁respect	-2532
▁offer	-2533
▁ir	-2534
We	-2535
▁attack	-2536
▁,	-2537
▁eye	-2538
▁El	-2539
ana	-2540
▁ago	-2541
▁Lear	-2542
cil	-2543
▁series	-2544
imin	-2545
iency	-2546
▁coun	-2547
ops	-2548
▁diseases	-2549
ached	-2550
imum	-2551
▁warm	-2552
▁Tw	-2553
▁defin	-2554
▁vit	-2555
▁media	-2556
▁Aug	-2557
▁lat	-2558
▁ideas	-2559
erg	-2560
cies	-2561
▁force	-2562
▁Reg	-2563
▁probably	-2564
▁aff	-2565
▁vacc	-2566
▁unique	-2567
▁Tra	-2568
▁Calif	-2569
ground	-2570
▁performance	-2571
▁consist	-2572
inks	-2573
overy	-2574
▁prep	-2575
▁inside	-2576
▁added	-2577
▁dang	-2578
▁started	-2579
ography	-2580
▁/	-2581
▁included	-2582
▁cover	-2583
▁i	-2584
▁tree	-2585
▁ap	-2586
www	-2587
uary	-2588
▁quickly	-2589
▁appropri	-2590
ino	-2591
▁solar	-2592
▁gard	-2593
▁traditional	-2594
asons	-2595
▁independ	-2596
▁attempt	-2597
▁tur	-2598
▁commit	-2599
ington	-2600
ties	-2601
ension	-2602
iot	-2603
▁Read	-2604
▁feed	-2605
rs	-2606
▁determine	-2607
▁Department	-2608
▁instead	-2609
▁sea	-2610
vention	-2611
ancy	-2612
abetes	-2613
▁wall	-2614
▁companies	-2615
--	-2616
▁trees	-2617
▁dou	-2618
▁Institute	-2619
▁international	-2620
▁achieve	-2621
▁policy	-2622
▁communities	-2623
▁dry	-2624
erson	-2625
uth	-2626
▁books	-2627
▁http	-2628
▁Even	-2629
▁primary	-2630
ying	-2631
▁humans	-2632
ided	-2633
▁difference	-2634
▁quite	-2635
▁mother	-2636
ha	-2637
ribution	-2638
▁security	-2639
▁hy	-2640
▁tiss	-2641
▁Californ	-2642
▁rout	-2643
▁answer	-2644
▁points	-2645
▁progress	-2646
▁History	-2647
nov	-2648
osure	-2649
▁cit	-2650
gency	-2651
▁infection	-2652
▁Why	-2653
▁Since	-2654
▁doctor	-2655
▁multiple	-2656
joy	-2657
anks	-2658
osing	-2659
ellow	-2660
irit	-2661
▁exercise	-2662
▁capt	-2663
useum	-2664
▁leaders	-2665
▁express	-2666
oly	-2667
▁ful	-2668
▁thous	-2669
bre	-2670
ror	-2671
▁drink	-2672
▁nation	-2673
▁scientific	-2674
▁March	-2675
▁Inc	-2676
iques	-2677
▁stay	-2678
▁altern	-2679
▁sil	-2680
▁cross	-2681
▁Apr	-2682
▁earl	-2683
▁European	-2684
▁Indian	-2685
▁Oct	-2686
▁larger	-2687
ender	-2688
▁estim	-2689
▁town	-2690
term	-2691
where	-2692
itude	-2693
cell	-2694
ounds	-2695
▁additional	-2696
ls	-2697
▁severe	-2698
▁California	-2699
▁sold	-2700
▁Her	-2701
▁bit	-2702
ony	-2703
▁fa	-2704
AN	-2705
▁immedi	-2706
▁International	-2707
rate	-2708
▁concent	-2709
▁document	-2710
eks	-2711
▁foot	-2712
ift	-2713
▁hot	-2714
haps	-2715
▁behind	-2716
ille	-2717
▁reflect	-2718
▁Ret	-2719
cial	-2720
▁directly	-2721
▁critical	-2722
▁Ant	-2723
▁walk	-2724
▁investig	-2725
ims	-2726
▁Char	-2727
▁fav	-2728
▁Jes	-2729
▁decre	-2730
▁video	-2731
▁custom	-2732
itis	-2733
▁proced	-2734
▁bad	-2735
▁eval	-2736
▁birth	-2737
▁extra	-2738
▁acid	-2739
icated	-2740
▁Mon	-2741
▁eth	-2742
oes	-2743
▁har	-2744
▁Sch	-2745
▁speak	-2746
▁instit	-2747
▁leading	-2748
rition	-2749
▁third	-2750
cean	-2751
▁software	-2752
▁accur	-2753
▁therefore	-2754
▁families	-2755
▁active	-2756
▁supply	-2757
▁highly	-2758
ON	-2759
▁card	-2760
na	-2761
▁Sept	-2762
▁front	-2763
▁compared	-2764
▁held	-2765
▁aspect	-2766
oring	-2767
▁tri	-2768
▁aud	-2769
OR	-2770
▁civil	-2771
elt	-2772
▁Br	-2773
▁sou	-2774
▁West	-2775
▁pack	-2776
▁prior	-2777
▁*	-2778
fl	-2779
ulate	-2780
▁analy	-2781
▁reve	-2782
▁Africa	-2783
▁useful	-2784
▁theory	-2785
▁June	-2786
uries	-2787
▁transport	-2788
iers	-2789
att	-2790
▁div	-2791
▁established	-2792
▁French	-2793
fort	-2794
▁sustain	-2795
▁clin	-2796
▁negative	-2797
▁soon	-2798
ils	-2799
ius	-2800
▁search	-2801
▁minutes	-2802
▁write	-2803
▁Cor	-2804
▁news	-2805
▁expect	-2806
▁hor	-2807
omet	-2808
vant	-2809
ching	-2810
▁stra	-2811
undred	-2812
▁financial	-2813
eed	-2814
▁Bar	-2815
▁Serv	-2816
▁Sw	-2817
olar	-2818
▁website	-2819
▁military	-2820
▁features	-2821
▁devices	-2822
▁ones	-2823
▁teaching	-2824
▁broad	-2825
▁hands	-2826
▁towards	-2827
▁waste	-2828
▁Let	-2829
▁thus	-2830
aly	-2831
formation	-2832
bol	-2833
▁requires	-2834
▁enjoy	-2835
yond	-2836
▁block	-2837
▁contribut	-2838
▁Because	-2839
▁contains	-2840
▁Mus	-2841
▁Also	-2842
▁Dav	-2843
▁April	-2844
den	-2845
ipment	-2846
▁section	-2847
▁demonstr	-2848
oming	-2849
gn	-2850
▁strateg	-2851
thern	-2852
▁Use	-2853
▁sn	-2854
▁habit	-2855
▁values	-2856
▁Press	-2857
▁veh	-2858
rogen	-2859
▁host	-2860
coh	-2861
▁protein	-2862
▁situation	-2863
▁costs	-2864
▁Day	-2865
pe	-2866
▁central	-2867
▁fast	-2868
▁beginning	-2869
▁Are	-2870
▁purpose	-2871
iber	-2872
hens	-2873
▁labor	-2874
▁Over	-2875
▁application	-2876
IC	-2877
▁base	-2878
▁Russ	-2879
▁August	-2880
▁fight	-2881
yr	-2882
▁dark	-2883
▁Sim	-2884
uman	-2885
▁Wash	-2886
izations	-2887
▁Then	-2888
▁mount	-2889
ologies	-2890
▁African	-2891
▁fram	-2892
iter	-2893
mar	-2894
▁workers	-2895
▁exact	-2896
▁weeks	-2897
▁game	-2898
▁although	-2899
▁typically	-2900
▁thinking	-2901
▁Techn	-2902
istry	-2903
▁leaves	-2904
▁protection	-2905
▁install	-2906
▁bacteria	-2907
▁elements	-2908
▁adults	-2909
▁projects	-2910
▁July	-2911
▁limited	-2912
▁went	-2913
▁mom	-2914
▁Associ	-2915
▁impl	-2916
▁cred	-2917
▁quant	-2918
hern	-2919
▁images	-2920
▁solution	-2921
vest	-2922
cks	-2923
▁got	-2924
▁German	-2925
▁applications	-2926
oke	-2927
▁table	-2928
▁Prog	-2929
▁breat	-2930
ibrary	-2931
▁lost	-2932
imal	-2933
▁mill	-2934
▁techniques	-2935
▁wa	-2936
arr	-2937
▁Mc	-2938
▁Dis	-2939
▁shall	-2940
▁cool	-2941
▁People	-2942
▁tests	-2943
”.	-2944
▁teeth	-2945
▁largest	-2946
▁ang	-2947
pper	-2948
▁Ec	-2949
▁goal	-2950
▁ancient	-2951
ields	-2952
▁speed	-2953
▁Jesus	-2954
▁creating	-2955
▁stri	-2956
isms	-2957
▁decl	-2958
▁cru	-2959
uk	-2960
▁x	-2961
▁eating	-2962
ription	-2963
▁seems	-2964
▁else	-2965
IV	-2966
▁Trans	-2967
▁River	-2968
▁testing	-2969
lection	-2970
▁decision	-2971
▁reach	-2972
▁rates	-2973
▁obt	-2974
idents	-2975
▁appropriate	-2976
▁communication	-2977
▁length	-2978
▁Fin	-2979
▁carry	-2980
life	-2981
▁located	-2982
▁:	-2983
hest	-2984
▁sugar	-2985
▁season	-2986
▁egg	-2987
▁yourself	-2988
▁fit	-2989
oud	-2990
▁places	-2991
▁Red	-2992
▁Education	-2993
▁becomes	-2994
In	-2995
▁capac	-2996
▁nearly	-2997
▁importance	-2998
EN	-2999
▁High	-3000
▁private	-3001
▁unc	-3002
It	-3003
▁Inst	-3004
▁Americans	-3005
▁summer	-3006
▁web	-3007
▁lines	-3008
▁Just	-3009
sect	-3010
▁demand	-3011
wise	-3012
▁hundred	-3013
▁Canada	-3014
▁rare	-3015
resh	-3016
▁adj	-3017
mission	-3018
▁memory	-3019
▁agricult	-3020
▁Journal	-3021
▁whose	-3022
inct	-3023
▁monitor	-3024
▁eyes	-3025
▁cold	-3026
▁Develop	-3027
▁processes	-3028
▁William	-3029
odies	-3030
▁ult	-3031
ED	-3032
▁President	-3033
▁nucle	-3034
▁Gree	-3035
equ	-3036
year	-3037
▁Another	-3038
▁beaut	-3039
ext	-3040
▁respond	-3041
▁crop	-3042
▁digital	-3043
▁stru	-3044
orthern	-3045
iece	-3046
PA	-3047
▁therapy	-3048
bit	-3049
▁code	-3050
izes	-3051
▁surround	-3052
▁Each	-3053
itect	-3054
▁friends	-3055
▁pan	-3056
▁fuel	-3057
▁mix	-3058
▁agree	-3059
▁administ	-3060
rote	-3061
▁except	-3062
▁Park	-3063
▁efforts	-3064
▁told	-3065
▁autom	-3066
▁Mod	-3067
atur	-3068
▁jo	-3069
▁adapt	-3070
▁Once	-3071
▁Sur	-3072
▁equipment	-3073
cles	-3074
iles	-3075
▁cele	-3076
▁remain	-3077
book	-3078
▁choose	-3079
▁remains	-3080
▁capital	-3081
come	-3082
▁enh	-3083
▁Govern	-3084
ipl	-3085
▁deal	-3086
▁IS	-3087
▁hope	-3088
▁device	-3089
cohol	-3090
head	-3091
ica	-3092
▁September	-3093
▁connect	-3094
▁providing	-3095
▁laws	-3096
▁adop	-3097
▁brought	-3098
▁professional	-3099
▁Water	-3100
▁gives	-3101
▁Prof	-3102
▁room	-3103
▁born	-3104
▁received	-3105
ding	-3106
back	-3107
▁overall	-3108
▁influence	-3109
▁property	-3110
▁Bi	-3111
▁cam	-3112
▁responsible	-3113
▁Cong	-3114
▁ice	-3115
▁guid	-3116
tery	-3117
▁Commun	-3118
▁seek	-3119
▁center	-3120
ford	-3121
▁advant	-3122
itable	-3123
ellig	-3124
▁interp	-3125
cember	-3126
▁practices	-3127
rag	-3128
estic	-3129
▁Phil	-3130
▁dead	-3131
▁anything	-3132
____	-3133
inese	-3134
▁miles	-3135
▁January	-3136
▁receive	-3137
▁bott	-3138
used	-3139
▁everything	-3140
▁weather	-3141
▁described	-3142
▁mention	-3143
▁Feb	-3144
ulated	-3145
▁rapid	-3146
ribute	-3147
▁north	-3148
uous	-3149
▁diabetes	-3150
▁screen	-3151
▁mole	-3152
▁sites	-3153
▁construction	-3154
▁teacher	-3155
▁transl	-3156
▁Great	-3157
load	-3158
▁bul	-3159
ondon	-3160
▁establish	-3161
▁Washington	-3162
▁October	-3163
illing	-3164
▁benefit	-3165
▁recommend	-3166
med	-3167
▁cra	-3168
▁City	-3169
▁cou	-3170
▁System	-3171
▁jud	-3172
▁Pat	-3173
▁reasons	-3174
oses	-3175
▁behavi	-3176
▁accom	-3177
arian	-3178
ovember	-3179
▁examples	-3180
▁older	-3181
▁cultural	-3182
▁everyone	-3183
▁ord	-3184
rael	-3185
▁England	-3186
uments	-3187
▁calcul	-3188
▁vict	-3189
▁opportunity	-3190
▁isn	-3191
▁gradu	-3192
▁died	-3193
oe	-3194
ama	-3195
▁stage	-3196
ceed	-3197
ype	-3198
▁final	-3199
▁exposure	-3200
IT	-3201
▁recently	-3202
▁users	-3203
mosp	-3204
▁affected	-3205
water	-3206
▁ep	-3207
▁basis	-3208
▁Tod	-3209
ula	-3210
▁rock	-3211
▁coast	-3212
▁Under	-3213
time	-3214
▁citiz	-3215
▁Don	-3216
▁rain	-3217
▁pregn	-3218
wor	-3219
▁objects	-3220
▁expected	-3221
▁hous	-3222
▁south	-3223
▁pet	-3224
ests	-3225
▁smaller	-3226
▁colon	-3227
uff	-3228
▁Pol	-3229
▁won	-3230
iar	-3231
▁occurs	-3232
▁insp	-3233
ham	-3234
▁trying	-3235
rim	-3236
eal	-3237
▁Arch	-3238
aught	-3239
▁anti	-3240
▁user	-3241
▁maintain	-3242
▁note	-3243
▁file	-3244
▁location	-3245
▁saw	-3246
bur	-3247
▁drugs	-3248
ospital	-3249
▁standards	-3250
▁und	-3251
osition	-3252
▁steps	-3253
▁birds	-3254
▁shape	-3255
▁Vir	-3256
▁beyond	-3257
▁pen	-3258
▁legal	-3259
▁currently	-3260
▁Cur	-3261
▁depend	-3262
▁strength	-3263
▁date	-3264
▁swe	-3265
▁federal	-3266
▁Christian	-3267
▁rob	-3268
▁father	-3269
exic	-3270
▁controll	-3271
▁religious	-3272
▁asked	-3273
▁County	-3274
rees	-3275
▁middle	-3276
▁imag	-3277
▁winter	-3278
▁Chinese	-3279
strial	-3280
aul	-3281
▁joint	-3282
icate	-3283
▁electr	-3284
▁measures	-3285
▁planet	-3286
▁track	-3287
edia	-3288
iable	-3289
ira	-3290
▁command	-3291
AC	-3292
▁commonly	-3293
▁economy	-3294
▁goes	-3295
▁billion	-3296
see	-3297
▁visual	-3298
▁nothing	-3299
▁Black	-3300
▁der	-3301
▁organization	-3302
▁rules	-3303
▁fear	-3304
▁December	-3305
▁purch	-3306
enge	-3307
▁trade	-3308
▁mid	-3309
▁Aut	-3310
vert	-3311
▁completely	-3312
iples	-3313
▁instru	-3314
wide	-3315
▁models	-3316
▁ball	-3317
▁Val	-3318
sec	-3319
▁Church	-3320
▁via	-3321
▁successful	-3322
apter	-3323
▁signs	-3324
▁immune	-3325
▁leave	-3326
rick	-3327
▁fruit	-3328
▁Israel	-3329
▁effort	-3330
ran	-3331
▁alone	-3332
aur	-3333
▁Che	-3334
▁ten	-3335
▁sett	-3336
▁cook	-3337
▁interesting	-3338
▁rise	-3339
airs	-3340
▁November	-3341
▁London	-3342
itch	-3343
▁collection	-3344
▁consequ	-3345
▁scale	-3346
rieved	-3347
▁constant	-3348
▁woman	-3349
▁perfect	-3350
▁nutri	-3351
▁Environment	-3352
isl	-3353
▁tox	-3354
▁conflic	-3355
aid	-3356
▁son	-3357
▁followed	-3358
▁Law	-3359
▁spirit	-3360
gery	-3361
▁beg	-3362
▁forces	-3363
anish	-3364
▁powerful	-3365
hy	-3366
▁See	-3367
▁discovered	-3368
▁Their	-3369
▁Mexic	-3370
▁Children	-3371
▁named	-3372
▁degree	-3373
ech	-3374
▁remember	-3375
▁wond	-3376
▁Public	-3377
▁hyp	-3378
▁challenges	-3379
ocks	-3380
▁predict	-3381
▁commerc	-3382
▁virt	-3383
▁member	-3384
▁wrote	-3385
▁emissions	-3386
▁rich	-3387
▁Rel	-3388
ought	-3389
▁tit	-3390
▁San	-3391
▁mouth	-3392
▁exec	-3393
rew	-3394
▁approx	-3395
▁mob	-3396
▁road	-3397
ords	-3398
amic	-3399
▁display	-3400
▁earlier	-3401
con	-3402
uit	-3403
▁baby	-3404
▁machine	-3405
▁max	-3406
▁Every	-3407
▁efficient	-3408
▁TH	-3409
lin	-3410
rig	-3411
▁offers	-3412
▁anx	-3413
ruary	-3414
▁Cour	-3415
▁coming	-3416
▁bra	-3417
▁enter	-3418
ari	-3419
▁General	-3420
ara	-3421
▁illness	-3422
▁teach	-3423
ste	-3424
unch	-3425
ensity	-3426
ector	-3427
▁hon	-3428
▁+	-3429
▁Spec	-3430
mitted	-3431
▁miss	-3432
▁version	-3433
oration	-3434
▁symbol	-3435
care	-3436
▁Prot	-3437
▁tou	-3438
▁sequ	-3439
▁Today	-3440
▁UK	-3441
▁East	-3442
▁placed	-3443
▁himself	-3444
co	-3445
omb	-3446
▁Conf	-3447
reet	-3448
▁mis	-3449
iest	-3450
▁Av	-3451
▁Australia	-3452
▁genetic	-3453
▁limit	-3454
aste	-3455
▁categ	-3456
▁allowed	-3457
▁corn	-3458
▁neigh	-3459
▁dat	-3460
▁reduced	-3461
bl	-3462
▁garden	-3463
ibly	-3464
▁gold	-3465
▁acad	-3466
▁increases	-3467
▁options	-3468
▁Coun	-3469
▁ing	-3470
▁didn	-3471
que	-3472
ocol	-3473
▁king	-3474
craft	-3475
▁patterns	-3476
▁poly	-3477
▁fair	-3478
▁choice	-3479
▁destro	-3480
▁Rem	-3481
ogen	-3482
▁DNA	-3483
▁House	-3484
▁Society	-3485
hemat	-3486
▁assist	-3487
▁Ro	-3488
▁opportunities	-3489
alt	-3490
▁properties	-3491
▁Green	-3492
ogle	-3493
▁fresh	-3494
aters	-3495
▁promot	-3496
AL	-3497
▁atmosp	-3498
▁hair	-3499
▁cry	-3500
▁Inter	-3501
▁incor	-3502
▁effic	-3503
abilities	-3504
irection	-3505
aint	-3506
enty	-3507
iring	-3508
▁Students	-3509
▁stories	-3510
▁applied	-3511
▁differences	-3512
ocr	-3513
▁pow	-3514
▁gir	-3515
▁explore	-3516
▁alcohol	-3517
▁innov	-3518
▁situ	-3519
▁ast	-3520
▁tissue	-3521
▁root	-3522
▁historical	-3523
ees	-3524
▁components	-3525
▁piece	-3526
▁rule	-3527
▁moving	-3528
▁guide	-3529
▁worth	-3530
▁Des	-3531
▁#	-3532
can	-3533
▁price	-3534
▁eight	-3535
▁capacity	-3536
edom	-3537
▁box	-3538
▁balance	-3539
▁context	-3540
▁former	-3541
▁cities	-3542
▁collabor	-3543
odes	-3544
▁identified	-3545
men	-3546
▁assign	-3547
ament	-3548
▁staff	-3549
▁asse	-3550
rehens	-3551
osy	-3552
▁majority	-3553
encies	-3554
▁continued	-3555
▁actions	-3556
▁antib	-3557
▁Food	-3558
off	-3559
▁convers	-3560
▁strugg	-3561
▁formed	-3562
▁changed	-3563
▁fully	-3564
▁Work	-3565
▁mig	-3566
▁factor	-3567
▁constit	-3568
▁Association	-3569
▁occup	-3570
▁unit	-3571
iences	-3572
aled	-3573
▁acqu	-3574
▁educational	-3575
rome	-3576
▁names	-3577
▁milk	-3578
iate	-3579
▁blue	-3580
iful	-3581
house	-3582
▁forward	-3583
▁star	-3584
▁architect	-3585
orge	-3586
▁consumption	-3587
▁moment	-3588
▁status	-3589
era	-3590
▁breast	-3591
▁functions	-3592
known	-3593
rab	-3594
▁pp	-3595
ev	-3596
▁Dec	-3597
▁February	-3598
▁phil	-3599
▁Retrieved	-3600
▁running	-3601
related	-3602
▁giving	-3603
▁essay	-3604
▁den	-3605
orage	-3606
iny	-3607
▁huge	-3608
hab	-3609
ingu	-3610
▁stim	-3611
phas	-3612
ygen	-3613
▁absor	-3614
▁picture	-3615
▁existing	-3616
▁thousands	-3617
ss	-3618
▁sch	-3619
▁expand	-3620
lor	-3621
EC	-3622
▁reports	-3623
▁task	-3624
▁belief	-3625
▁court	-3626
▁Union	-3627
▁presence	-3628
▁Vol	-3629
▁emp	-3630
ero	-3631
▁chance	-3632
▁muscle	-3633
▁planning	-3634
ux	-3635
▁Lat	-3636
▁Roman	-3637
▁worked	-3638
▁watch	-3639
▁Ob	-3640
▁contract	-3641
▁relatively	-3642
▁church	-3643
▁map	-3644
▁strategies	-3645
▁female	-3646
force	-3647
▁illust	-3648
▁UN	-3649
▁Bu	-3650
▁Colle	-3651
▁findings	-3652
▁rat	-3653
▁plastic	-3654
emy	-3655
▁susp	-3656
▁distance	-3657
▁easier	-3658
▁details	-3659
▁Plan	-3660
▁requirements	-3661
);	-3662
cious	-3663
more	-3664
▁tele	-3665
▁peace	-3666
▁gain	-3667
▁element	-3668
▁items	-3669
▁mal	-3670
▁perhaps	-3671
▁instance	-3672
▁experiences	-3673
▁Ang	-3674
udd	-3675
▁Germany	-3676
▁gave	-3677
▁vision	-3678
▁classroom	-3679
▁excess	-3680
▁insect	-3681
▁Web	-3682
▁plans	-3683
▁friend	-3684
rief	-3685
▁Found	-3686
rupt	-3687
▁appears	-3688
▁Internet	-3689
▁apply	-3690
▁instruct	-3691
ession	-3692
▁income	-3693
▁goals	-3694
▁Mat	-3695
▁Program	-3696
▁weak	-3697
amb	-3698
▁vo	-3699
▁disorder	-3700
▁celebr	-3701
▁Mich	-3702
▁technologies	-3703
▁organizations	-3704
.;	-3705
▁repe	-3706
aign	-3707
DA	-3708
asks	-3709
▁vill	-3710
▁Using	-3711
▁transfer	-3712
▁mission	-3713
ternal	-3714
▁showed	-3715
rec	-3716
gypt	-3717
▁style	-3718
▁Social	-3719
▁fert	-3720
icip	-3721
▁wid	-3722
▁save	-3723
▁Congress	-3724
▁Di	-3725
▁wrong	-3726
▁construct	-3727
▁compar	-3728
nes	-3729
▁happen	-3730
▁mo	-3731
▁aim	-3732
▁glass	-3733
▁equal	-3734
▁pick	-3735
▁journal	-3736
oma	-3737
▁Human	-3738
▁electricity	-3739
▁Sub	-3740
This	-3741
▁attract	-3742
▁famous	-3743
▁treated	-3744
▁office	-3745
▁Jewish	-3746
▁remove	-3747
▁Net	-3748
▁David	-3749
▁river	-3750
▁James	-3751
▁suppl	-3752
",	-3753
iding	-3754
▁native	-3755
osoph	-3756
▁liqu	-3757
▁spring	-3758
▁rot	-3759
▁medicine	-3760
▁bone	-3761
▁evolution	-3762
▁evalu	-3763
▁Phys	-3764
▁feature	-3765
▁Bra	-3766
▁resistance	-3767
ube	-3768
▁direction	-3769
▁qual	-3770
▁extremely	-3771
ky	-3772
▁depression	-3773
ifically	-3774
▁explain	-3775
▁resource	-3776
do	-3777
▁commercial	-3778
▁Mary	-3779
eces	-3780
▁nutrition	-3781
▁heavy	-3782
▁Bel	-3783
▁recommended	-3784
▁Thus	-3785
omas	-3786
▁significantly	-3787
ulum	-3788
”,	-3789
pped	-3790
zz	-3791
pris	-3792
▁survey	-3793
▁iron	-3794
OS	-3795
ologist	-3796
▁board	-3797
▁risks	-3798
inated	-3799
▁topic	-3800
bed	-3801
▁Pal	-3802
▁util	-3803
▁believed	-3804
▁fix	-3805
▁bed	-3806
▁vary	-3807
▁suggests	-3808
▁kid	-3809
▁eventually	-3810
▁decisions	-3811
▁passed	-3812
hors	-3813
▁email	-3814
▁Mor	-3815
▁mut	-3816
▁Rev	-3817
▁regions	-3818
▁clinical	-3819
▁decades	-3820
cast	-3821
iance	-3822
▁intellig	-3823
▁reducing	-3824
▁NAS	-3825
▁favor	-3826
▁exhib	-3827
▁immediately	-3828
▁temperatures	-3829
▁graph	-3830
▁Air	-3831
▁France	-3832
▁seven	-3833
▁release	-3834
lick	-3835
▁figure	-3836
▁dogs	-3837
iant	-3838
▁Organ	-3839
part	-3840
▁structures	-3841
▁citizens	-3842
▁About	-3843
ares	-3844
▁foreign	-3845
resp	-3846
▁separate	-3847
▁generation	-3848
▁learned	-3849
▁solutions	-3850
▁Egypt	-3851
St	-3852
che	-3853
▁Gra	-3854
uls	-3855
isation	-3856
▁defined	-3857
▁vitamin	-3858
▁plat	-3859
▁spect	-3860
igen	-3861
▁homes	-3862
EM	-3863
▁causing	-3864
▁challenge	-3865
ald	-3866
▁highest	-3867
▁becoming	-3868
▁Western	-3869
▁bank	-3870
▁...	-3871
ken	-3872
▁bound	-3873
▁College	-3874
asion	-3875
▁serve	-3876
▁metal	-3877
▁cand	-3878
▁inflamm	-3879
▁Development	-3880
▁Som	-3881
▁bodies	-3882
▁chronic	-3883
▁store	-3884
▁Therefore	-3885
▁Hel	-3886
▁slight	-3887
▁neu	-3888
▁Def	-3889
▁industrial	-3890
▁divid	-3891
▁alternative	-3892
ographic	-3893
apers	-3894
▁buy	-3895
▁Two	-3896
▁involves	-3897
▁reality	-3898
uing	-3899
▁disorders	-3900
▁oxygen	-3901
elines	-3902
Wh	-3903
ructure	-3904
▁gets	-3905
ET	-3906
bal	-3907
▁cycle	-3908
▁stream	-3909
▁Test	-3910
AM	-3911
ida	-3912
wards	-3913
▁approximately	-3914
▁Council	-3915
▁trust	-3916
▁Off	-3917
▁Lord	-3918
▁surgery	-3919
▁tooth	-3920
▁Japanese	-3921
▁anxiety	-3922
▁records	-3923
▁buildings	-3924
▁Sam	-3925
▁drive	-3926
▁released	-3927
▁letter	-3928
▁urban	-3929
▁Project	-3930
▁assum	-3931
▁operations	-3932
▁perspect	-3933
change	-3934
▁male	-3935
▁experim	-3936
▁Museum	-3937
▁dri	-3938
pan	-3939
▁combination	-3940
▁sac	-3941
▁carried	-3942
▁initi	-3943
▁emphas	-3944
uses	-3945
▁notes	-3946
▁aspects	-3947
▁trig	-3948
▁detect	-3949
ager	-3950
▁upd	-3951
▁presented	-3952
▁layer	-3953
▁Fore	-3954
▁fields	-3955
▁organic	-3956
▁Profess	-3957
▁Mark	-3958
▁ves	-3959
▁ready	-3960
▁click	-3961
▁ST	-3962
▁thr	-3963
gal	-3964
▁nuclear	-3965
▁drop	-3966
▁bottom	-3967
▁agg	-3968
▁partners	-3969
▁shap	-3970
▁sexual	-3971
▁household	-3972
lim	-3973
▁speech	-3974
▁president	-3975
▁starting	-3976
▁setting	-3977
▁connected	-3978
▁frequently	-3979
▁burn	-3980
▁horm	-3981
▁injury	-3982
erate	-3983
▁anyone	-3984
ologists	-3985
▁NASA	-3986
▁conducted	-3987
▁encourage	-3988
▁hom	-3989
▁flood	-3990
▁fig	-3991
▁infections	-3992
PS	-3993
▁Like	-3994
▁storage	-3995
▁changing	-3996
▁seeds	-3997
▁ded	-3998
▁Its	-3999
▁Tex	-4000
▁option	-4001
▁introduced	-4002
▁ign	-4003
urance	-4004
▁film	-4005
▁prefer	-4006
▁experts	-4007
met	-4008
▁actual	-4009
▁estimated	-4010
▁truth	-4011
▁experiment	-4012
▁dyn	-4013
icial	-4014
▁Rober	-4015
raw	-4016
▁moved	-4017
▁legisl	-4018
▁widely	-4019
tee	-4020
olid	-4021
▁happens	-4022
▁mag	-4023
▁Get	-4024
erences	-4025
▁Tur	-4026
▁replace	-4027
▁games	-4028
▁observed	-4029
▁George	-4030
char	-4031
▁Scient	-4032
▁numerous	-4033
▁adjust	-4034
▁destroy	-4035
▁Government	-4036
▁properly	-4037
unction	-4038
II	-4039
▁dangerous	-4040
▁statement	-4041
Ch	-4042
▁Make	-4043
▁tour	-4044
▁technique	-4045
▁assessment	-4046
▁novel	-4047
▁faith	-4048
ressive	-4049
▁college	-4050
▁prepar	-4051
▁Step	-4052
antic	-4053
▁Post	-4054
ulf	-4055
ping	-4056
▁please	-4057
poses	-4058
▁covered	-4059
ped	-4060
SA	-4061
▁Ev	-4062
▁phen	-4063
rows	-4064
▁connection	-4065
▁ocean	-4066
▁Ben	-4067
▁Sun	-4068
▁hear	-4069
anging	-4070
ognitive	-4071
▁Both	-4072
▁crucial	-4073
works	-4074
▁policies	-4075
iveness	-4076
▁exactly	-4077
▁performed	-4078
▁Paul	-4079
▁manage	-4080
▁reference	-4081
▁failure	-4082
▁sample	-4083
order	-4084
▁pi	-4085
ndrome	-4086
▁vul	-4087
▁tim	-4088
▁mer	-4089
▁degrees	-4090
▁HIV	-4091
▁sav	-4092
▁profession	-4093
onds	-4094
ingly	-4095
▁finding	-4096
▁depending	-4097
▁radio	-4098
▁Spanish	-4099
imens	-4100
▁killed	-4101
▁violence	-4102
▁helping	-4103
▁Bas	-4104
▁esc	-4105
riculum	-4106
▁feeling	-4107
▁jour	-4108
▁discussion	-4109
▁…	-4110
▁lung	-4111
▁load	-4112
▁distribution	-4113
▁opin	-4114
▁wanted	-4115
ously	-4116
ilit	-4117
▁relationships	-4118
▁message	-4119
▁pollution	-4120
▁effectively	-4121
▁independent	-4122
▁Dem	-4123
▁comprehens	-4124
▁emotional	-4125
▁Further	-4126
▁trend	-4127
▁radiation	-4128
▁advanced	-4129
▁resulting	-4130
▁Mal	-4131
▁promote	-4132
▁output	-4133
cont	-4134
ij	-4135
key	-4136
▁trou	-4137
▁ple	-4138
▁physic	-4139
RE	-4140
rog	-4141
▁characteristics	-4142
▁incorpor	-4143
rant	-4144
atically	-4145
▁removed	-4146
▁mic	-4147
raction	-4148
porary	-4149
▁La	-4150
▁vessel	-4151
▁thick	-4152
▁Data	-4153
ias	-4154
▁sand	-4155
▁expert	-4156
▁spot	-4157
▁lived	-4158
▁Treat	-4159
▁populations	-4160
▁Republic	-4161
▁Learning	-4162
ocal	-4163
▁participants	-4164
▁comfort	-4165
▁Cle	-4166
▁excell	-4167
ault	-4168
▁math	-4169
▁background	-4170
▁elimin	-4171
▁landsc	-4172
▁internal	-4173
▁desp	-4174
▁sustainable	-4175
▁annual	-4176
rosc	-4177
▁seed	-4178
▁grass	-4179
tical	-4180
roph	-4181
othes	-4182
▁pric	-4183
▁initial	-4184
clus	-4185
▁Service	-4186
▁tum	-4187
▁manufacture	-4188
olved	-4189
rm	-4190
▁vegetables	-4191
▁minor	-4192
▁cris	-4193
▁Addition	-4194
▁clearly	-4195
▁mostly	-4196
▁Greek	-4197
▁creation	-4198
▁turned	-4199
hetic	-4200
▁meat	-4201
▁referred	-4202
▁doub	-4203
ieties	-4204
▁authors	-4205
▁White	-4206
▁die	-4207
▁campaign	-4208
▁Class	-4209
ortunately	-4210
▁efficiency	-4211
▁Mount	-4212
▁helped	-4213
▁upper	-4214
▁party	-4215
▁consult	-4216
▁Elect	-4217
urt	-4218
▁scen	-4219
▁gene	-4220
▁fine	-4221
▁Rich	-4222
▁amounts	-4223
roup	-4224
▁concerns	-4225
▁alg	-4226
▁noted	-4227
▁chemicals	-4228
▁univers	-4229
▁contrast	-4230
▁Bro	-4231
▁linked	-4232
▁meeting	-4233
▁transform	-4234
▁academic	-4235
cers	-4236
tered	-4237
cular	-4238
▁leads	-4239
erved	-4240
▁reprodu	-4241
▁involve	-4242
osystem	-4243
ST	-4244
▁Energy	-4245
▁appe	-4246
rest	-4247
▁counter	-4248
▁eggs	-4249
▁conservation	-4250
ball	-4251
ishing	-4252
▁divers	-4253
▁Port	-4254
▁solid	-4255
▁core	-4256
amental	-4257
▁Met	-4258
▁experienced	-4259
oking	-4260
▁principles	-4261
▁Mars	-4262
▁beautiful	-4263
standing	-4264
▁Court	-4265
▁interested	-4266
▁Fre	-4267
▁Sk	-4268
▁datab	-4269
▁Op	-4270
▁classes	-4271
ios	-4272
▁pip	-4273
uable	-4274
▁mist	-4275
▁engineering	-4276
▁contribute	-4277
▁arm	-4278
enth	-4279
▁platform	-4280
▁presc	-4281
▁pages	-4282
▁Medical	-4283
▁processing	-4284
place	-4285
▁units	-4286
mark	-4287
▁professor	-4288
▁News	-4289
▁Ser	-4290
board	-4291
▁input	-4292
▁bud	-4293
rum	-4294
▁battle	-4295
▁exposed	-4296
▁Up	-4297
▁pal	-4298
▁Second	-4299
▁heard	-4300
umn	-4301
▁https	-4302
uration	-4303
▁hearing	-4304
▁articles	-4305
▁volume	-4306
zing	-4307
▁distinct	-4308
▁freedom	-4309
▁Mr	-4310
▁mentioned	-4311
▁confirm	-4312
orial	-4313
▁motor	-4314
ago	-4315
▁Texas	-4316
▁Supp	-4317
inter	-4318
▁hour	-4319
▁square	-4320
▁Any	-4321
▁Island	-4322
▁Disc	-4323
▁AD	-4324
▁credit	-4325
▁trib	-4326
anch	-4327
▁relevant	-4328
▁literature	-4329
▁advantage	-4330
▁prepared	-4331
▁farmers	-4332
▁Dist	-4333
▁Acad	-4334
ception	-4335
▁isol	-4336
▁awareness	-4337
▁race	-4338
▁vot	-4339
▁allowing	-4340
▁diagnosis	-4341
▁Dise	-4342
ya	-4343
▁Mac	-4344
▁Direct	-4345
▁regarding	-4346
▁grade	-4347
▁aid	-4348
▁Hen	-4349
▁defic	-4350
▁AI	-4351
ressed	-4352
▁calc	-4353
▁Ber	-4354
▁dram	-4355
▁Mexico	-4356
▁island	-4357
▁volunt	-4358
▁atmosphere	-4359
▁unf	-4360
▁discover	-4361
▁improved	-4362
▁round	-4363
▁mathemat	-4364
▁circum	-4365
▁coal	-4366
▁concepts	-4367
▁saying	-4368
▁looks	-4369
▁electrical	-4370
▁mel	-4371
iling	-4372
▁territ	-4373
ategy	-4374
ams	-4375
▁kill	-4376
ifying	-4377
▁Life	-4378
▁reaction	-4379
▁owners	-4380
▁languages	-4381
▁fol	-4382
▁spent	-4383
▁disp	-4384
za	-4385
▁Out	-4386
iverse	-4387
▁Space	-4388
ander	-4389
▁operation	-4390
oyal	-4391
riage	-4392
▁continues	-4393
▁Expl	-4394
acing	-4395
▁Je	-4396
▁Technology	-4397
▁Cath	-4398
▁invent	-4399
▁describe	-4400
▁served	-4401
▁Mart	-4402
▁strategy	-4403
isher	-4404
▁grant	-4405
▁pret	-4406
▁conv	-4407
mat	-4408
▁synt	-4409
▁clos	-4410
▁Miss	-4411
▁lesson	-4412
ded	-4413
▁Old	-4414
▁pieces	-4415
▁vulner	-4416
▁notice	-4417
▁Through	-4418
▁kept	-4419
▁yellow	-4420
▁Asia	-4421
wood	-4422
▁hospital	-4423
▁renew	-4424
▁Information	-4425
▁sort	-4426
▁conflict	-4427
▁official	-4428
ta	-4429
▁gender	-4430
▁park	-4431
▁sem	-4432
▁procedure	-4433
▁previously	-4434
onic	-4435
▁vital	-4436
▁nutrients	-4437
stitution	-4438
▁blog	-4439
▁Sal	-4440
▁flex	-4441
▁wealth	-4442
▁concern	-4443
itz	-4444
▁song	-4445
ormal	-4446
▁completed	-4447
▁tasks	-4448
▁decided	-4449
▁drinking	-4450
▁muscles	-4451
▁Medicine	-4452
▁nav	-4453
ules	-4454
▁meant	-4455
▁ship	-4456
▁Thomas	-4457
ributed	-4458
rete	-4459
▁toxic	-4460
▁Isl	-4461
▁phase	-4462
▁determined	-4463
▁Whe	-4464
▁definition	-4465
▁storm	-4466
▁treatments	-4467
och	-4468
▁reb	-4469
▁situations	-4470
▁belong	-4471
berg	-4472
▁Women	-4473
▁influen	-4474
▁hop	-4475
▁wet	-4476
▁diss	-4477
▁nor	-4478
▁Before	-4479
ii	-4480
▁hit	-4481
▁cere	-4482
▁vaccine	-4483
▁Well	-4484
▁digest	-4485
▁emergency	-4486
▁Central	-4487
▁obvious	-4488
rapy	-4489
ags	-4490
▁signal	-4491
▁lic	-4492
▁conver	-4493
ample	-4494
▁Civil	-4495
▁Cam	-4496
vision	-4497
CC	-4498
OT	-4499
bi	-4500
▁recy	-4501
▁Sen	-4502
ears	-4503
▁motiv	-4504
▁spend	-4505
▁jobs	-4506
▁practical	-4507
eline	-4508
▁Hol	-4509
▁purposes	-4510
EL	-4511
▁straight	-4512
clusion	-4513
AD	-4514
akers	-4515
▁Where	-4516
▁keeping	-4517
▁liquid	-4518
roke	-4519
▁Know	-4520
▁bird	-4521
itors	-4522
▁Fam	-4523
▁ban	-4524
▁shared	-4525
acific	-4526
▁tips	-4527
▁god	-4528
comes	-4529
▁cert	-4530
▁Stand	-4531
▁pul	-4532
▁Lou	-4533
▁Instead	-4534
▁fib	-4535
umin	-4536
▁pun	-4537
▁flowers	-4538
▁Common	-4539
rates	-4540
▁wonder	-4541
▁advice	-4542
▁faster	-4543
▁genes	-4544
ancing	-4545
▁begins	-4546
▁charge	-4547
atric	-4548
▁interpret	-4549
▁southern	-4550
▁lov	-4551
onomic	-4552
▁Wind	-4553
well	-4554
▁Jer	-4555
▁cast	-4556
▁THE	-4557
nic	-4558
aker	-4559
▁northern	-4560
▁religion	-4561
▁advance	-4562
▁station	-4563
▁operating	-4564
▁Virgin	-4565
uted	-4566
▁dro	-4567
▁expression	-4568
aughter	-4569
▁bright	-4570
▁moist	-4571
▁ideal	-4572
ounced	-4573
▁height	-4574
▁morning	-4575
▁coord	-4576
▁AN	-4577
▁intended	-4578
▁aren	-4579
▁reached	-4580
▁salt	-4581
▁facts	-4582
▁Book	-4583
▁sector	-4584
ado	-4585
▁Psych	-4586
su	-4587
▁Jews	-4588
▁doll	-4589
▁vehicle	-4590
ses	-4591
tes	-4592
inger	-4593
▁affects	-4594
alled	-4595
▁institutions	-4596
▁extensive	-4597
▁Google	-4598
▁career	-4599
▁Bet	-4600
▁whom	-4601
▁Cop	-4602
▁focused	-4603
▁Mil	-4604
▁Ref	-4605
▁roll	-4606
astern	-4607
oxide	-4608
▁foss	-4609
▁mainly	-4610
▁attacks	-4611
▁frequency	-4612
▁Histor	-4613
▁gar	-4614
▁oral	-4615
▁technical	-4616
unk	-4617
▁Britain	-4618
pat	-4619
▁excellent	-4620
aturally	-4621
▁appoint	-4622
ht	-4623
▁recorded	-4624
des	-4625
▁master	-4626
rastructure	-4627
▁haz	-4628
▁helpful	-4629
▁consequences	-4630
ria	-4631
▁reduction	-4632
▁Studies	-4633
roid	-4634
▁>	-4635
▁impacts	-4636
▁Foundation	-4637
▁kinds	-4638
ishes	-4639
RI	-4640
▁supported	-4641
gra	-4642
▁Ir	-4643
AP	-4644
▁fruits	-4645
▁primarily	-4646
▁bill	-4647
▁secret	-4648
▁monitoring	-4649
oo	-4650
▁sounds	-4651
▁west	-4652
name	-4653
▁Bay	-4654
▁phone	-4655
▁Keep	-4656
▁conclud	-4657
▁liver	-4658
▁combined	-4659
▁links	-4660
going	-4661
▁shar	-4662
▁nerv	-4663
▁offered	-4664
acters	-4665
▁Atl	-4666
rier	-4667
rep	-4668
rence	-4669
▁mort	-4670
▁Mass	-4671
▁responsibility	-4672
▁sche	-4673
ipped	-4674
▁Saf	-4675
▁manner	-4676
▁youth	-4677
▁smart	-4678
▁Robert	-4679
▁specifically	-4680
▁Franc	-4681
▁taught	-4682
ulating	-4683
▁ecosystem	-4684
▁showing	-4685
▁Environmental	-4686
▁Bur	-4687
▁Find	-4688
enses	-4689
▁refers	-4690
▁kil	-4691
▁Those	-4692
vis	-4693
▁hyper	-4694
oper	-4695
▁letters	-4696
espite	-4697
▁Ste	-4698
▁Flor	-4699
▁particles	-4700
▁surrounding	-4701
▁waters	-4702
ificial	-4703
▁perman	-4704
▁accurate	-4705
▁onto	-4706
nel	-4707
▁Sl	-4708
▁kn	-4709
othing	-4710
▁Commission	-4711
alle	-4712
▁finally	-4713
▁Pub	-4714
eters	-4715
RO	-4716
▁Sum	-4717
istan	-4718
▁files	-4719
otic	-4720
west	-4721
▁resist	-4722
▁Land	-4723
down	-4724
▁topics	-4725
▁Arab	-4726
▁send	-4727
▁Have	-4728
▁indicate	-4729
ixt	-4730
ails	-4731
▁proposed	-4732
▁explains	-4733
▁clim	-4734
▁businesses	-4735
▁revolution	-4736
▁formation	-4737
▁Professor	-4738
▁crops	-4739
▁philosoph	-4740
▁Mem	-4741
▁certainly	-4742
▁potentially	-4743
BC	-4744
tion	-4745
chers	-4746
▁double	-4747
oughly	-4748
▁Wild	-4749
▁brief	-4750
▁brother	-4751
arrow	-4752
▁quar	-4753
▁thin	-4754
▁medications	-4755
tenance	-4756
▁stone	-4757
ras	-4758
▁Engine	-4759
▁component	-4760
anges	-4761
▁facilities	-4762
▁vast	-4763
▁comment	-4764
gl	-4765
▁Please	-4766
ael	-4767
▁centuries	-4768
▁voice	-4769
eria	-4770
▁Good	-4771
▁fort	-4772
▁enhance	-4773
osen	-4774
▁Army	-4775
▁floor	-4776
▁Latin	-4777
▁Id	-4778
itage	-4779
▁thoughts	-4780
▁paint	-4781
ework	-4782
▁harvest	-4783
▁valuable	-4784
▁corresp	-4785
▁investment	-4786
▁Micro	-4787
▁detailed	-4788
▁bow	-4789
rich	-4790
▁Que	-4791
ague	-4792
ossible	-4793
▁playing	-4794
▁vent	-4795
▁Lake	-4796
▁samples	-4797
▁periods	-4798
▁slightly	-4799
▁Inf	-4800
▁forced	-4801
osite	-4802
▁leader	-4803
▁regularly	-4804
▁wear	-4805
▁latest	-4806
yright	-4807
aks	-4808
▁sufficient	-4809
▁depends	-4810
▁snow	-4811
▁pregnancy	-4812
▁fluid	-4813
▁Bible	-4814
▁roots	-4815
▁wel	-4816
▁Control	-4817
▁familiar	-4818
▁inflammation	-4819
▁lose	-4820
▁metab	-4821
▁tested	-4822
▁curriculum	-4823
▁Bre	-4824
▁characters	-4825
▁girls	-4826
itness	-4827
ye	-4828
▁phenomen	-4829
▁Sou	-4830
osc	-4831
▁ju	-4832
▁deliver	-4833
ville	-4834
▁nit	-4835
verty	-4836
▁Phot	-4837
leg	-4838
ION	-4839
▁healthcare	-4840
▁felt	-4841
athy	-4842
DF	-4843
▁Jose	-4844
▁raised	-4845
igation	-4846
▁identity	-4847
▁poverty	-4848
▁director	-4849
▁maximum	-4850
▁occurred	-4851
▁motion	-4852
▁authority	-4853
▁Smith	-4854
▁goods	-4855
▁stars	-4856
▁Tem	-4857
olute	-4858
▁grand	-4859
▁lib	-4860
active	-4861
▁diam	-4862
osa	-4863
▁Vis	-4864
▁otherwise	-4865
▁subjects	-4866
▁largely	-4867
▁surpris	-4868
▁cognitive	-4869
▁flat	-4870
▁Such	-4871
▁pil	-4872
▁played	-4873
▁train	-4874
▁Despite	-4875
▁Pacific	-4876
▁east	-4877
inn	-4878
ensus	-4879
▁Add	-4880
▁collected	-4881
▁cardi	-4882
▁ingred	-4883
rations	-4884
▁grown	-4885
iced	-4886
▁perspective	-4887
being	-4888
▁prices	-4889
▁abuse	-4890
▁inches	-4891
▁adding	-4892
▁habitat	-4893
▁internet	-4894
roc	-4895
▁Jud	-4896
.|	-4897
▁nations	-4898
▁Review	-4899
▁crisis	-4900
▁Power	-4901
▁employees	-4902
iated	-4903
▁Nor	-4904
▁typical	-4905
field	-4906
▁despite	-4907
▁feelings	-4908
▁hundreds	-4909
BN	-4910
▁external	-4911
▁Att	-4912
teries	-4913
▁happened	-4914
igenous	-4915
▁request	-4916
▁stem	-4917
▁increasingly	-4918
point	-4919
▁Ox	-4920
▁pu	-4921
inent	-4922
▁colors	-4923
▁Take	-4924
▁syn	-4925
▁settle	-4926
▁Nature	-4927
▁instruction	-4928
stronom	-4929
resents	-4930
▁lessons	-4931
ooth	-4932
▁protected	-4933
▁syndrome	-4934
▁agricultural	-4935
▁Del	-4936
▁controlled	-4937
▁Prov	-4938
hi	-4939
▁trial	-4940
omin	-4941
rian	-4942
▁lik	-4943
▁Management	-4944
▁boost	-4945
▁allerg	-4946
utive	-4947
omy	-4948
▁Nav	-4949
▁secure	-4950
▁Exper	-4951
▁governments	-4952
▁officials	-4953
▁Budd	-4954
icks	-4955
▁km	-4956
▁Mont	-4957
▁sen	-4958
▁wire	-4959
▁extent	-4960
▁explained	-4961
▁satis	-4962
▁pump	-4963
▁Design	-4964
▁Sea	-4965
▁Yet	-4966
▁walls	-4967
▁format	-4968
▁interview	-4969
▁instrument	-4970
▁IN	-4971
▁driving	-4972
▁CD	-4973
▁remained	-4974
umber	-4975
▁Care	-4976
▁Kore	-4977
▁looked	-4978
▁fundamental	-4979
▁sin	-4980
?”	-4981
▁Carol	-4982
▁residents	-4983
▁minimum	-4984
ING	-4985
rolog	-4986
▁deaths	-4987
▁Who	-4988
▁expensive	-4989
▁Library	-4990
▁spl	-4991
▁follows	-4992
▁infected	-4993
▁biological	-4994
celer	-4995
▁stret	-4996
lar	-4997
▁measured	-4998
▁continuous	-4999
van	-5000
ascular	-5001
▁Note	-5002
▁mobile	-5003
▁lifest	-5004
▁neut	-5005
free	-5006
▁laun	-5007
▁dental	-5008
▁infrastructure	-5009
▁satell	-5010
hips	-5011
▁suffering	-5012
▁depth	-5013
▁wife	-5014
▁represents	-5015
▁Middle	-5016
olars	-5017
TS	-5018
ffee	-5019
▁explan	-5020
▁rail	-5021
▁consists	-5022
▁simpl	-5023
▁police	-5024
li	-5025
▁Ham	-5026
▁Last	-5027
col	-5028
▁valid	-5029
▁interests	-5030
bing	-5031
▁funding	-5032
CO	-5033
▁procedures	-5034
gment	-5035
▁disapp	-5036
cling	-5037
▁Charles	-5038
▁existence	-5039
MS	-5040
▁immun	-5041
▁visible	-5042
▁greatest	-5043
▁concerned	-5044
▁elev	-5045
▁push	-5046
right	-5047
ventional	-5048
▁outcomes	-5049
▁firm	-5050
▁Ext	-5051
▁pig	-5052
zy	-5053
▁neighbor	-5054
▁rapidly	-5055
▁decrease	-5056
▁recovery	-5057
▁couple	-5058
▁minim	-5059
▁appearance	-5060
▁chann	-5061
mp	-5062
▁Follow	-5063
fall	-5064
▁<	-5065
▁Fact	-5066
asure	-5067
▁containing	-5068
win	-5069
▁du	-5070
band	-5071
▁BC	-5072
▁pray	-5073
▁proteins	-5074
▁Global	-5075
▁millions	-5076
▁army	-5077
▁sick	-5078
▁ages	-5079
▁divided	-5080
▁immig	-5081
▁rural	-5082
▁tried	-5083
▁closely	-5084
anguage	-5085
▁dial	-5086
▁naturally	-5087
▁leaving	-5088
▁fertil	-5089
▁vehicles	-5090
ga	-5091
atever	-5092
▁Henry	-5093
▁touch	-5094
▁Rad	-5095
▁stock	-5096
▁Russian	-5097
▁Rights	-5098
▁intelligence	-5099
▁shel	-5100
▁accompl	-5101
▁studied	-5102
▁Early	-5103
▁prevention	-5104
▁Det	-5105
▁Figure	-5106
▁Writ	-5107
ota	-5108
▁Home	-5109
▁suggested	-5110
▁fle	-5111
olester	-5112
▁Long	-5113
▁raise	-5114
▁extract	-5115
▁therm	-5116
mas	-5117
▁Diff	-5118
▁sensitive	-5119
bra	-5120
burg	-5121
ario	-5122
▁ble	-5123
▁tro	-5124
▁portion	-5125
lers	-5126
▁substant	-5127
▁fif	-5128
▁rub	-5129
▁recognize	-5130
iled	-5131
US	-5132
▁Learn	-5133
▁Only	-5134
ava	-5135
which	-5136
stood	-5137
▁Federal	-5138
orith	-5139
▁talking	-5140
▁advoc	-5141
▁wildlife	-5142
▁western	-5143
state	-5144
▁recognized	-5145
▁Sym	-5146
▁improving	-5147
▁Natural	-5148
▁Bat	-5149
esity	-5150
▁band	-5151
▁Russia	-5152
▁horse	-5153
▁discovery	-5154
▁Group	-5155
▁computers	-5156
▁medication	-5157
▁rein	-5158
▁returned	-5159
▁paid	-5160
▁traffic	-5161
▁harmful	-5162
▁Wil	-5163
▁Ter	-5164
▁documents	-5165
▁proport	-5166
▁manufacturing	-5167
▁comprehensive	-5168
omach	-5169
▁weap	-5170
▁Labor	-5171
▁medium	-5172
▁claims	-5173
▁od	-5174
ulin	-5175
cript	-5176
▁agriculture	-5177
▁PC	-5178
▁approaches	-5179
olesterol	-5180
▁Ken	-5181
▁sides	-5182
▁sets	-5183
▁journey	-5184
VID	-5185
▁brown	-5186
anes	-5187
▁san	-5188
▁hunt	-5189
ilding	-5190
▁routine	-5191
▁Office	-5192
’.	-5193
▁intake	-5194
oviet	-5195
▁injuries	-5196
▁guidelines	-5197
▁spiritual	-5198
▁persons	-5199
▁Div	-5200
pping	-5201
▁suffer	-5202
▁stick	-5203
abric	-5204
▁cars	-5205
▁substance	-5206
olf	-5207
▁database	-5208
olve	-5209
▁purs	-5210
▁domin	-5211
what	-5212
▁Florida	-5213
▁views	-5214
lements	-5215
▁Catholic	-5216
▁Emp	-5217
▁concentration	-5218
▁rand	-5219
▁Company	-5220
▁library	-5221
▁apparent	-5222
▁Mo	-5223
▁Ann	-5224
agers	-5225
▁prepare	-5226
▁moon	-5227
▁knew	-5228
▁professionals	-5229
▁Stat	-5230
▁title	-5231
▁movements	-5232
erals	-5233
CS	-5234
▁creative	-5235
▁Louis	-5236
▁discussed	-5237
▁selected	-5238
▁Virginia	-5239
▁domestic	-5240
▁normally	-5241
obe	-5242
flow	-5243
▁Check	-5244
long	-5245
▁bones	-5246
▁budget	-5247
rot	-5248
ibilities	-5249
▁suitable	-5250
▁Though	-5251
▁worldwide	-5252
▁alt	-5253
▁recip	-5254
▁adequ	-5255
▁maintenance	-5256
ny	-5257
▁fill	-5258
▁justice	-5259
asp	-5260
▁generate	-5261
▁appeared	-5262
alse	-5263
alysis	-5264
dden	-5265
▁gall	-5266
▁subsequ	-5267
▁diverse	-5268
faces	-5269
▁warming	-5270
▁flight	-5271
▁battery	-5272
▁massive	-5273
▁frag	-5274
▁cloud	-5275
▁random	-5276
▁sed	-5277
king	-5278
▁Cre	-5279
].	-5280
▁pref	-5281
▁calls	-5282
▁Clin	-5283
▁mit	-5284
▁pictures	-5285
▁plays	-5286
▁mere	-5287
▁tun	-5288
stream	-5289
▁phr	-5290
▁starts	-5291
▁introduction	-5292
▁Report	-5293
▁Disease	-5294
▁Alex	-5295
▁antibiot	-5296
idden	-5297
▁assemb	-5298
▁stages	-5299
▁stated	-5300
▁Time	-5301
▁landscape	-5302
▁gun	-5303
▁nurs	-5304
ctic	-5305
▁prem	-5306
▁prison	-5307
▁inject	-5308
▁stored	-5309
▁choices	-5310
▁circumst	-5311
▁producing	-5312
▁listed	-5313
ona	-5314
▁Ap	-5315
agues	-5316
▁Sometimes	-5317
▁capable	-5318
▁ISBN	-5319
aser	-5320
▁Lab	-5321
▁worse	-5322
▁Form	-5323
▁facilit	-5324
▁supplement	-5325
▁apart	-5326
▁pretty	-5327
othe	-5328
▁doctors	-5329
vironments	-5330
▁remind	-5331
▁solve	-5332
▁closed	-5333
▁behaviour	-5334
▁label	-5335
▁tail	-5336
▁sports	-5337
▁engage	-5338
▁Finally	-5339
▁beneficial	-5340
uke	-5341
▁chain	-5342
▁gather	-5343
▁wave	-5344
▁Pract	-5345
▁dut	-5346
▁param	-5347
▁sudden	-5348
▁apprec	-5349
▁window	-5350
bert	-5351
ects	-5352
▁chief	-5353
▁diversity	-5354
▁trad	-5355
▁dust	-5356
▁obtained	-5357
▁Ill	-5358
▁Click	-5359
▁incl	-5360
▁Cult	-5361
▁precise	-5362
▁networks	-5363
racy	-5364
▁conscious	-5365
▁corpor	-5366
▁myth	-5367
▁Soviet	-5368
▁soldiers	-5369
▁consid	-5370
▁tiny	-5371
▁leadership	-5372
▁exchange	-5373
▁optim	-5374
▁wors	-5375
ston	-5376
▁flav	-5377
▁Ca	-5378
▁Columb	-5379
▁sweet	-5380
▁answers	-5381
▁OF	-5382
▁decline	-5383
▁chart	-5384
▁Chem	-5385
▁Canadian	-5386
imer	-5387
▁index	-5388
▁survival	-5389
▁Study	-5390
▁Gold	-5391
ropical	-5392
▁www	-5393
▁parties	-5394
ca	-5395
indu	-5396
▁leaf	-5397
ypes	-5398
normal	-5399
▁reform	-5400
kin	-5401
▁Pers	-5402
▁argument	-5403
▁steel	-5404
▁survive	-5405
▁Cat	-5406
road	-5407
▁speaking	-5408
▁aircraft	-5409
▁courses	-5410
▁Cancer	-5411
▁electronic	-5412
ums	-5413
▁describes	-5414
▁originally	-5415
▁principle	-5416
▁tow	-5417
▁distingu	-5418
ifies	-5419
▁dream	-5420
▁unlike	-5421
▁forests	-5422
▁Free	-5423
▁mamm	-5424
prise	-5425
▁catch	-5426
▁readers	-5427
▁Dan	-5428
▁USA	-5429
pass	-5430
▁creates	-5431
▁impossible	-5432
▁End	-5433
ester	-5434
la	-5435
▁restrict	-5436
cules	-5437
▁era	-5438
asive	-5439
▁correspond	-5440
▁nan	-5441
▁happy	-5442
IL	-5443
with	-5444
▁Australian	-5445
eper	-5446
rors	-5447
orter	-5448
▁aw	-5449
apping	-5450
▁Climate	-5451
▁kit	-5452
rants	-5453
▁mountain	-5454
irus	-5455
▁tal	-5456
▁narrow	-5457
▁Peter	-5458
▁propos	-5459
▁lots	-5460
fe	-5461
mary	-5462
ellect	-5463
▁twice	-5464
▁candid	-5465
▁secondary	-5466
▁absolute	-5467
▁lifestyle	-5468
▁algorith	-5469
▁museum	-5470
▁download	-5471
▁figures	-5472
▁Commit	-5473
▁Top	-5474
▁stomach	-5475
▁agencies	-5476
▁entirely	-5477
iology	-5478
hma	-5479
▁aqu	-5480
▁Quest	-5481
▁afford	-5482
▁district	-5483
UR	-5484
▁Joseph	-5485
▁pull	-5486
If	-5487
cel	-5488
▁enable	-5489
▁unless	-5490
▁Frank	-5491
▁contem	-5492
▁transition	-5493
▁assistance	-5494
▁toler	-5495
ka	-5496
▁doi	-5497
▁marine	-5498
▁pure	-5499
▁possibly	-5500
▁Additionally	-5501
▁skill	-5502
mun	-5503
oster	-5504
▁Creat	-5505
▁Constitution	-5506
oral	-5507
▁sell	-5508
▁edge	-5509
▁environments	-5510
▁Dig	-5511
▁gal	-5512
▁tells	-5513
▁equival	-5514
▁remote	-5515
▁copy	-5516
tage	-5517
▁achieved	-5518
▁opened	-5519
▁Haw	-5520
▁sod	-5521
▁Vict	-5522
▁waves	-5523
▁Ess	-5524
▁handle	-5525
▁formal	-5526
▁plate	-5527
▁fiber	-5528
ocratic	-5529
inations	-5530
▁insects	-5531
▁universe	-5532
▁Nations	-5533
last	-5534
▁IP	-5535
▁Tor	-5536
▁seeing	-5537
ait	-5538
▁slowly	-5539
▁emotions	-5540
▁chapter	-5541
▁sky	-5542
▁wants	-5543
▁produces	-5544
ada	-5545
▁decide	-5546
▁error	-5547
▁breathing	-5548
inet	-5549
▁decade	-5550
icit	-5551
▁Sol	-5552
▁Color	-5553
▁studying	-5554
ato	-5555
liam	-5556
orrow	-5557
war	-5558
born	-5559
ache	-5560
HO	-5561
▁accounts	-5562
▁regional	-5563
▁village	-5564
▁respir	-5565
▁filled	-5566
rid	-5567
ki	-5568
▁Does	-5569
▁door	-5570
zen	-5571
pet	-5572
▁houses	-5573
▁acts	-5574
▁selection	-5575
▁coffee	-5576
▁repeated	-5577
alian	-5578
▁truly	-5579
▁possibility	-5580
▁foundation	-5581
▁broken	-5582
▁volunte	-5583
▁cholesterol	-5584
▁experiments	-5585
▁aer	-5586
▁generated	-5587
▁Sign	-5588
▁acceler	-5589
▁fly	-5590
▁marriage	-5591
▁accepted	-5592
▁ancest	-5593
▁poet	-5594
▁arms	-5595
▁carefully	-5596
htm	-5597
▁locations	-5598
osph	-5599
▁traum	-5600
▁childhood	-5601
▁fasc	-5602
▁opinion	-5603
▁adopted	-5604
CT	-5605
arant	-5606
▁fossil	-5607
▁Rob	-5608
anda	-5609
icide	-5610
▁revealed	-5611
▁thor	-5612
▁Look	-5613
ashion	-5614
▁Chic	-5615
ua	-5616
▁successfully	-5617
▁possess	-5618
EP	-5619
▁understood	-5620
▁dedicated	-5621
▁cultiv	-5622
▁moral	-5623
▁Oh	-5624
▁raw	-5625
ala	-5626
▁dent	-5627
▁List	-5628
▁signals	-5629
▁Street	-5630
▁regulations	-5631
▁transmission	-5632
oted	-5633
▁relax	-5634
▁walking	-5635
aph	-5636
▁circuit	-5637
▁grav	-5638
icians	-5639
lets	-5640
▁habits	-5641
▁remaining	-5642
▁recon	-5643
▁amb	-5644
▁Access	-5645
▁Hall	-5646
▁outl	-5647
▁af	-5648
▁COVID	-5649
▁shell	-5650
anged	-5651
▁AS	-5652
▁struggle	-5653
▁Mad	-5654
rans	-5655
▁colour	-5656
▁consumers	-5657
mic	-5658
▁Forest	-5659
exp	-5660
▁mild	-5661
▁wish	-5662
izer	-5663
▁PM	-5664
▁uns	-5665
▁Str	-5666
▁cutting	-5667
▁opening	-5668
▁narr	-5669
▁tea	-5670
▁suc	-5671
▁acids	-5672
aria	-5673
▁depos	-5674
▁consistent	-5675
▁Researchers	-5676
▁biggest	-5677
▁obtain	-5678
liament	-5679
▁Ocean	-5680
▁communicate	-5681
▁agreement	-5682
▁administration	-5683
▁Administ	-5684
▁Wood	-5685
inking	-5686
▁din	-5687
▁fell	-5688
▁Back	-5689
▁Agricult	-5690
▁extended	-5691
▁calcium	-5692
▁highlight	-5693
ivery	-5694
phone	-5695
▁fabric	-5696
▁discipl	-5697
rem	-5698
▁Among	-5699
▁sentence	-5700
▁brand	-5701
▁sharing	-5702
▁Vit	-5703
▁Meth	-5704
body	-5705
▁Mill	-5706
gent	-5707
.’	-5708
word	-5709
▁Southern	-5710
▁unknown	-5711
organ	-5712
ogue	-5713
▁Effect	-5714
▁nerve	-5715
▁Set	-5716
▁Paris	-5717
▁Plant	-5718
▁cart	-5719
▁Camp	-5720
▁difficulty	-5721
▁vessels	-5722
▁molecules	-5723
▁audience	-5724
▁Michael	-5725
ictionary	-5726
▁Nut	-5727
iform	-5728
▁machines	-5729
azing	-5730
nam	-5731
▁ax	-5732
▁framework	-5733
ini	-5734
▁Eth	-5735
▁managed	-5736
▁Bank	-5737
▁authorities	-5738
▁smoking	-5739
▁permanent	-5740
▁Works	-5741
▁fewer	-5742
ifications	-5743
ansion	-5744
▁opposite	-5745
erent	-5746
▁obl	-5747
▁bear	-5748
▁purchase	-5749
▁Native	-5750
▁Gard	-5751
▁immediate	-5752
▁newsp	-5753
▁veter	-5754
▁server	-5755
▁closer	-5756
▁cultures	-5757
kes	-5758
ipping	-5759
▁abund	-5760
▁supporting	-5761
▁circumstances	-5762
▁Kh	-5763
ribe	-5764
▁Wik	-5765
using	-5766
abul	-5767
▁imper	-5768
luding	-5769
▁roof	-5770
▁cats	-5771
▁colleagues	-5772
hist	-5773
add	-5774
▁bio	-5775
▁unp	-5776
rating	-5777
wing	-5778
▁maintaining	-5779
▁dioxide	-5780
▁listen	-5781
▁sight	-5782
▁lands	-5783
▁neck	-5784
▁shift	-5785
throp	-5786
▁Comput	-5787
▁contamin	-5788
gans	-5789
hop	-5790
▁Bus	-5791
▁Richard	-5792
ritis	-5793
▁mur	-5794
▁indicates	-5795
▁taste	-5796
▁noise	-5797
▁greatly	-5798
▁join	-5799
What	-5800
umes	-5801
▁instructions	-5802
▁supports	-5803
▁Cap	-5804
sey	-5805
▁laboratory	-5806
▁replaced	-5807
▁fixed	-5808
ena	-5809
▁hydrogen	-5810
▁electron	-5811
▁transportation	-5812
▁witness	-5813
▁artificial	-5814
▁programming	-5815
▁Adv	-5816
▁Conn	-5817
▁voc	-5818
▁ultimately	-5819
▁·	-5820
▁regist	-5821
▁feeding	-5822
bridge	-5823
▁description	-5824
cycl	-5825
▁shut	-5826
no	-5827
struct	-5828
▁conventional	-5829
▁implementation	-5830
▁density	-5831
▁Unf	-5832
▁limits	-5833
ups	-5834
▁attend	-5835
stone	-5836
ints	-5837
▁virtual	-5838
▁magnetic	-5839
▁Current	-5840
▁nine	-5841
ribed	-5842
zil	-5843
▁photograph	-5844
▁mac	-5845
▁Times	-5846
▁agency	-5847
▁Northern	-5848
hand	-5849
▁gone	-5850
▁expressed	-5851
▁ahead	-5852
▁camera	-5853
▁Open	-5854
▁scholars	-5855
▁Mag	-5856
▁customers	-5857
▁ourselves	-5858
▁Main	-5859
▁regul	-5860
▁flag	-5861
▁greenhouse	-5862
▁underlying	-5863
▁housing	-5864
▁Fort	-5865
▁younger	-5866
▁stands	-5867
▁ath	-5868
▁pron	-5869
▁Ma	-5870
▁unus	-5871
▁Brown	-5872
▁Sciences	-5873
▁Teac	-5874
▁mechanism	-5875
▁debate	-5876
▁intervention	-5877
▁Committee	-5878
▁comments	-5879
’,	-5880
▁inner	-5881
▁failed	-5882
▁acknow	-5883
▁derived	-5884
agon	-5885
▁mixed	-5886
▁organized	-5887
▁architecture	-5888
▁necessarily	-5889
stein	-5890
▁vulnerable	-5891
▁gluc	-5892
▁Start	-5893
kins	-5894
▁Special	-5895
▁supplies	-5896
cher	-5897
▁feedback	-5898
yles	-5899
gu	-5900
ocracy	-5901
▁sequence	-5902
....	-5903
▁confidence	-5904
▁Cy	-5905
▁reject	-5906
▁marked	-5907
▁filter	-5908
riers	-5909
▁tank	-5910
ora	-5911
▁composition	-5912
▁Penn	-5913
▁persist	-5914
aped	-5915
▁rid	-5916
▁Pan	-5917
▁Equ	-5918
net	-5919
▁stroke	-5920
reland	-5921
▁unable	-5922
rd	-5923
▁protocol	-5924
▁Sing	-5925
inate	-5926
▁participate	-5927
▁Jo	-5928
▁Cho	-5929
level	-5930
▁accident	-5931
▁Non	-5932
inating	-5933
▁Language	-5934
icious	-5935
▁turns	-5936
▁obesity	-5937
▁perce	-5938
▁Academy	-5939
▁tall	-5940
▁responses	-5941
Americ	-5942
▁fract	-5943
▁Exam	-5944
eck	-5945
▁diagnosed	-5946
▁drawing	-5947
▁pup	-5948
reed	-5949
▁smoke	-5950
irds	-5951
▁ends	-5952
▁Guide	-5953
▁multi	-5954
▁reserv	-5955
fish	-5956
▁insurance	-5957
▁challenging	-5958
▁improvement	-5959
then	-5960
spec	-5961
▁behaviors	-5962
under	-5963
▁standing	-5964
oned	-5965
ading	-5966
▁shop	-5967
▁carb	-5968
LE	-5969
▁legs	-5970
inction	-5971
▁hus	-5972
▁concrete	-5973
inity	-5974
▁ethnic	-5975
There	-5976
▁Family	-5977
▁remark	-5978
▁ratio	-5979
rimination	-5980
▁intellect	-5981
▁interaction	-5982
▁medic	-5983
▁thy	-5984
ront	-5985
▁institution	-5986
▁trained	-5987
▁chosen	-5988
▁critic	-5989
▁prompt	-5990
▁connections	-5991
▁fever	-5992
▁reactions	-5993
orses	-5994
▁Ireland	-5995
▁bread	-5996
▁chick	-5997
▁university	-5998
anta	-5999
▁Gal	-6000
▁indeed	-6001
dule	-6002
▁teen	-6003
▁Scott	-6004
▁writer	-6005
▁yield	-6006
bour	-6007
▁rising	-6008
ventions	-6009
▁row	-6010
▁attached	-6011
orous	-6012
▁Hy	-6013
▁Carolina	-6014
▁accum	-6015
▁©	-6016
itter	-6017
▁Valley	-6018
ella	-6019
▁Pop	-6020
hav	-6021
▁fighting	-6022
▁fu	-6023
itudes	-6024
▁knows	-6025
▁alle	-6026
▁pool	-6027
▁Board	-6028
▁eld	-6029
▁Chicago	-6030
▁Scot	-6031
▁Prop	-6032
▁conclusion	-6033
▁industries	-6034
ctive	-6035
▁destroyed	-6036
▁married	-6037
▁daughter	-6038
▁compounds	-6039
▁nearby	-6040
heast	-6041
gov	-6042
▁Revolution	-6043
▁latter	-6044
▁preval	-6045
▁substances	-6046
DP	-6047
▁doubt	-6048
▁equivalent	-6049
weight	-6050
▁Big	-6051
▁Year	-6052
▁troops	-6053
▁meal	-6054
▁percentage	-6055
▁guarant	-6056
▁Py	-6057
▁Cr	-6058
▁Table	-6059
▁zero	-6060
▁evaluation	-6061
▁Royal	-6062
icon	-6063
▁instruments	-6064
▁bot	-6065
▁flo	-6066
▁Down	-6067
▁thousand	-6068
▁Three	-6069
▁poison	-6070
itan	-6071
▁vote	-6072
usal	-6073
▁Unfortunately	-6074
▁layers	-6075
▁exercises	-6076
▁arrived	-6077
▁Age	-6078
▁overl	-6079
▁princip	-6080
▁entry	-6081
LA	-6082
inding	-6083
▁crow	-6084
▁horiz	-6085
▁reader	-6086
▁papers	-6087
▁recognition	-6088
▁generations	-6089
▁department	-6090
▁breath	-6091
▁scan	-6092
▁variable	-6093
▁hero	-6094
▁desire	-6095
isk	-6096
▁lies	-6097
▁represented	-6098
▁zone	-6099
▁Sil	-6100
IP	-6101
▁false	-6102
▁clust	-6103
▁drain	-6104
▁butter	-6105
▁Author	-6106
▁putting	-6107
irty	-6108
▁spending	-6109
▁hem	-6110
▁exists	-6111
ediatric	-6112
▁paralle	-6113
zed	-6114
▁cos	-6115
▁Orig	-6116
▁launched	-6117
▁capture	-6118
▁players	-6119
▁epid	-6120
▁Bab	-6121
ita	-6122
▁Resources	-6123
▁stable	-6124
▁reduces	-6125
top	-6126
ih	-6127
▁smooth	-6128
▁psychological	-6129
▁inhib	-6130
umps	-6131
▁Sever	-6132
▁hole	-6133
▁Similar	-6134
ione	-6135
ola	-6136
▁hur	-6137
▁Try	-6138
▁maps	-6139
▁installed	-6140
▁debt	-6141
▁frequent	-6142
▁inhab	-6143
asters	-6144
utch	-6145
▁delay	-6146
▁occasion	-6147
▁mos	-6148
isters	-6149
▁wasn	-6150
amins	-6151
▁cup	-6152
▁Italy	-6153
▁operate	-6154
▁cm	-6155
elled	-6156
▁sheet	-6157
▁funds	-6158
▁Rome	-6159
▁delivery	-6160
antly	-6161
IA	-6162
▁border	-6163
▁Young	-6164
▁prev	-6165
▁holid	-6166
▁minerals	-6167
▁accessible	-6168
He	-6169
isp	-6170
rine	-6171
▁shot	-6172
▁employment	-6173
▁organisms	-6174
▁ment	-6175
▁settings	-6176
You	-6177
▁Chapter	-6178
▁comparison	-6179
itative	-6180
▁competition	-6181
BS	-6182
▁presentation	-6183
▁match	-6184
ctor	-6185
▁Change	-6186
▁Community	-6187
▁Spain	-6188
▁issued	-6189
tra	-6190
aud	-6191
▁outbre	-6192
▁Mult	-6193
▁Georg	-6194
▁reliable	-6195
plant	-6196
▁kidney	-6197
▁Services	-6198
ighter	-6199
▁eastern	-6200
▁administr	-6201
▁pair	-6202
▁Mer	-6203
roduction	-6204
▁moisture	-6205
▁everyday	-6206
eless	-6207
▁renewable	-6208
▁founded	-6209
▁trials	-6210
▁whatever	-6211
▁swim	-6212
earing	-6213
▁contained	-6214
▁grew	-6215
▁offering	-6216
▁Furthermore	-6217
ymph	-6218
ourage	-6219
▁trip	-6220
▁EU	-6221
ureau	-6222
▁calories	-6223
▁usage	-6224
▁Moreover	-6225
▁distur	-6226
▁partner	-6227
stract	-6228
▁tissues	-6229
abled	-6230
uh	-6231
oding	-6232
▁align	-6233
onia	-6234
itt	-6235
▁astronom	-6236
▁Est	-6237
▁consumer	-6238
▁willing	-6239
espread	-6240
▁beliefs	-6241
▁fold	-6242
▁award	-6243
▁Lar	-6244
▁prove	-6245
▁Low	-6246
▁Brazil	-6247
As	-6248
cture	-6249
rovers	-6250
etime	-6251
aked	-6252
hyth	-6253
▁repair	-6254
▁voltage	-6255
▁ongoing	-6256
IG	-6257
▁damaged	-6258
▁resolution	-6259
thritis	-6260
▁gap	-6261
▁string	-6262
omic	-6263
▁Pet	-6264
▁covers	-6265
▁blocks	-6266
▁Word	-6267
▁ships	-6268
▁worry	-6269
▁refuge	-6270
▁photo	-6271
▁holds	-6272
▁subs	-6273
fit	-6274
▁runs	-6275
CD	-6276
how	-6277
nee	-6278
▁Empire	-6279
hered	-6280
▁Key	-6281
▁cards	-6282
▁Martin	-6283
itely	-6284
azine	-6285
▁crime	-6286
▁tight	-6287
▁Next	-6288
▁mechanisms	-6289
itivity	-6290
▁forget	-6291
▁mice	-6292
▁Whether	-6293
rooms	-6294
▁constitution	-6295
▁philosophy	-6296
ployment	-6297
rite	-6298
▁babies	-6299
▁bond	-6300
▁Face	-6301
▁mand	-6302
▁spok	-6303
▁Less	-6304
▁joined	-6305
▁demonstrate	-6306
but	-6307
▁territory	-6308
▁ingredients	-6309
▁Victor	-6310
▁preventing	-6311
▁examine	-6312
▁relief	-6313
▁define	-6314
▁loved	-6315
elesc	-6316
▁Mel	-6317
▁spaces	-6318
▁recommendations	-6319
gical	-6320
anches	-6321
irt	-6322
opy	-6323
▁Mean	-6324
▁rice	-6325
▁plenty	-6326
▁adequate	-6327
▁script	-6328
teen	-6329
▁Yes	-6330
▁guidance	-6331
▁AP	-6332
ults	-6333
▁ru	-6334
▁estimates	-6335
▁markets	-6336
▁approved	-6337
▁insulin	-6338
▁vs	-6339
ocy	-6340
▁collaboration	-6341
▁Article	-6342
▁functional	-6343
▁Sat	-6344
ifest	-6345
RC	-6346
▁meters	-6347
idity	-6348
hesis	-6349
▁observations	-6350
▁brings	-6351
venue	-6352
▁tons	-6353
osion	-6354
▁bridge	-6355
▁Fund	-6356
▁Leg	-6357
while	-6358
▁independence	-6359
such	-6360
called	-6361
▁III	-6362
▁bath	-6363
▁seeking	-6364
example	-6365
▁nest	-6366
▁mood	-6367
▁cleaning	-6368
▁Indust	-6369
ML	-6370
▁painting	-6371
▁politics	-6372
▁Oxford	-6373
▁Security	-6374
struction	-6375
idential	-6376
ether	-6377
▁viruses	-6378
cyclop	-6379
▁significance	-6380
car	-6381
▁mode	-6382
▁Polic	-6383
▁explo	-6384
hent	-6385
▁biod	-6386
▁fer	-6387
▁Type	-6388
gers	-6389
quit	-6390
▁Ver	-6391
▁organs	-6392
▁legislation	-6393
een	-6394
▁surfaces	-6395
▁danger	-6396
▁mining	-6397
▁fro	-6398
▁arrange	-6399
alls	-6400
▁Which	-6401
iox	-6402
▁Agency	-6403
ented	-6404
▁blow	-6405
▁Four	-6406
▁facility	-6407
▁burning	-6408
▁supposed	-6409
▁announced	-6410
▁trouble	-6411
▁route	-6412
▁holding	-6413
▁interactions	-6414
▁wait	-6415
ushed	-6416
▁Christmas	-6417
▁Source	-6418
▁conven	-6419
▁Remember	-6420
avery	-6421
▁Eastern	-6422
▁rivers	-6423
▁cryst	-6424
▁pounds	-6425
▁favorite	-6426
▁recept	-6427
▁pra	-6428
▁missing	-6429
▁historic	-6430
▁participation	-6431
▁chrom	-6432
▁physics	-6433
▁earthqu	-6434
▁nose	-6435
▁electro	-6436
▁volcan	-6437
▁sections	-6438
▁matters	-6439
uts	-6440
▁Scientists	-6441
▁asking	-6442
▁Dar	-6443
▁membr	-6444
erior	-6445
▁fashion	-6446
▁victims	-6447
▁involving	-6448
▁Never	-6449
▁cav	-6450
press	-6451
▁Holy	-6452
ocation	-6453
▁widespread	-6454
▁committed	-6455
▁objective	-6456
▁scene	-6457
▁irrit	-6458
▁controls	-6459
▁twenty	-6460
olving	-6461
Is	-6462
abulary	-6463
airy	-6464
▁positions	-6465
she	-6466
making	-6467
ittle	-6468
▁constantly	-6469
▁frame	-6470
▁pregnant	-6471
▁banks	-6472
▁TV	-6473
UN	-6474
▁ille	-6475
tic	-6476
igan	-6477
▁Safety	-6478
▁hun	-6479
pir	-6480
▁alter	-6481
▁sole	-6482
▁respiratory	-6483
▁Without	-6484
▁rig	-6485
▁Men	-6486
▁resulted	-6487
▁surve	-6488
rency	-6489
▁Po	-6490
▁receiving	-6491
▁column	-6492
▁earn	-6493
▁nervous	-6494
acco	-6495
oom	-6496
▁categories	-6497
▁Pot	-6498
xts	-6499
▁pharm	-6500
▁rely	-6501
sis	-6502
▁powers	-6503
rial	-6504
▁tub	-6505
roat	-6506
▁incred	-6507
▁dys	-6508
health	-6509
▁Treatment	-6510
riend	-6511
▁designs	-6512
▁turning	-6513
▁tube	-6514
▁vac	-6515
gs	-6516
iability	-6517
▁demonstrated	-6518
▁MS	-6519
▁intense	-6520
▁measurement	-6521
aming	-6522
▁ended	-6523
ishment	-6524
▁advantages	-6525
▁gram	-6526
▁shapes	-6527
otes	-6528
bu	-6529
IDS	-6530
▁explanation	-6531
▁Princ	-6532
ulty	-6533
▁Network	-6534
etics	-6535
inson	-6536
▁county	-6537
pes	-6538
RA	-6539
▁street	-6540
▁blind	-6541
▁compare	-6542
oven	-6543
▁whereas	-6544
▁undert	-6545
▁preparation	-6546
▁Italian	-6547
▁Bill	-6548
▁Kingdom	-6549
▁glucose	-6550
▁artists	-6551
▁passage	-6552
▁conversation	-6553
agram	-6554
▁Online	-6555
CE	-6556
▁excessive	-6557
scale	-6558
▁accuracy	-6559
▁Atlantic	-6560
▁Director	-6561
▁AND	-6562
▁photos	-6563
▁Reading	-6564
▁Several	-6565
▁beauty	-6566
heimer	-6567
ugh	-6568
▁furn	-6569
▁Method	-6570
▁fulf	-6571
ipedia	-6572
▁facing	-6573
igate	-6574
▁expansion	-6575
▁switch	-6576
▁thanks	-6577
▁chest	-6578
▁Gr	-6579
▁shif	-6580
▁ring	-6581
▁centers	-6582
▁agreed	-6583
▁careful	-6584
OL	-6585
▁satellite	-6586
▁ske	-6587
iah	-6588
▁comfortable	-6589
aska	-6590
▁heating	-6591
▁Windows	-6592
raining	-6593
otton	-6594
▁intest	-6595
▁mechanical	-6596
▁sharp	-6597
▁Dou	-6598
▁farming	-6599
▁Light	-6600
▁seconds	-6601
▁publication	-6602
▁teams	-6603
▁honor	-6604
▁centre	-6605
▁Coll	-6606
▁tract	-6607
▁messages	-6608
▁manip	-6609
▁dollars	-6610
▁integrated	-6611
▁jump	-6612
hyd	-6613
▁clothing	-6614
▁Hill	-6615
esis	-6616
ibl	-6617
▁abnormal	-6618
▁visitors	-6619
▁defe	-6620
▁Ident	-6621
▁stre	-6622
▁Ask	-6623
▁considering	-6624
▁Irish	-6625
▁realize	-6626
%.	-6627
▁relation	-6628
▁complicated	-6629
ovascular	-6630
▁coastal	-6631
▁Avoid	-6632
▁stimul	-6633
▁boys	-6634
rowing	-6635
▁Zeal	-6636
▁angle	-6637
▁estimate	-6638
Al	-6639
▁drawn	-6640
▁shock	-6641
ohyd	-6642
▁informed	-6643
▁Super	-6644
▁owner	-6645
OC	-6646
▁Administration	-6647
▁employed	-6648
▁succeed	-6649
▁evaluate	-6650
▁roles	-6651
▁interf	-6652
▁rocks	-6653
UT	-6654
▁cooking	-6655
▁category	-6656
eren	-6657
occ	-6658
▁plus	-6659
rey	-6660
▁treating	-6661
▁advert	-6662
▁measurements	-6663
▁boy	-6664
▁Hand	-6665
▁Rock	-6666
▁Kar	-6667
▁hypothes	-6668
▁mold	-6669
▁tut	-6670
▁asthma	-6671
▁depart	-6672
▁Fire	-6673
▁launch	-6674
▁Prevention	-6675
▁examination	-6676
opes	-6677
osh	-6678
▁Moon	-6679
▁archae	-6680
outs	-6681
▁Asian	-6682
▁Lib	-6683
ounter	-6684
inder	-6685
▁Modern	-6686
▁association	-6687
▁Centre	-6688
IM	-6689
▁ensuring	-6690
▁rank	-6691
▁constructed	-6692
ivered	-6693
▁session	-6694
▁serving	-6695
▁desired	-6696
▁MD	-6697
▁gut	-6698
▁none	-6699
▁forth	-6700
▁moves	-6701
forcement	-6702
▁disaster	-6703
oples	-6704
▁Tre	-6705
▁transact	-6706
▁hormone	-6707
▁ped	-6708
▁item	-6709
▁mm	-6710
▁panel	-6711
lishing	-6712
cons	-6713
▁Zealand	-6714
▁effectiveness	-6715
▁District	-6716
▁edition	-6717
▁Party	-6718
▁Ep	-6719
▁detection	-6720
▁distributed	-6721
▁declared	-6722
operation	-6723
▁provider	-6724
▁formula	-6725
▁horses	-6726
ady	-6727
▁election	-6728
▁sales	-6729
▁Den	-6730
itals	-6731
▁Grand	-6732
▁metabol	-6733
▁arts	-6734
vard	-6735
▁ov	-6736
▁healing	-6737
▁criteria	-6738
▁dose	-6739
▁proven	-6740
oln	-6741
IR	-6742
▁Tim	-6743
reek	-6744
apse	-6745
▁texts	-6746
▁deeper	-6747
▁flower	-6748
orders	-6749
▁Neu	-6750
▁lights	-6751
▁copper	-6752
▁forg	-6753
arsh	-6754
▁destruction	-6755
▁neur	-6756
isdom	-6757
▁artist	-6758
▁controvers	-6759
▁strict	-6760
SS	-6761
▁implications	-6762
▁circle	-6763
▁Er	-6764
▁Math	-6765
▁entered	-6766
▁combat	-6767
ixture	-6768
HD	-6769
▁wound	-6770
▁Business	-6771
▁pand	-6772
▁Engineering	-6773
▁Contin	-6774
▁aims	-6775
rene	-6776
▁aband	-6777
▁Secret	-6778
▁score	-6779
▁View	-6780
▁stronger	-6781
▁division	-6782
▁schedule	-6783
▁focuses	-6784
▁breeding	-6785
▁sacr	-6786
▁happening	-6787
▁overw	-6788
adder	-6789
▁orient	-6790
▁Pak	-6791
▁innovation	-6792
▁Dev	-6793
▁outcome	-6794
▁varieties	-6795
▁serves	-6796
▁removal	-6797
▁somewhat	-6798
▁bringing	-6799
▁negot	-6800
▁Naz	-6801
▁proof	-6802
▁galax	-6803
▁learners	-6804
oga	-6805
uality	-6806
▁theme	-6807
▁trigger	-6808
eli	-6809
▁parallel	-6810
▁paras	-6811
▁biology	-6812
%)	-6813
▁dischar	-6814
▁brush	-6815
▁breed	-6816
▁videos	-6817
▁Viet	-6818
▁statistics	-6819
▁discrimination	-6820
▁Sund	-6821
forest	-6822
df	-6823
▁complications	-6824
▁fairly	-6825
▁variables	-6826
▁withd	-6827
▁Rom	-6828
▁crew	-6829
▁gradually	-6830
▁dealing	-6831
▁Sup	-6832
ano	-6833
▁Tom	-6834
▁crim	-6835
ommod	-6836
▁acute	-6837
▁Jul	-6838
▁empt	-6839
Ph	-6840
that	-6841
▁knowing	-6842
aded	-6843
ani	-6844
▁scientist	-6845
▁adds	-6846
▁implemented	-6847
▁Parent	-6848
▁Assess	-6849
▁clar	-6850
▁domain	-6851
▁chlor	-6852
▁males	-6853
▁females	-6854
bles	-6855
emia	-6856
onomy	-6857
▁screening	-6858
ustain	-6859
▁composed	-6860
▁Angel	-6861
▁consume	-6862
▁encouraged	-6863
heric	-6864
▁rarely	-6865
▁signed	-6866
▁hazard	-6867
oston	-6868
▁Oper	-6869
▁escape	-6870
▁pestic	-6871
orph	-6872
▁Liter	-6873
▁theories	-6874
▁uncertain	-6875
▁strongly	-6876
ey	-6877
▁eliminate	-6878
▁Islam	-6879
▁fung	-6880
________	-6881
▁minute	-6882
chen	-6883
herent	-6884
AA	-6885
▁bigger	-6886
▁unusual	-6887
▁nob	-6888
▁threats	-6889
▁roads	-6890
▁agents	-6891
▁Indians	-6892
agraph	-6893
▁indicated	-6894
▁Cell	-6895
▁peak	-6896
▁turb	-6897
▁Heart	-6898
▁holes	-6899
riz	-6900
▁silver	-6901
▁Imp	-6902
▁anywhere	-6903
▁fishing	-6904
▁Organization	-6905
coming	-6906
▁Perhaps	-6907
▁sport	-6908
▁commission	-6909
▁printed	-6910
▁reward	-6911
▁Having	-6912
eut	-6913
▁Ur	-6914
ioxid	-6915
igue	-6916
tles	-6917
▁Lo	-6918
asty	-6919
▁Swed	-6920
▁infect	-6921
▁Alz	-6922
▁maybe	-6923
▁husband	-6924
▁fourth	-6925
▁Coast	-6926
▁engaged	-6927
▁intellectual	-6928
▁coron	-6929
▁Sar	-6930
▁roughly	-6931
▁weapons	-6932
▁AM	-6933
▁phenomenon	-6934
▁Person	-6935
▁neither	-6936
▁planned	-6937
▁remed	-6938
gien	-6939
▁delivered	-6940
iral	-6941
▁maintained	-6942
▁falls	-6943
▁sunlight	-6944
▁amazing	-6945
▁captured	-6946
▁vitamins	-6947
▁meals	-6948
▁imagine	-6949
▁Johnson	-6950
aired	-6951
ortion	-6952
▁arrest	-6953
greg	-6954
▁passing	-6955
▁workshe	-6956
▁nitrogen	-6957
▁cash	-6958
▁gro	-6959
ilation	-6960
▁prohib	-6961
esides	-6962
▁insert	-6963
▁mortality	-6964
▁Columbia	-6965
▁Desc	-6966
ounce	-6967
▁outer	-6968
ruption	-6969
▁spectrum	-6970
mers	-6971
incoln	-6972
▁senior	-6973
▁temple	-6974
▁physician	-6975
door	-6976
▁warning	-6977
otal	-6978
▁spin	-6979
▁Incre	-6980
▁Cast	-6981
▁Conservation	-6982
▁Thanks	-6983
▁Lim	-6984
essions	-6985
▁Wal	-6986
onn	-6987
▁influenced	-6988
vin	-6989
▁Did	-6990
▁wine	-6991
haust	-6992
▁proportion	-6993
▁trends	-6994
▁carrying	-6995
▁Sand	-6996
▁branches	-6997
▁pit	-6998
▁essentially	-6999
▁brows	-7000
mes	-7001
soft	-7002
▁finished	-7003
▁marks	-7004
icing	-7005
▁compound	-7006
▁presents	-7007
▁compris	-7008
▁islands	-7009
▁rab	-7010
▁Jac	-7011
▁theore	-7012
illa	-7013
▁stuff	-7014
▁Impro	-7015
eenth	-7016
iana	-7017
▁TO	-7018
▁printing	-7019
▁mineral	-7020
rav	-7021
bec	-7022
oir	-7023
▁config	-7024
▁dependent	-7025
▁defense	-7026
▁confirmed	-7027
abil	-7028
▁towns	-7029
▁difficulties	-7030
▁Lead	-7031
▁Vitamin	-7032
▁newly	-7033
▁engineers	-7034
▁mathematics	-7035
▁stores	-7036
▁recover	-7037
▁observe	-7038
▁Alzheimer	-7039
▁processed	-7040
cient	-7041
▁beings	-7042
▁grid	-7043
▁Play	-7044
▁Init	-7045
▁Consider	-7046
▁dates	-7047
▁Wall	-7048
▁dispos	-7049
▁decor	-7050
bar	-7051
▁flour	-7052
rox	-7053
▁orbit	-7054
▁correctly	-7055
▁Ins	-7056
yal	-7057
ogether	-7058
▁targets	-7059
▁id	-7060
cking	-7061
▁Ut	-7062
▁disrupt	-7063
▁enemy	-7064
▁fest	-7065
ecess	-7066
▁usual	-7067
▁errors	-7068
▁honey	-7069
▁listening	-7070
iat	-7071
▁Ol	-7072
olesc	-7073
▁seemed	-7074
▁attempts	-7075
▁Again	-7076
ograp	-7077
Go	-7078
▁modified	-7079
EE	-7080
ontal	-7081
▁officers	-7082
writ	-7083
▁Jeff	-7084
▁Mah	-7085
▁Cross	-7086
▁editor	-7087
▁Star	-7088
▁cyber	-7089
▁experiencing	-7090
▁inher	-7091
▁client	-7092
▁inn	-7093
▁gained	-7094
▁lake	-7095
▁television	-7096
ptions	-7097
▁fed	-7098
fts	-7099
▁kilomet	-7100
▁Bul	-7101
ucky	-7102
▁driver	-7103
angered	-7104
▁infant	-7105
)|	-7106
▁supplements	-7107
An	-7108
▁grows	-7109
▁Pur	-7110
▁pin	-7111
▁athlet	-7112
▁guard	-7113
▁Protection	-7114
▁bees	-7115
▁sought	-7116
icy	-7117
▁literacy	-7118
▁radical	-7119
▁giant	-7120
▁Obs	-7121
▁DO	-7122
ba	-7123
▁Ohio	-7124
print	-7125
▁providers	-7126
rous	-7127
oids	-7128
ailed	-7129
▁assume	-7130
▁innovative	-7131
▁tropical	-7132
▁accommod	-7133
▁protecting	-7134
▁lie	-7135
rane	-7136
▁windows	-7137
▁plane	-7138
▁Mot	-7139
▁microsc	-7140
mm	-7141
▁Pakistan	-7142
brew	-7143
▁player	-7144
▁phosph	-7145
▁cab	-7146
▁hardware	-7147
▁Books	-7148
▁faced	-7149
▁caught	-7150
▁sitting	-7151
istical	-7152
▁judge	-7153
ostic	-7154
▁Ven	-7155
▁strengthen	-7156
ette	-7157
▁Sir	-7158
▁satisf	-7159
▁stead	-7160
▁hosp	-7161
▁corner	-7162
rays	-7163
▁measuring	-7164
▁contemporary	-7165
▁Cambridge	-7166
ogs	-7167
ercury	-7168
▁molecular	-7169
▁Nov	-7170
▁Facebook	-7171
vania	-7172
▁abilities	-7173
▁principal	-7174
▁grain	-7175
▁Solar	-7176
rary	-7177
▁customer	-7178
▁antibiotics	-7179
ENT	-7180
▁Hospital	-7181
▁criminal	-7182
isco	-7183
▁identifying	-7184
▁opposed	-7185
Ar	-7186
sell	-7187
ricts	-7188
uten	-7189
▁claimed	-7190
▁Boston	-7191
▁Polit	-7192
▁Lincoln	-7193
▁initially	-7194
sm	-7195
▁stations	-7196
▁Understanding	-7197
▁characterized	-7198
▁neighborhood	-7199
▁statements	-7200
▁Far	-7201
▁cham	-7202
▁commitment	-7203
▁planting	-7204
▁transp	-7205
▁Policy	-7206
▁equally	-7207
▁Muslim	-7208
▁Pen	-7209
▁rose	-7210
▁Head	-7211
▁demands	-7212
▁cooling	-7213
effect	-7214
▁disabilities	-7215
▁bomb	-7216
▁universal	-7217
html	-7218
▁Survey	-7219
▁Help	-7220
▁slavery	-7221
▁diameter	-7222
▁subsequent	-7223
▁sensors	-7224
▁subt	-7225
▁wheel	-7226
▁drought	-7227
▁relie	-7228
)||	-7229
▁uncom	-7230
▁fatty	-7231
▁interpre	-7232
▁panels	-7233
abeth	-7234
▁evil	-7235
▁sus	-7236
▁dietary	-7237
▁consideration	-7238
▁compens	-7239
▁Being	-7240
▁evolved	-7241
▁unw	-7242
▁py	-7243
iary	-7244
▁manufacturers	-7245
▁Following	-7246
HA	-7247
▁elected	-7248
▁split	-7249
rus	-7250
▁stability	-7251
eness	-7252
▁prominent	-7253
▁investigation	-7254
▁IT	-7255
night	-7256
▁heavily	-7257
▁perm	-7258
unicip	-7259
▁automatically	-7260
▁array	-7261
▁CP	-7262
▁enables	-7263
▁ye	-7264
produ	-7265
▁branch	-7266
▁Spring	-7267
▁bag	-7268
lines	-7269
▁traditions	-7270
▁batteries	-7271
▁vocabulary	-7272
▁merely	-7273
▁authent	-7274
▁coc	-7275
▁overcome	-7276
▁structural	-7277
▁scar	-7278
American	-7279
▁managing	-7280
▁racial	-7281
▁Michigan	-7282
amics	-7283
including	-7284
▁Building	-7285
rison	-7286
▁Unlike	-7287
oli	-7288
▁absence	-7289
books	-7290
▁substantial	-7291
syl	-7292
▁inspired	-7293
▁intent	-7294
otherapy	-7295
▁Eliz	-7296
▁lungs	-7297
▁protective	-7298
▁Way	-7299
▁Scotland	-7300
▁autism	-7301
enger	-7302
▁proved	-7303
▁Corn	-7304
▁epis	-7305
▁interactive	-7306
▁exception	-7307
▁exclus	-7308
▁Division	-7309
▁chances	-7310
▁writers	-7311
▁suffered	-7312
▁functioning	-7313
▁Bal	-7314
▁tables	-7315
▁worst	-7316
▁updated	-7317
ailable	-7318
iture	-7319
▁exciting	-7320
▁conference	-7321
New	-7322
▁Small	-7323
▁ton	-7324
?"	-7325
semb	-7326
elfare	-7327
▁Blue	-7328
▁conj	-7329
▁decay	-7330
▁robot	-7331
class	-7332
▁mosquit	-7333
▁Road	-7334
▁coverage	-7335
▁plot	-7336
▁dynamic	-7337
▁gases	-7338
▁||	-7339
▁Card	-7340
▁defend	-7341
▁ceremon	-7342
▁Lee	-7343
▁flows	-7344
▁Georgia	-7345
opic	-7346
▁Var	-7347
itual	-7348
▁Force	-7349
▁driven	-7350
etary	-7351
▁heads	-7352
▁taxes	-7353
▁surge	-7354
▁Ly	-7355
▁IV	-7356
▁respectively	-7357
▁assigned	-7358
▁extend	-7359
▁suscept	-7360
va	-7361
pling	-7362
▁Invest	-7363
▁engaging	-7364
inf	-7365
▁laid	-7366
▁aged	-7367
▁reaching	-7368
▁finds	-7369
▁poem	-7370
hea	-7371
ested	-7372
▁stake	-7373
▁objectives	-7374
just	-7375
onym	-7376
▁smell	-7377
▁laser	-7378
▁considerable	-7379
▁Due	-7380
HS	-7381
▁Digital	-7382
amine	-7383
▁biom	-7384
▁button	-7385
▁strain	-7386
▁Hor	-7387
oric	-7388
▁occurring	-7389
▁nice	-7390
▁microb	-7391
▁Edward	-7392
▁Supreme	-7393
▁decreased	-7394
▁phrase	-7395
▁Comple	-7396
▁regardless	-7397
▁earliest	-7398
▁weakness	-7399
▁quiet	-7400
ude	-7401
▁Gar	-7402
▁Lin	-7403
▁alph	-7404
medi	-7405
▁intensity	-7406
▁translation	-7407
htt	-7408
▁fats	-7409
▁covering	-7410
▁mir	-7411
▁indigenous	-7412
▁educators	-7413
▁mg	-7414
▁cattle	-7415
▁Minister	-7416
▁enorm	-7417
▁Colorado	-7418
yer	-7419
▁AL	-7420
▁exhaust	-7421
▁compost	-7422
▁Analysis	-7423
▁affecting	-7424
ultane	-7425
▁oldest	-7426
▁imaging	-7427
▁Iran	-7428
▁finger	-7429
▁programme	-7430
▁Iss	-7431
▁Korea	-7432
▁wheat	-7433
▁victim	-7434
erly	-7435
icted	-7436
▁Pennsyl	-7437
▁assets	-7438
azon	-7439
▁van	-7440
▁EPA	-7441
▁lymph	-7442
peror	-7443
ansas	-7444
▁Christians	-7445
▁hidden	-7446
▁reveal	-7447
▁Drug	-7448
▁overwhel	-7449
iological	-7450
rance	-7451
▁interpretation	-7452
▁harder	-7453
angle	-7454
▁counsel	-7455
atively	-7456
▁)	-7457
▁Mic	-7458
▁tap	-7459
▁AC	-7460
▁advent	-7461
▁detected	-7462
ima	-7463
acts	-7464
cyclopedia	-7465
▁concerning	-7466
▁analys	-7467
▁cardiovascular	-7468
▁regulation	-7469
ori	-7470
▁Support	-7471
▁tick	-7472
holders	-7473
itarian	-7474
▁cort	-7475
▁antioxid	-7476
▁Kids	-7477
▁quarter	-7478
▁seat	-7479
aren	-7480
list	-7481
▁versions	-7482
▁examined	-7483
▁rect	-7484
▁adverse	-7485
▁interface	-7486
▁accompan	-7487
▁pros	-7488
▁Based	-7489
▁musical	-7490
oured	-7491
▁mixture	-7492
▁falling	-7493
▁bacterial	-7494
ema	-7495
▁adm	-7496
▁granted	-7497
▁channel	-7498
har	-7499
▁productivity	-7500
▁Rh	-7501
ura	-7502
▁identification	-7503
▁cure	-7504
▁Level	-7505
▁Physical	-7506
dr	-7507
▁Father	-7508
▁terror	-7509
▁swit	-7510
▁AT	-7511
▁writes	-7512
▁ordered	-7513
otype	-7514
▁farms	-7515
▁carbohyd	-7516
▁moderate	-7517
▁acres	-7518
▁researcher	-7519
▁mountains	-7520
▁cancers	-7521
▁lens	-7522
▁rhyth	-7523
▁computing	-7524
▁websites	-7525
▁resil	-7526
▁heritage	-7527
acent	-7528
▁Gener	-7529
▁promoting	-7530
allow	-7531
▁worship	-7532
▁Page	-7533
▁Model	-7534
▁sched	-7535
▁spray	-7536
ptom	-7537
▁creatures	-7538
sts	-7539
Un	-7540
▁fuels	-7541
▁sizes	-7542
▁Queen	-7543
theless	-7544
▁Mach	-7545
ruit	-7546
▁reporting	-7547
▁Wildlife	-7548
▁calling	-7549
▁AR	-7550
▁pandemic	-7551
brid	-7552
▁Hawai	-7553
▁Process	-7554
from	-7555
▁Point	-7556
aws	-7557
▁viewed	-7558
▁analyze	-7559
uset	-7560
▁Ve	-7561
▁Arctic	-7562
▁Harvard	-7563
rolled	-7564
▁planets	-7565
▁nutrient	-7566
NS	-7567
▁SS	-7568
▁Pennsylvania	-7569
▁advis	-7570
▁uniform	-7571
▁DC	-7572
▁audio	-7573
▁disability	-7574
▁permission	-7575
▁Battle	-7576
ett	-7577
▁stones	-7578
▁capabilities	-7579
▁urine	-7580
▁manifest	-7581
▁slaves	-7582
quar	-7583
neys	-7584
▁Circ	-7585
▁emphasis	-7586
▁insight	-7587
▁Pass	-7588
▁deficiency	-7589
athered	-7590
▁correl	-7591
▁ol	-7592
▁pla	-7593
▁girl	-7594
▁illegal	-7595
ieval	-7596
▁profit	-7597
eting	-7598
▁isolated	-7599
▁observation	-7600
▁forming	-7601
▁Section	-7602
usetts	-7603
▁chemistry	-7604
▁Agriculture	-7605
▁trauma	-7606
MP	-7607
▁tob	-7608
amination	-7609
▁mathematical	-7610
▁Systems	-7611
▁Right	-7612
irth	-7613
▁thermal	-7614
achusetts	-7615
▁quantity	-7616
▁rac	-7617
▁herb	-7618
▁introduce	-7619
asant	-7620
BT	-7621
▁drivers	-7622
alities	-7623
▁vaccines	-7624
▁concluded	-7625
▁container	-7626
▁Copyright	-7627
berry	-7628
▁inequ	-7629
▁Little	-7630
▁Often	-7631
▁Economic	-7632
▁Symptoms	-7633
apor	-7634
▁lock	-7635
▁agent	-7636
rize	-7637
▁dress	-7638
▁McC	-7639
▁comprom	-7640
ao	-7641
▁les	-7642
▁desert	-7643
▁preserve	-7644
▁contribution	-7645
▁Resp	-7646
▁shoot	-7647
▁tumor	-7648
▁embra	-7649
▁keeps	-7650
▁Writing	-7651
How	-7652
▁exploration	-7653
▁contributed	-7654
gence	-7655
▁conserv	-7656
▁paragraph	-7657
▁Laboratory	-7658
Sp	-7659
▁flexible	-7660
lete	-7661
▁steam	-7662
▁consumed	-7663
igare	-7664
▁ease	-7665
▁grains	-7666
rical	-7667
▁addressed	-7668
▁Mond	-7669
▁flash	-7670
adel	-7671
▁marketing	-7672
▁gast	-7673
▁cotton	-7674
▁alive	-7675
▁recycling	-7676
asts	-7677
▁fatigue	-7678
▁soul	-7679
▁cough	-7680
▁technological	-7681
▁fing	-7682
▁Hum	-7683
▁sensitivity	-7684
▁peoples	-7685
ochem	-7686
▁fra	-7687
▁quantum	-7688
▁tong	-7689
▁lighting	-7690
hus	-7691
▁Cost	-7692
itory	-7693
▁vel	-7694
▁experimental	-7695
▁focusing	-7696
▁tobacco	-7697
quir	-7698
▁Elizabeth	-7699
▁slave	-7700
▁lists	-7701
▁dance	-7702
▁hence	-7703
iva	-7704
▁killing	-7705
▁equation	-7706
▁variation	-7707
▁lip	-7708
▁wonderful	-7709
▁union	-7710
amps	-7711
▁Frid	-7712
▁Ok	-7713
▁flying	-7714
▁perception	-7715
ulpt	-7716
▁believes	-7717
▁initiative	-7718
▁clock	-7719
EF	-7720
edu	-7721
▁cord	-7722
▁Massachusetts	-7723
▁Justice	-7724
ipe	-7725
▁buried	-7726
▁ampl	-7727
▁substit	-7728
anger	-7729
▁Behav	-7730
▁waiting	-7731
▁Pain	-7732
▁mine	-7733
ymes	-7734
▁CH	-7735
▁Dutch	-7736
thon	-7737
▁polar	-7738
CA	-7739
▁hormones	-7740
▁Hebrew	-7741
ivest	-7742
▁directed	-7743
▁physically	-7744
eor	-7745
▁Wikipedia	-7746
▁safely	-7747
rection	-7748
▁improvements	-7749
▁representation	-7750
atal	-7751
▁stopped	-7752
▁scr	-7753
▁Mur	-7754
▁removing	-7755
▁balanced	-7756
DS	-7757
ographical	-7758
▁prosp	-7759
▁Ice	-7760
ami	-7761
▁conqu	-7762
▁personality	-7763
lights	-7764
▁availability	-7765
uits	-7766
una	-7767
mod	-7768
▁transmit	-7769
reated	-7770
friend	-7771
▁bless	-7772
▁acquired	-7773
ugg	-7774
▁resid	-7775
▁hunting	-7776
▁argue	-7777
OM	-7778
▁sentences	-7779
iger	-7780
fulness	-7781
▁HT	-7782
▁aimed	-7783
▁vertical	-7784
▁losses	-7785
▁sensor	-7786
▁neutral	-7787
▁trick	-7788
▁engines	-7789
zer	-7790
▁tor	-7791
irms	-7792
▁duty	-7793
▁guess	-7794
▁Diet	-7795
For	-7796
earch	-7797
▁Him	-7798
▁visited	-7799
▁insights	-7800
▁ran	-7801
▁boundaries	-7802
▁Proble	-7803
alm	-7804
▁performing	-7805
▁communications	-7806
words	-7807
▁Still	-7808
▁Later	-7809
▁hygien	-7810
▁Max	-7811
ocolate	-7812
▁summary	-7813
▁wisdom	-7814
▁mothers	-7815
▁movie	-7816
istant	-7817
▁sustainability	-7818
▁conce	-7819
▁eru	-7820
▁Place	-7821
OW	-7822
▁addiction	-7823
▁joints	-7824
▁humanity	-7825
▁fellow	-7826
▁styles	-7827
▁watching	-7828
▁Sunday	-7829
real	-7830
▁charged	-7831
▁pH	-7832
▁thread	-7833
icular	-7834
▁temporary	-7835
▁manager	-7836
▁emerging	-7837
▁Indeed	-7838
▁metals	-7839
',	-7840
advant	-7841
▁Farm	-7842
mann	-7843
▁simultane	-7844
▁interventions	-7845
▁Emer	-7846
▁painful	-7847
▁Crit	-7848
▁fires	-7849
▁ven	-7850
▁variations	-7851
▁entertain	-7852
▁superior	-7853
▁Standard	-7854
▁scores	-7855
▁exhibit	-7856
▁spr	-7857
▁ritual	-7858
▁faces	-7859
▁priority	-7860
▁sup	-7861
▁geomet	-7862
▁Spirit	-7863
▁separated	-7864
icity	-7865
orted	-7866
esh	-7867
▁Code	-7868
▁tip	-7869
▁directions	-7870
▁inhabit	-7871
▁owned	-7872
ivestock	-7873
▁descript	-7874
▁parameters	-7875
▁myst	-7876
▁Stan	-7877
.).	-7878
ket	-7879
▁UV	-7880
▁drinks	-7881
oves	-7882
▁boat	-7883
▁ID	-7884
▁democracy	-7885
▁Fil	-7886
▁expectations	-7887
ishop	-7888
▁dimens	-7889
▁ethical	-7890
adow	-7891
asy	-7892
avirus	-7893
box	-7894
ashes	-7895
▁officer	-7896
▁reverse	-7897
▁Music	-7898
▁pilot	-7899
▁spots	-7900
gon	-7901
▁executive	-7902
▁craft	-7903
▁irrig	-7904
▁settlement	-7905
▁Blood	-7906
ali	-7907
▁Historical	-7908
▁cas	-7909
▁digestive	-7910
usalem	-7911
elescope	-7912
▁attach	-7913
atial	-7914
▁evening	-7915
▁dairy	-7916
▁lowest	-7917
▁preced	-7918
▁Put	-7919
sen	-7920
▁achievement	-7921
mia	-7922
▁MA	-7923
▁characteristic	-7924
▁dies	-7925
▁abstract	-7926
▁medicines	-7927
lock	-7928
▁pets	-7929
▁Pu	-7930
▁telling	-7931
▁gum	-7932
anted	-7933
▁CA	-7934
▁fo	-7935
▁expertise	-7936
▁sodium	-7937
▁Material	-7938
▁tack	-7939
▁handling	-7940
▁Ira	-7941
▁expanded	-7942
▁definitely	-7943
▁cann	-7944
ptic	-7945
ricted	-7946
▁emotion	-7947
▁clothes	-7948
eries	-7949
▁narrative	-7950
▁thereby	-7951
iop	-7952
▁pointed	-7953
▁dim	-7954
▁clients	-7955
▁Islamic	-7956
▁Philipp	-7957
▁scope	-7958
▁Watch	-7959
▁applying	-7960
▁ecosystems	-7961
▁threatened	-7962
▁Should	-7963
flamm	-7964
chain	-7965
Ex	-7966
▁psychology	-7967
▁holiday	-7968
▁ordinary	-7969
▁nutritional	-7970
▁logic	-7971
▁shed	-7972
gr	-7973
▁incident	-7974
▁Hard	-7975
▁reasonable	-7976
▁sect	-7977
endment	-7978
▁feels	-7979
▁Francisco	-7980
erty	-7981
oto	-7982
▁Bang	-7983
urches	-7984
EO	-7985
▁migration	-7986
iration	-7987
▁gravity	-7988
▁empty	-7989
borne	-7990
.'	-7991
▁dism	-7992
▁manual	-7993
▁fur	-7994
▁Confed	-7995
▁wouldn	-7996
▁saving	-7997
▁entering	-7998
▁weigh	-7999
arn	-8000
century	-8001
neum	-8002
bel	-8003
▁asc	-8004
▁biodiversity	-8005
▁Conference	-8006
uum	-8007
▁wearing	-8008
mentia	-8009
▁plain	-8010
▁Daniel	-8011
▁Palest	-8012
▁remarkable	-8013
▁deeply	-8014
def	-8015
▁dense	-8016
iments	-8017
▁rh	-8018
▁Different	-8019
▁adolesc	-8020
▁streets	-8021
▁convert	-8022
▁devast	-8023
▁Examples	-8024
▁elsewhere	-8025
▁choosing	-8026
▁contributions	-8027
▁universities	-8028
And	-8029
▁haven	-8030
▁spoken	-8031
▁spinal	-8032
▁determining	-8033
usive	-8034
▁libr	-8035
▁Amazon	-8036
mented	-8037
▁Friday	-8038
▁Call	-8039
▁Saint	-8040
rh	-8041
▁calculated	-8042
▁Bureau	-8043
▁Independ	-8044
▁classified	-8045
▁Islands	-8046
▁fisher	-8047
wan	-8048
▁rational	-8049
nut	-8050
▁£	-8051
▁dramatic	-8052
ician	-8053
bean	-8054
▁orb	-8055
▁saved	-8056
▁raising	-8057
▁Microsoft	-8058
▁Jerusalem	-8059
opher	-8060
archy	-8061
▁juice	-8062
▁friendly	-8063
▁bleeding	-8064
ipher	-8065
▁Navy	-8066
▁Nob	-8067
CP	-8068
▁Andrew	-8069
▁attitude	-8070
▁preferred	-8071
▁losing	-8072
oul	-8073
▁duration	-8074
▁beans	-8075
▁chair	-8076
▁Print	-8077
ati	-8078
▁Offic	-8079
They	-8080
▁resc	-8081
▁aging	-8082
▁Li	-8083
inois	-8084
▁Within	-8085
▁societies	-8086
▁celebrated	-8087
▁?	-8088
hire	-8089
▁Alexander	-8090
▁Contact	-8091
▁enormous	-8092
▁Arts	-8093
▁Between	-8094
▁sessions	-8095
▁propag	-8096
▁integration	-8097
eping	-8098
▁regarded	-8099
bell	-8100
▁behavioral	-8101
▁celebrate	-8102
▁Media	-8103
▁Parliament	-8104
endar	-8105
▁arguments	-8106
▁Interest	-8107
▁Image	-8108
▁households	-8109
ouds	-8110
▁Ast	-8111
▁fought	-8112
oons	-8113
▁Nutrition	-8114
▁vegetable	-8115
▁differently	-8116
▁Los	-8117
▁savings	-8118
▁Mid	-8119
▁linear	-8120
rix	-8121
▁appointed	-8122
▁Sustain	-8123
erman	-8124
▁hall	-8125
▁Gall	-8126
▁promise	-8127
idal	-8128
▁concentrations	-8129
▁thyroid	-8130
▁tribes	-8131
▁proceed	-8132
▁Clean	-8133
▁Ram	-8134
▁requirement	-8135
▁symbols	-8136
▁orders	-8137
▁Import	-8138
▁gent	-8139
▁wider	-8140
kind	-8141
▁continuing	-8142
foot	-8143
uther	-8144
▁loose	-8145
▁Select	-8146
ceans	-8147
pled	-8148
▁Trust	-8149
▁colonial	-8150
▁prey	-8151
▁fet	-8152
▁spacecraft	-8153
IF	-8154
▁reput	-8155
fast	-8156
▁orange	-8157
play	-8158
▁optimal	-8159
▁diarr	-8160
omer	-8161
MA	-8162
▁newspaper	-8163
▁Ha	-8164
▁Best	-8165
▁districts	-8166
▁minds	-8167
▁infants	-8168
▁extension	-8169
erts	-8170
▁actively	-8171
▁unn	-8172
▁;	-8173
When	-8174
▁Self	-8175
▁Fred	-8176
▁lifetime	-8177
vi	-8178
▁Gulf	-8179
▁Rest	-8180
▁tens	-8181
agnetic	-8182
▁specialized	-8183
gener	-8184
▁transmitted	-8185
▁cul	-8186
lims	-8187
▁Occ	-8188
assium	-8189
▁targeted	-8190
▁passion	-8191
▁associate	-8192
▁recre	-8193
CH	-8194
jo	-8195
▁absorb	-8196
▁Week	-8197
▁throat	-8198
urning	-8199
sor	-8200
▁Fish	-8201
unning	-8202
▁workplace	-8203
▁ranging	-8204
▁barriers	-8205
▁Short	-8206
asma	-8207
▁vegetation	-8208
▁Wed	-8209
reens	-8210
itting	-8211
▁graduate	-8212
▁strike	-8213
▁grades	-8214
▁verb	-8215
ailing	-8216
▁restaur	-8217
▁Cub	-8218
▁Introduction	-8219
▁meaningful	-8220
▁funded	-8221
▁exploring	-8222
aints	-8223
▁integr	-8224
▁Dictionary	-8225
ogenic	-8226
▁Prim	-8227
▁creativity	-8228
▁pollut	-8229
▁beat	-8230
▁outbreak	-8231
▁Biology	-8232
aka	-8233
▁Ba	-8234
mentation	-8235
▁planted	-8236
Sh	-8237
▁ecological	-8238
izers	-8239
▁dil	-8240
▁exped	-8241
▁pupils	-8242
▁replacement	-8243
esium	-8244
▁oxid	-8245
▁Think	-8246
▁Major	-8247
▁solving	-8248
▁jur	-8249
▁develops	-8250
▁Practice	-8251
▁grounds	-8252
▁sad	-8253
▁Given	-8254
olk	-8255
world	-8256
▁pill	-8257
▁Van	-8258
],	-8259
▁paying	-8260
▁trem	-8261
▁conclus	-8262
▁Norm	-8263
▁Indones	-8264
▁Working	-8265
▁Hyd	-8266
obile	-8267
operative	-8268
onal	-8269
▁opposition	-8270
ranean	-8271
▁converted	-8272
▁shaped	-8273
▁interior	-8274
roud	-8275
lu	-8276
▁references	-8277
▁profile	-8278
▁breaking	-8279
agen	-8280
▁SP	-8281
▁restore	-8282
▁sculpt	-8283
▁Iraq	-8284
'.	-8285
▁atoms	-8286
orig	-8287
EA	-8288
▁Local	-8289
▁adapted	-8290
▁Much	-8291
▁literary	-8292
▁shorter	-8293
OD	-8294
▁powder	-8295
▁breaks	-8296
▁cub	-8297
▁anticip	-8298
▁sulf	-8299
▁outdoor	-8300
▁bare	-8301
▁hat	-8302
▁circulation	-8303
▁convey	-8304
▁assembly	-8305
▁illnesses	-8306
▁investigate	-8307
▁wash	-8308
▁personnel	-8309
▁coat	-8310
▁settled	-8311
▁OS	-8312
▁engagement	-8313
▁discussions	-8314
▁hospitals	-8315
▁equality	-8316
▁Chief	-8317
▁courts	-8318
▁royal	-8319
▁Move	-8320
▁default	-8321
▁obst	-8322
▁Monday	-8323
▁chap	-8324
▁mouse	-8325
ogy	-8326
▁ears	-8327
▁peer	-8328
▁appeal	-8329
▁committee	-8330
ensed	-8331
▁Computer	-8332
▁addresses	-8333
▁PDF	-8334
▁cheap	-8335
▁Squ	-8336
▁mature	-8337
▁Poly	-8338
▁virtually	-8339
▁Illinois	-8340
raine	-8341
▁occas	-8342
made	-8343
▁Aff	-8344
▁Mess	-8345
agan	-8346
▁habitats	-8347
izz	-8348
▁facilitate	-8349
▁colonies	-8350
▁limitations	-8351
▁buff	-8352
▁poetry	-8353
▁Ell	-8354
▁forecast	-8355
▁photographs	-8356
▁pace	-8357
▁frust	-8358
▁couldn	-8359
▁Heritage	-8360
elve	-8361
▁minimize	-8362
▁reaches	-8363
▁vibr	-8364
▁annually	-8365
▁chicken	-8366
:||	-8367
EG	-8368
▁Town	-8369
▁aggressive	-8370
▁Capt	-8371
▁wat	-8372
▁versus	-8373
▁pel	-8374
▁resistant	-8375
▁puzz	-8376
ourse	-8377
▁entit	-8378
tw	-8379
▁embry	-8380
▁Field	-8381
▁prescribed	-8382
ackson	-8383
▁attribut	-8384
▁acting	-8385
▁consciousness	-8386
hal	-8387
▁returns	-8388
mega	-8389
▁ham	-8390
▁suit	-8391
ols	-8392
ila	-8393
▁Text	-8394
▁copyright	-8395
▁crypt	-8396
▁encounter	-8397
▁globe	-8398
▁oils	-8399
▁surgical	-8400
▁tone	-8401
▁cow	-8402
▁Lew	-8403
▁club	-8404
▁alarm	-8405
position	-8406
aware	-8407
▁corresponding	-8408
▁joy	-8409
Med	-8410
▁controlling	-8411
▁sug	-8412
▁pione	-8413
▁competitive	-8414
▁Christianity	-8415
▁privacy	-8416
dd	-8417
▁noticed	-8418
olves	-8419
▁myself	-8420
▁classic	-8421
▁Product	-8422
▁preparing	-8423
rypt	-8424
▁tomat	-8425
▁viral	-8426
▁nuts	-8427
▁varies	-8428
▁Testament	-8429
lymp	-8430
▁Exp	-8431
unc	-8432
apes	-8433
▁cooperation	-8434
▁Brain	-8435
▁currency	-8436
opl	-8437
▁specified	-8438
▁ash	-8439
▁buying	-8440
umer	-8441
▁Dam	-8442
adelph	-8443
disc	-8444
▁enthus	-8445
▁soph	-8446
▁Connect	-8447
▁literally	-8448
▁Temple	-8449
zyme	-8450
▁province	-8451
▁anger	-8452
%,	-8453
▁tab	-8454
▁Century	-8455
▁Portug	-8456
▁Obama	-8457
▁Ancient	-8458
▁differ	-8459
plo	-8460
through	-8461
▁Area	-8462
▁municip	-8463
▁Secretary	-8464
▁purchased	-8465
▁basically	-8466
TH	-8467
awn	-8468
But	-8469
▁degrad	-8470
▁membrane	-8471
▁scenario	-8472
▁strategic	-8473
▁tends	-8474
▁acknowled	-8475
▁Mind	-8476
▁span	-8477
▁complexity	-8478
▁Master	-8479
▁withdraw	-8480
▁Proper	-8481
ico	-8482
▁essays	-8483
▁hal	-8484
▁probability	-8485
▁Ott	-8486
▁gardens	-8487
▁accurately	-8488
▁Teaching	-8489
▁classical	-8490
▁seriously	-8491
eutic	-8492
▁Near	-8493
▁accompanied	-8494
▁specialist	-8495
▁calculate	-8496
▁arthritis	-8497
▁Die	-8498
▁posts	-8499
▁marg	-8500
eath	-8501
▁Applic	-8502
▁Tradition	-8503
▁Ide	-8504
thew	-8505
▁fascinating	-8506
▁origins	-8507
▁Clinical	-8508
Cl	-8509
▁deploy	-8510
Gen	-8511
uan	-8512
▁Action	-8513
▁establishment	-8514
▁tact	-8515
▁oste	-8516
▁sevent	-8517
green	-8518
▁mask	-8519
rip	-8520
▁NOT	-8521
abling	-8522
uscript	-8523
▁gathered	-8524
▁Prom	-8525
▁gift	-8526
▁tension	-8527
▁dominant	-8528
▁Marine	-8529
▁calm	-8530
▁registered	-8531
▁Sus	-8532
▁shore	-8533
cin	-8534
▁argued	-8535
▁healthier	-8536
▁violent	-8537
▁emerged	-8538
▁contributing	-8539
▁labour	-8540
▁auto	-8541
▁begun	-8542
quality	-8543
!”	-8544
▁realized	-8545
▁gly	-8546
thod	-8547
urable	-8548
▁Hindu	-8549
section	-8550
zo	-8551
issipp	-8552
▁wal	-8553
▁chose	-8554
▁songs	-8555
icating	-8556
▁livestock	-8557
▁Paper	-8558
▁dropped	-8559
▁swelling	-8560
▁opinions	-8561
▁traits	-8562
CR	-8563
▁tempor	-8564
▁Tool	-8565
▁Kent	-8566
requ	-8567
▁tongue	-8568
▁readily	-8569
▁Scholar	-8570
▁ho	-8571
▁gif	-8572
▁welfare	-8573
▁Antar	-8574
▁Ministry	-8575
▁accord	-8576
raham	-8577
asm	-8578
ifier	-8579
▁Muslims	-8580
▁Fed	-8581
▁barrier	-8582
Sc	-8583
▁possibilities	-8584
▁FDA	-8585
flu	-8586
▁dating	-8587
▁Ult	-8588
▁sale	-8589
▁overview	-8590
▁Similarly	-8591
urrent	-8592
▁tu	-8593
▁Alaska	-8594
icking	-8595
▁addressing	-8596
shaped	-8597
▁stood	-8598
adelphia	-8599
encing	-8600
regon	-8601
▁invention	-8602
▁Assessment	-8603
▁practition	-8604
▁involvement	-8605
▁Questions	-8606
▁Apple	-8607
▁bee	-8608
▁Colon	-8609
▁perceived	-8610
text	-8611
ometer	-8612
▁Garden	-8613
▁profound	-8614
▁caps	-8615
▁Mexican	-8616
rue	-8617
oca	-8618
▁parad	-8619
▁maxim	-8620
▁incent	-8621
iders	-8622
▁prime	-8623
▁CT	-8624
▁teens	-8625
▁Commons	-8626
▁metabolism	-8627
▁sleeping	-8628
ais	-8629
▁recording	-8630
▁kingdom	-8631
▁subsc	-8632
▁Redu	-8633
▁Relig	-8634
▁compass	-8635
olt	-8636
▁Vietnam	-8637
▁scheme	-8638
▁Encyclopedia	-8639
▁disadvant	-8640
▁flexibility	-8641
▁inch	-8642
▁conversion	-8643
▁intention	-8644
▁Jackson	-8645
▁Olymp	-8646
rowth	-8647
▁severity	-8648
▁Altern	-8649
▁Station	-8650
▁explicit	-8651
▁assumed	-8652
▁Typ	-8653
zymes	-8654
aya	-8655
▁everywhere	-8656
▁Ren	-8657
iner	-8658
▁initiatives	-8659
▁evident	-8660
ideo	-8661
▁crown	-8662
▁efficiently	-8663
▁pairs	-8664
▁Convention	-8665
▁contents	-8666
▁Origin	-8667
▁sees	-8668
▁Teachers	-8669
▁soils	-8670
▁collective	-8671
awa	-8672
▁CDC	-8673
cule	-8674
▁partnership	-8675
▁Log	-8676
▁arise	-8677
▁restoration	-8678
▁Full	-8679
AB	-8680
ologically	-8681
▁unlikely	-8682
▁NO	-8683
▁reveals	-8684
▁finish	-8685
▁PL	-8686
▁Answ	-8687
▁heaven	-8688
▁minimal	-8689
▁sacred	-8690
▁underground	-8691
▁allergies	-8692
▁Individual	-8693
▁surprise	-8694
▁Ariz	-8695
▁displayed	-8696
▁accomplish	-8697
rub	-8698
▁restrictions	-8699
sex	-8700
▁clay	-8701
cut	-8702
▁attitudes	-8703
iler	-8704
ifice	-8705
▁noun	-8706
▁phones	-8707
▁volunteers	-8708
uis	-8709
▁debris	-8710
▁quantities	-8711
mond	-8712
▁existed	-8713
icts	-8714
▁Schools	-8715
▁spoke	-8716
▁happiness	-8717
▁productive	-8718
▁soy	-8719
▁alert	-8720
▁hygiene	-8721
ocity	-8722
▁mammals	-8723
▁Rail	-8724
▁payment	-8725
▁Others	-8726
▁utility	-8727
▁Third	-8728
▁Map	-8729
▁shr	-8730
▁Walk	-8731
▁Scientific	-8732
enced	-8733
▁reign	-8734
▁Mississipp	-8735
elly	-8736
uled	-8737
▁installation	-8738
▁Creek	-8739
▁regulate	-8740
▁requiring	-8741
▁PhD	-8742
▁package	-8743
▁Exerc	-8744
▁employee	-8745
bow	-8746
▁cream	-8747
▁rooms	-8748
▁draft	-8749
▁earthquake	-8750
▁Need	-8751
outheast	-8752
▁Hence	-8753
▁embed	-8754
sembly	-8755
▁prayer	-8756
▁Oregon	-8757
▁penet	-8758
reprene	-8759
▁alumin	-8760
▁ion	-8761
UL	-8762
▁oblig	-8763
▁scat	-8764
▁dish	-8765
▁reserved	-8766
▁Fair	-8767
▁streams	-8768
▁Greece	-8769
▁burden	-8770
▁winds	-8771
▁Line	-8772
BM	-8773
▁tom	-8774
▁trace	-8775
▁glac	-8776
tering	-8777
▁chocolate	-8778
ilst	-8779
uity	-8780
▁Rather	-8781
oded	-8782
▁impair	-8783
isations	-8784
▁chromos	-8785
▁Benef	-8786
▁Photo	-8787
▁Santa	-8788
▁qualities	-8789
▁suicide	-8790
▁strange	-8791
▁susceptible	-8792
▁Const	-8793
▁developments	-8794
▁Training	-8795
pdf	-8796
mal	-8797
apped	-8798
▁lakes	-8799
▁Moses	-8800
▁Below	-8801
▁wise	-8802
▁Hem	-8803
▁immigrants	-8804
▁Senate	-8805
▁sciences	-8806
urse	-8807
ifer	-8808
▁transplant	-8809
▁enjoyed	-8810
▁invasive	-8811
▁managers	-8812
▁wars	-8813
▁sheep	-8814
▁influences	-8815
▁Making	-8816
▁permit	-8817
▁assignment	-8818
▁genome	-8819
▁prox	-8820
No	-8821
▁uncle	-8822
▁Tit	-8823
▁colony	-8824
ogens	-8825
▁ownership	-8826
imm	-8827
▁Jacob	-8828
▁prevalence	-8829
ffe	-8830
imp	-8831
▁Student	-8832
▁adopt	-8833
▁platforms	-8834
▁representing	-8835
▁victory	-8836
▁representative	-8837
▁passes	-8838
friendly	-8839
▁puts	-8840
▁endangered	-8841
▁hypothesis	-8842
▁LED	-8843
plate	-8844
▁wings	-8845
▁encouraging	-8846
▁Turn	-8847
▁discipline	-8848
mble	-8849
▁Rab	-8850
eras	-8851
▁suddenly	-8852
▁dipl	-8853
▁worker	-8854
▁logical	-8855
dep	-8856
▁dementia	-8857
▁armed	-8858
▁advances	-8859
ocated	-8860
worth	-8861
▁assert	-8862
▁visits	-8863
▁Risk	-8864
▁applies	-8865
▁Philadelphia	-8866
▁bears	-8867
▁tumors	-8868
▁motivation	-8869
▁Ont	-8870
profit	-8871
▁diets	-8872
atus	-8873
▁designated	-8874
best	-8875
▁Gh	-8876
▁vig	-8877
▁Talk	-8878
▁perfectly	-8879
http	-8880
▁alternatives	-8881
!!	-8882
▁curve	-8883
▁wing	-8884
oler	-8885
▁Sleep	-8886
onents	-8887
ouri	-8888
▁borrow	-8889
▁varied	-8890
▁council	-8891
▁certific	-8892
▁Create	-8893
▁popularity	-8894
iterranean	-8895
▁kg	-8896
▁Number	-8897
▁hopes	-8898
▁revenue	-8899
▁sending	-8900
swe	-8901
▁Corpor	-8902
▁algorithms	-8903
atoes	-8904
▁precip	-8905
▁rod	-8906
▁Integ	-8907
elect	-8908
▁knee	-8909
▁algorithm	-8910
▁Sn	-8911
ker	-8912
▁Univers	-8913
▁Uk	-8914
▁memor	-8915
▁electrons	-8916
▁preserv	-8917
rait	-8918
claim	-8919
▁module	-8920
astics	-8921
▁meetings	-8922
▁Aud	-8923
▁apparently	-8924
▁beneath	-8925
▁candidate	-8926
power	-8927
irable	-8928
acles	-8929
▁wooden	-8930
▁gods	-8931
▁Ent	-8932
▁vom	-8933
▁Spe	-8934
▁incorporate	-8935
▁incidence	-8936
▁zones	-8937
▁Arizona	-8938
▁developers	-8939
bered	-8940
▁eleph	-8941
▁Mississippi	-8942
▁transferred	-8943
▁dentist	-8944
▁transc	-8945
.:	-8946
vation	-8947
▁accounting	-8948
rics	-8949
▁brains	-8950
▁Story	-8951
▁Mountain	-8952
▁dict	-8953
zone	-8954
▁paintings	-8955
▁Abraham	-8956
▁prevents	-8957
▁reflected	-8958
▁containers	-8959
▁visiting	-8960
▁constra	-8961
▁rainfall	-8962
▁apps	-8963
▁spreading	-8964
▁blank	-8965
▁revers	-8966
▁contaminated	-8967
▁pesticides	-8968
▁bonds	-8969
▁mistakes	-8970
ivities	-8971
▁Jr	-8972
▁Hit	-8973
▁Wilson	-8974
mail	-8975
▁ranges	-8976
issance	-8977
▁Defin	-8978
ugs	-8979
▁symptom	-8980
▁optical	-8981
▁Neg	-8982
▁flavor	-8983
▁ft	-8984
sters	-8985
▁totally	-8986
redit	-8987
ghan	-8988
bage	-8989
▁Fig	-8990
▁reef	-8991
▁varying	-8992
▁tough	-8993
▁indirect	-8994
▁Write	-8995
▁Name	-8996
stru	-8997
▁hydro	-8998
▁neurolog	-8999
▁acceptable	-9000
▁privile	-9001
▁Future	-9002
▁pipe	-9003
bury	-9004
▁Doc	-9005
▁dimensions	-9006
rin	-9007
ref	-9008
▁deer	-9009
▁dimin	-9010
▁dried	-9011
▁ultimate	-9012
▁salmon	-9013
orus	-9014
▁churches	-9015
▁improves	-9016
worm	-9017
▁hurt	-9018
▁dramatically	-9019
▁straw	-9020
▁Unt	-9021
▁neurons	-9022
▁elderly	-9023
page	-9024
▁bron	-9025
▁codes	-9026
▁doses	-9027
duction	-9028
▁Standards	-9029
▁Williams	-9030
▁Son	-9031
▁satisfact	-9032
olph	-9033
▁achieving	-9034
▁documented	-9035
▁lecture	-9036
isd	-9037
ATION	-9038
▁channels	-9039
▁particle	-9040
▁ster	-9041
▁Parents	-9042
▁cuts	-9043
▁Twitter	-9044
sk	-9045
regular	-9046
▁thank	-9047
child	-9048
ricks	-9049
enter	-9050
▁celeb	-9051
▁engineer	-9052
▁Object	-9053
owered	-9054
▁disk	-9055
▁Fac	-9056
▁minority	-9057
iblical	-9058
▁sister	-9059
▁instances	-9060
ricane	-9061
▁alongside	-9062
▁encl	-9063
▁kitchen	-9064
aved	-9065
▁bottle	-9066
▁NY	-9067
▁Sud	-9068
▁bought	-9069
nia	-9070
▁estate	-9071
▁suggestions	-9072
▁neglect	-9073
SP	-9074
▁diagram	-9075
▁conflicts	-9076
▁Bern	-9077
▁Wales	-9078
▁bias	-9079
eem	-9080
▁themes	-9081
▁amino	-9082
▁predicted	-9083
▁contamination	-9084
unar	-9085
ji	-9086
▁Fer	-9087
▁enforcement	-9088
▁Mediterranean	-9089
▁whenever	-9090
▁unem	-9091
▁crack	-9092
thur	-9093
OP	-9094
▁spine	-9095
▁Tar	-9096
western	-9097
▁accidents	-9098
▁Cook	-9099
▁attractive	-9100
ubble	-9101
▁Chall	-9102
▁segment	-9103
▁occupied	-9104
▁elementary	-9105
nesota	-9106
▁notion	-9107
▁repeat	-9108
▁Indigenous	-9109
▁cycles	-9110
▁password	-9111
▁preserved	-9112
▁absolutely	-9113
▁establishing	-9114
▁copies	-9115
▁cable	-9116
▁shoulder	-9117
▁implementing	-9118
▁reproductive	-9119
▁Java	-9120
▁analyzed	-9121
▁register	-9122
function	-9123
iano	-9124
▁tracking	-9125
rint	-9126
DL	-9127
▁gate	-9128
iations	-9129
▁expanding	-9130
▁corporate	-9131
▁Real	-9132
oked	-9133
▁allergic	-9134
▁doors	-9135
▁descend	-9136
▁discharge	-9137
efficient	-9138
specific	-9139
▁fifth	-9140
eller	-9141
▁robust	-9142
▁peers	-9143
▁combine	-9144
▁Hig	-9145
▁Cond	-9146
▁Culture	-9147
enda	-9148
author	-9149
▁honest	-9150
▁rays	-9151
▁identical	-9152
inth	-9153
▁glob	-9154
▁till	-9155
▁Mrs	-9156
▁stabil	-9157
ois	-9158
On	-9159
▁oceans	-9160
▁disturb	-9161
▁Available	-9162
▁remem	-9163
▁elections	-9164
▁fingers	-9165
ective	-9166
▁Enter	-9167
▁faculty	-9168
berries	-9169
orters	-9170
▁Mother	-9171
▁nom	-9172
aneous	-9173
aternal	-9174
▁posted	-9175
▁Ho	-9176
▁magazine	-9177
▁spons	-9178
▁Nic	-9179
ighth	-9180
▁canal	-9181
▁Jack	-9182
▁gest	-9183
▁Egyptian	-9184
▁simultaneously	-9185
▁swimming	-9186
▁(“	-9187
▁regulatory	-9188
▁GM	-9189
oline	-9190
ceptions	-9191
▁summar	-9192
amil	-9193
ika	-9194
ouses	-9195
▁absorption	-9196
▁eaten	-9197
date	-9198
▁occasionally	-9199
▁equipped	-9200
▁distant	-9201
▁magnitude	-9202
▁consuming	-9203
▁Enc	-9204
grade	-9205
▁Hab	-9206
▁grams	-9207
▁rib	-9208
▁distinguish	-9209
▁evolutionary	-9210
▁aside	-9211
▁ending	-9212
▁Angeles	-9213
▁guarantee	-9214
gments	-9215
▁confusion	-9216
▁valve	-9217
▁plates	-9218
▁ancestors	-9219
▁beach	-9220
▁fraction	-9221
▁Minnesota	-9222
cho	-9223
▁bite	-9224
▁sectors	-9225
▁shoes	-9226
▁stere	-9227
▁relate	-9228
▁tort	-9229
▁surprising	-9230
▁Bell	-9231
▁legend	-9232
▁exceed	-9233
▁repet	-9234
▁cited	-9235
aven	-9236
▁proposal	-9237
gebra	-9238
▁operated	-9239
▁confident	-9240
aine	-9241
▁legit	-9242
▁Ash	-9243
▁prolong	-9244
▁rough	-9245
▁clouds	-9246
▁Hot	-9247
▁cyl	-9248
▁panc	-9249
▁producers	-9250
▁avoiding	-9251
▁discom	-9252
nea	-9253
▁Mental	-9254
▁hybrid	-9255
▁pneum	-9256
▁subsid	-9257
▁Theory	-9258
▁athletes	-9259
▁ruled	-9260
▁appreciate	-9261
▁fant	-9262
elihood	-9263
▁villages	-9264
▁Luc	-9265
▁RNA	-9266
▁ul	-9267
▁irrigation	-9268
▁restricted	-9269
▁~	-9270
▁entitled	-9271
▁developmental	-9272
▁consent	-9273
▁burned	-9274
▁prosper	-9275
QL	-9276
▁Adam	-9277
▁statistical	-9278
▁citizen	-9279
▁bags	-9280
▁provision	-9281
▁inev	-9282
terior	-9283
PR	-9284
▁infectious	-9285
▁Bh	-9286
▁throw	-9287
▁CR	-9288
after	-9289
▁pine	-9290
expected	-9291
▁neighb	-9292
▁compos	-9293
▁diagnostic	-9294
▁blo	-9295
eling	-9296
▁incorporated	-9297
▁transformation	-9298
etically	-9299
▁memories	-9300
▁Maryland	-9301
cled	-9302
▁sons	-9303
▁isolation	-9304
▁Living	-9305
▁sheets	-9306
▁BM	-9307
▁sew	-9308
▁herself	-9309
▁ADHD	-9310
▁hol	-9311
doi	-9312
▁bull	-9313
ologic	-9314
▁Event	-9315
▁Volume	-9316
▁residential	-9317
▁ON	-9318
▁refused	-9319
▁neuro	-9320
▁continent	-9321
▁lob	-9322
ador	-9323
▁potassium	-9324
GE	-9325
▁translated	-9326
▁Jones	-9327
▁stretch	-9328
▁SC	-9329
▁judgment	-9330
▁cheese	-9331
▁favour	-9332
▁abandoned	-9333
ospel	-9334
anz	-9335
▁vag	-9336
▁Grade	-9337
▁incom	-9338
▁pose	-9339
▁elevated	-9340
▁cellular	-9341
▁hung	-9342
▁fitness	-9343
▁collapse	-9344
▁enhanced	-9345
▁synthetic	-9346
▁es	-9347
pre	-9348
even	-9349
▁integrity	-9350
oving	-9351
▁Peace	-9352
▁ow	-9353
▁Dyn	-9354
▁hazards	-9355
utical	-9356
▁inherent	-9357
omed	-9358
▁pert	-9359
▁enzymes	-9360
▁weaken	-9361
▁Berlin	-9362
▁excav	-9363
▁trading	-9364
▁manuscript	-9365
▁injured	-9366
▁Statistics	-9367
itzer	-9368
▁surrounded	-9369
▁shares	-9370
arks	-9371
▁candidates	-9372
▁bullying	-9373
▁finance	-9374
aping	-9375
▁Meanwhile	-9376
▁homework	-9377
▁precisely	-9378
▁Isa	-9379
▁busy	-9380
erness	-9381
▁Missouri	-9382
▁regime	-9383
▁invented	-9384
▁persu	-9385
BD	-9386
di	-9387
fly	-9388
Google	-9389
TP	-9390
▁deposits	-9391
▁Charl	-9392
▁license	-9393
▁Jon	-9394
▁separation	-9395
ashed	-9396
▁Diabetes	-9397
▁Search	-9398
inery	-9399
ilitation	-9400
▁Jim	-9401
▁loan	-9402
▁Bio	-9403
▁nursing	-9404
.||	-9405
▁divine	-9406
▁fertilizer	-9407
")	-9408
▁Tues	-9409
▁MP	-9410
isted	-9411
▁sensory	-9412
▁toile	-9413
▁campus	-9414
iative	-9415
healthy	-9416
▁attributed	-9417
▁predators	-9418
▁neural	-9419
▁loud	-9420
▁Daily	-9421
▁Kn	-9422
ateral	-9423
▁Assembly	-9424
▁metabolic	-9425
▁thesis	-9426
▁inflation	-9427
▁divide	-9428
isticated	-9429
ivation	-9430
arten	-9431
duate	-9432
▁Tenn	-9433
▁factory	-9434
igible	-9435
▁selling	-9436
▁^	-9437
engers	-9438
▁Order	-9439
▁assistant	-9440
▁fluor	-9441
ivate	-9442
igned	-9443
▁reflects	-9444
▁Flow	-9445
▁seiz	-9446
uct	-9447
also	-9448
▁relating	-9449
▁landing	-9450
▁Hur	-9451
▁grammar	-9452
▁mile	-9453
▁Sem	-9454
.),	-9455
▁shade	-9456
▁assessments	-9457
▁Cut	-9458
▁partial	-9459
▁likelihood	-9460
arios	-9461
osaur	-9462
▁Thurs	-9463
▁bell	-9464
▁NE	-9465
▁Satur	-9466
▁Explore	-9467
▁browser	-9468
▁Jersey	-9469
eb	-9470
ught	-9471
▁humidity	-9472
you	-9473
▁collections	-9474
▁physicians	-9475
▁seal	-9476
▁survived	-9477
▁extraord	-9478
▁complement	-9479
▁surviv	-9480
▁Besides	-9481
▁Case	-9482
Be	-9483
▁pod	-9484
▁Animal	-9485
▁muc	-9486
▁width	-9487
▁speaker	-9488
▁minister	-9489
▁theoretical	-9490
▁wireless	-9491
▁Matthew	-9492
▁shelter	-9493
▁welcome	-9494
▁Date	-9495
▁receives	-9496
▁perpet	-9497
▁appointment	-9498
▁Death	-9499
▁drops	-9500
▁exclud	-9501
▁dying	-9502
athan	-9503
▁discomfort	-9504
▁submit	-9505
Ind	-9506
▁Stephen	-9507
▁scales	-9508
▁films	-9509
To	-9510
mental	-9511
Our	-9512
▁parks	-9513
▁Econom	-9514
▁Turkey	-9515
▁ber	-9516
▁collecting	-9517
▁Tay	-9518
▁rent	-9519
▁Jun	-9520
▁describing	-9521
itic	-9522
▁GDP	-9523
▁loop	-9524
▁ensures	-9525
▁erosion	-9526
▁Unit	-9527
▁pests	-9528
▁displays	-9529
▁approval	-9530
▁exhibition	-9531
▁Centers	-9532
quiry	-9533
ayer	-9534
▁tag	-9535
▁Wednes	-9536
▁Ontario	-9537
▁Iron	-9538
▁CS	-9539
▁thrive	-9540
da	-9541
▁retain	-9542
▁gray	-9543
▁meditation	-9544
imen	-9545
▁inhabitants	-9546
emies	-9547
▁Core	-9548
▁surveys	-9549
▁update	-9550
▁myster	-9551
han	-9552
▁Turk	-9553
▁molecule	-9554
▁horizontal	-9555
▁enzyme	-9556
▁Guard	-9557
▁emit	-9558
▁wake	-9559
▁semi	-9560
▁indoor	-9561
ders	-9562
▁proud	-9563
▁aster	-9564
▁calendar	-9565
▁edges	-9566
▁merch	-9567
▁affordable	-9568
▁Sav	-9569
pany	-9570
▁reflection	-9571
▁camps	-9572
▁pink	-9573
▁Bol	-9574
otypes	-9575
▁adoption	-9576
ctors	-9577
ocial	-9578
▁broader	-9579
▁disag	-9580
▁retail	-9581
akespe	-9582
▁Opt	-9583
▁offices	-9584
▁consistently	-9585
▁Allah	-9586
iances	-9587
▁officially	-9588
▁broke	-9589
▁somewhere	-9590
Pro	-9591
▁invasion	-9592
▁Cit	-9593
ictions	-9594
▁amongst	-9595
▁Davis	-9596
▁fibers	-9597
▁penal	-9598
▁spark	-9599
▁recall	-9600
▁investments	-9601
▁fan	-9602
▁prescription	-9603
inch	-9604
found	-9605
▁("	-9606
▁Bush	-9607
▁abundant	-9608
▁resemb	-9609
chnology	-9610
rose	-9611
▁diarrhea	-9612
▁systematic	-9613
▁Path	-9614
▁absorbed	-9615
▁folk	-9616
▁speeds	-9617
▁fatal	-9618
burn	-9619
ipation	-9620
▁Large	-9621
▁painted	-9622
▁Discuss	-9623
▁toxins	-9624
akespeare	-9625
▁robots	-9626
olds	-9627
▁Electric	-9628
▁vine	-9629
▁definitions	-9630
▁conclusions	-9631
▁prol	-9632
▁highlights	-9633
▁consequence	-9634
▁drives	-9635
▁schem	-9636
▁classification	-9637
obic	-9638
▁Patients	-9639
▁pale	-9640
▁Physics	-9641
▁cave	-9642
▁velocity	-9643
rible	-9644
▁awarded	-9645
▁lingu	-9646
▁influenza	-9647
▁bills	-9648
▁allergy	-9649
▁participating	-9650
▁wage	-9651
▁Pope	-9652
rimin	-9653
▁attempted	-9654
imensional	-9655
ropol	-9656
▁numer	-9657
▁connecting	-9658
▁convenient	-9659
▁refrig	-9660
▁verte	-9661
▁rehab	-9662
pert	-9663
▁nodes	-9664
ermat	-9665
▁crimes	-9666
▁encourages	-9667
▁struggling	-9668
▁Nevertheless	-9669
▁imagination	-9670
▁Python	-9671
▁reviewed	-9672
▁Types	-9673
▁Hop	-9674
itate	-9675
▁therapeutic	-9676
▁weekly	-9677
▁sediment	-9678
▁reputation	-9679
aceutical	-9680
yes	-9681
▁Trade	-9682
isting	-9683
▁pock	-9684
▁pond	-9685
ethe	-9686
▁beet	-9687
oning	-9688
▁heal	-9689
▁missions	-9690
▁atmospheric	-9691
▁intelligent	-9692
dominal	-9693
▁tendency	-9694
BI	-9695
Pl	-9696
▁Hu	-9697
▁Six	-9698
▁onset	-9699
▁Present	-9700
inces	-9701
Ed	-9702
▁reasoning	-9703
wa	-9704
▁Behavior	-9705
illance	-9706
economic	-9707
▁thoroughly	-9708
▁worn	-9709
▁promotes	-9710
▁kilometers	-9711
▁Nether	-9712
▁desk	-9713
▁Quality	-9714
▁cloth	-9715
raid	-9716
▁arrival	-9717
▁Lewis	-9718
▁Example	-9719
fire	-9720
compass	-9721
▁struck	-9722
▁cigare	-9723
oting	-9724
▁appet	-9725
▁tanks	-9726
▁tower	-9727
▁Ce	-9728
▁holy	-9729
▁Tuesday	-9730
▁Chemical	-9731
rons	-9732
case	-9733
▁medieval	-9734
▁stems	-9735
▁scholar	-9736
▁prone	-9737
▁chamber	-9738
▁utilized	-9739
IST	-9740
▁Dun	-9741
▁Hom	-9742
▁Linux	-9743
achel	-9744
step	-9745
▁workshop	-9746
▁Download	-9747
▁punishment	-9748
rium	-9749
▁Arm	-9750
▁STEM	-9751
▁speakers	-9752
estone	-9753
▁Intellig	-9754
iac	-9755
▁economics	-9756
bul	-9757
▁WHO	-9758
aze	-9759
▁organism	-9760
▁PR	-9761
ctu	-9762
▁gear	-9763
▁boxes	-9764
▁teaches	-9765
▁charges	-9766
▁abundance	-9767
▁bark	-9768
nings	-9769
▁carbohydrates	-9770
▁trail	-9771
▁Sep	-9772
▁circular	-9773
erb	-9774
▁Soft	-9775
▁Thursday	-9776
▁Ele	-9777
velength	-9778
▁distract	-9779
▁fiction	-9780
▁designing	-9781
ela	-9782
▁independently	-9783
urd	-9784
▁AIDS	-9785
▁Depending	-9786
▁pest	-9787
▁manufacturer	-9788
ecessary	-9789
▁Club	-9790
▁democratic	-9791
▁Luther	-9792
▁civilization	-9793
iscons	-9794
▁germ	-9795
▁Oil	-9796
▁operational	-9797
▁monthly	-9798
effective	-9799
▁Question	-9800
▁Marc	-9801
▁lasting	-9802
ushing	-9803
▁broadcast	-9804
uro	-9805
▁strains	-9806
▁excited	-9807
▁Nep	-9808
▁Gre	-9809
▁attended	-9810
isconsin	-9811
▁Psychology	-9812
AF	-9813
atile	-9814
▁Wednesday	-9815
▁sophisticated	-9816
▁hier	-9817
▁dynamics	-9818
ronaut	-9819
▁pediatric	-9820
▁mini	-9821
▁freely	-9822
▁misc	-9823
▁washing	-9824
▁Cold	-9825
▁Korean	-9826
▁spatial	-9827
stic	-9828
▁placing	-9829
▁carries	-9830
,’	-9831
▁Nation	-9832
▁Healthy	-9833
▁Mathemat	-9834
Os	-9835
▁Month	-9836
acle	-9837
▁Pay	-9838
▁Currently	-9839
▁impressive	-9840
▁cameras	-9841
▁gentle	-9842
▁Tree	-9843
ooked	-9844
ulates	-9845
action	-9846
▁yes	-9847
▁partly	-9848
▁termin	-9849
▁multipl	-9850
yan	-9851
aver	-9852
esthetic	-9853
▁adolescents	-9854
▁libraries	-9855
reshold	-9856
▁Certain	-9857
▁Index	-9858
▁pou	-9859
▁Sab	-9860
▁toys	-9861
▁murder	-9862
inflamm	-9863
emor	-9864
▁Five	-9865
▁refugees	-9866
▁fluids	-9867
▁nerves	-9868
jud	-9869
PV	-9870
▁intra	-9871
▁qualified	-9872
▁returning	-9873
about	-9874
arians	-9875
▁aspir	-9876
▁Has	-9877
▁Generally	-9878
▁avoided	-9879
anol	-9880
conn	-9881
Le	-9882
▁vaccination	-9883
dess	-9884
▁recommends	-9885
▁unexpected	-9886
All	-9887
▁duties	-9888
▁predomin	-9889
▁Basic	-9890
ogram	-9891
▁Governor	-9892
▁Carl	-9893
CL	-9894
phones	-9895
RL	-9896
▁enabling	-9897
▁Sens	-9898
▁destination	-9899
▁distinction	-9900
▁flooding	-9901
▁pursue	-9902
▁patent	-9903
▁Hitler	-9904
▁forever	-9905
▁Carbon	-9906
▁legacy	-9907
rust	-9908
▁Give	-9909
BA	-9910
▁traveling	-9911
iosity	-9912
arded	-9913
▁rubber	-9914
▁attributes	-9915
▁jurisd	-9916
onin	-9917
▁Rose	-9918
isition	-9919
▁mirror	-9920
▁Years	-9921
▁Script	-9922
▁safer	-9923
▁Species	-9924
doors	-9925
▁cerv	-9926
▁Samuel	-9927
▁thirty	-9928
▁twelve	-9929
▁ES	-9930
▁WW	-9931
▁prevented	-9932
▁tape	-9933
▁therapies	-9934
▁consisting	-9935
▁Show	-9936
▁Begin	-9937
▁Perform	-9938
▁mutations	-9939
▁entreprene	-9940
▁brothers	-9941
▁hide	-9942
▁celebration	-9943
otion	-9944
▁Imag	-9945
ontin	-9946
▁Transport	-9947
▁beam	-9948
▁bladder	-9949
▁suggesting	-9950
See	-9951
▁antibodies	-9952
▁Depression	-9953
▁Francis	-9954
original	-9955
▁empower	-9956
ERS	-9957
umns	-9958
▁assault	-9959
▁entrance	-9960
▁partially	-9961
▁Prince	-9962
▁administrative	-9963
▁@	-9964
▁Wisconsin	-9965
▁Buddh	-9966
enh	-9967
▁Cra	-9968
▁meter	-9969
▁packaging	-9970
▁Hon	-9971
▁submitted	-9972
▁Things	-9973
DR	-9974
itus	-9975
▁adjacent	-9976
adequ	-9977
▁gaps	-9978
iking	-9979
▁erect	-9980
aning	-9981
▁borders	-9982
▁cosm	-9983
▁anthrop	-9984
▁resolve	-9985
arium	-9986
Ad	-9987
▁GP	-9988
▁Afghan	-9989
▁Poll	-9990
▁colored	-9991
▁Published	-9992
▁importantly	-9993
▁arrive	-9994
▁Usually	-9995
▁reviews	-9996
Com	-9997
▁deadly	-9998
otten	-9999
▁Requ	-10000
▁buck	-10001
▁Observ	-10002
▁confused	-10003
▁Bit	-10004
▁sovere	-10005
▁Poland	-10006
security	-10007
onics	-10008
▁seasonal	-10009
▁philos	-10010
▁keys	-10011
▁Essay	-10012
▁vomiting	-10013
iversary	-10014
▁CN	-10015
trans	-10016
▁scenarios	-10017
iatric	-10018
▁cluster	-10019
oa	-10020
▁gran	-10021
▁intensive	-10022
▁vice	-10023
uv	-10024
▁tolerance	-10025
▁anat	-10026
▁Monitor	-10027
▁electronics	-10028
akh	-10029
▁cycl	-10030
▁Darwin	-10031
▁jew	-10032
▁Carib	-10033
▁acquire	-10034
▁Num	-10035
▁Comb	-10036
▁Exec	-10037
▁mobility	-10038
▁promising	-10039
vy	-10040
▁transactions	-10041
▁export	-10042
▁contributes	-10043
▁valley	-10044
▁discl	-10045
▁algae	-10046
▁defects	-10047
thal	-10048
▁Always	-10049
▁malaria	-10050
▁Netherlands	-10051
ques	-10052
▁hip	-10053
verages	-10054
▁alike	-10055
income	-10056
▁orientation	-10057
psy	-10058
afe	-10059
▁mercury	-10060
▁tourism	-10061
▁surprised	-10062
▁extinction	-10063
▁leak	-10064
▁Thank	-10065
▁suspect	-10066
▁hazardous	-10067
yard	-10068
▁methane	-10069
▁Guid	-10070
▁Yellow	-10071
isons	-10072
▁earned	-10073
anas	-10074
▁bin	-10075
uclear	-10076
▁hypert	-10077
▁distances	-10078
▁drainage	-10079
▁lift	-10080
▁torn	-10081
▁magnesium	-10082
atin	-10083
▁routes	-10084
▁Shakespeare	-10085
▁arc	-10086
▁analyses	-10087
▁pleasure	-10088
▁Indonesia	-10089
▁Mand	-10090
burgh	-10091
▁Fa	-10092
▁NG	-10093
▁multip	-10094
▁meteor	-10095
▁shouldn	-10096
▁artistic	-10097
▁worksheets	-10098
▁configuration	-10099
▁axis	-10100
▁Sex	-10101
▁compliance	-10102
▁bits	-10103
▁radi	-10104
generation	-10105
storm	-10106
▁generating	-10107
▁Ten	-10108
▁zinc	-10109
▁tremend	-10110
▁Mos	-10111
▁harsh	-10112
▁frog	-10113
▁Kansas	-10114
▁binding	-10115
▁equations	-10116
▁Na	-10117
FC	-10118
grad	-10119
▁cope	-10120
▁Flu	-10121
thood	-10122
▁aggreg	-10123
▁mapping	-10124
iously	-10125
▁Additional	-10126
▁irregular	-10127
▁injection	-10128
That	-10129
icides	-10130
▁boundary	-10131
▁employers	-10132
▁ride	-10133
▁capability	-10134
▁founder	-10135
▁%	-10136
----	-10137
▁Ak	-10138
▁publ	-10139
▁inspiration	-10140
chron	-10141
▁Choose	-10142
▁feather	-10143
▁notable	-10144
▁Han	-10145
▁adaptation	-10146
▁Opp	-10147
▁precision	-10148
▁socio	-10149
▁Hay	-10150
▁plasma	-10151
▁stakeholders	-10152
▁perspectives	-10153
▁depr	-10154
▁accomplished	-10155
nedy	-10156
▁utilize	-10157
▁Tax	-10158
enti	-10159
▁Lower	-10160
ropriate	-10161
asses	-10162
atories	-10163
▁Sweden	-10164
▁dangers	-10165
▁sle	-10166
▁enlar	-10167
▁modeling	-10168
▁completion	-10169
azz	-10170
▁featured	-10171
▁perf	-10172
dated	-10173
▁decreases	-10174
▁afraid	-10175
▁frozen	-10176
iy	-10177
coin	-10178
▁Lind	-10179
▁fles	-10180
ceeding	-10181
▁intr	-10182
▁nic	-10183
▁Sher	-10184
▁defines	-10185
▁conducting	-10186
lings	-10187
▁courage	-10188
▁filters	-10189
emet	-10190
▁concentrated	-10191
▁Scottish	-10192
▁searching	-10193
▁Until	-10194
▁reservoir	-10195
▁tribe	-10196
▁Period	-10197
▁outline	-10198
▁attacked	-10199
▁opens	-10200
anium	-10201
▁rocket	-10202
ergarten	-10203
ylon	-10204
EST	-10205
▁organisations	-10206
UC	-10207
owa	-10208
▁Particip	-10209
▁immunity	-10210
▁evaluated	-10211
▁persistent	-10212
▁expressions	-10213
▁continuously	-10214
agle	-10215
▁Along	-10216
▁Primary	-10217
antine	-10218
forced	-10219
angel	-10220
commun	-10221
▁reson	-10222
▁Jefferson	-10223
kal	-10224
▁progressive	-10225
De	-10226
▁grace	-10227
▁Corps	-10228
▁Qur	-10229
▁Materials	-10230
▁fault	-10231
▁exch	-10232
▁overwhelming	-10233
▁jaw	-10234
▁rom	-10235
Bl	-10236
LS	-10237
alog	-10238
edge	-10239
▁undergo	-10240
▁embedded	-10241
▁affairs	-10242
▁deliber	-10243
▁Democratic	-10244
iph	-10245
▁empire	-10246
ECT	-10247
▁coral	-10248
ancial	-10249
asal	-10250
PDF	-10251
▁Body	-10252
▁shallow	-10253
▁spelling	-10254
gged	-10255
▁Victoria	-10256
▁representatives	-10257
▁expenses	-10258
▁bind	-10259
▁fallen	-10260
▁bearing	-10261
▁Kim	-10262
▁epidemic	-10263
▁Deep	-10264
▁Balt	-10265
▁lunch	-10266
▁Benefits	-10267
▁Anne	-10268
▁intermedi	-10269
▁Front	-10270
▁Cape	-10271
ja	-10272
▁gathering	-10273
▁Zh	-10274
▁storms	-10275
▁verse	-10276
▁Gir	-10277
istically	-10278
▁nurse	-10279
▁mystery	-10280
▁Ah	-10281
quarters	-10282
▁golden	-10283
▁Reserve	-10284
▁wavelength	-10285
▁hunger	-10286
▁rhythm	-10287
▁Video	-10288
▁dollar	-10289
”)	-10290
▁progression	-10291
▁PA	-10292
PD	-10293
pm	-10294
▁Urban	-10295
▁altered	-10296
▁Pa	-10297
▁Grant	-10298
▁swallow	-10299
▁indicators	-10300
▁foster	-10301
▁potatoes	-10302
▁monument	-10303
▁caffe	-10304
▁traditionally	-10305
▁Tips	-10306
▁mistake	-10307
ttes	-10308
▁elabor	-10309
flies	-10310
▁inspect	-10311
▁dialogue	-10312
▁rats	-10313
▁Teacher	-10314
▁texture	-10315
▁Az	-10316
▁Industrial	-10317
▁por	-10318
▁Taking	-10319
inea	-10320
arer	-10321
▁hack	-10322
▁arranged	-10323
▁pushed	-10324
▁Dom	-10325
▁Os	-10326
▁commod	-10327
▁inflammatory	-10328
▁organisation	-10329
▁Workshe	-10330
▁symb	-10331
▁integral	-10332
▁Educational	-10333
▁Very	-10334
▁Kennedy	-10335
▁tubes	-10336
▁preservation	-10337
▁Mes	-10338
▁phenomena	-10339
▁educated	-10340
▁WH	-10341
▁soap	-10342
▁Philosoph	-10343
▁administered	-10344
▁classrooms	-10345
▁historians	-10346
▁lact	-10347
▁Rub	-10348
rels	-10349
aft	-10350
▁contrad	-10351
insula	-10352
▁horn	-10353
▁Evolution	-10354
▁prisoners	-10355
▁vacuum	-10356
▁subsequently	-10357
▁Tro	-10358
▁diagnose	-10359
▁Architect	-10360
▁Prior	-10361
▁distinctive	-10362
▁indicating	-10363
▁inequality	-10364
▁recycled	-10365
▁incredibly	-10366
▁investors	-10367
ulsion	-10368
▁distress	-10369
law	-10370
▁Fall	-10371
▁mail	-10372
▁accompany	-10373
▁tied	-10374
▁FOR	-10375
▁portray	-10376
▁provisions	-10377
▁milit	-10378
▁RE	-10379
▁Bad	-10380
▁comparing	-10381
cal	-10382
▁settlers	-10383
▁gums	-10384
▁sacrifice	-10385
orks	-10386
▁Account	-10387
▁sail	-10388
gregation	-10389
▁gains	-10390
▁labels	-10391
front	-10392
▁thorough	-10393
▁Du	-10394
▁asks	-10395
▁fertility	-10396
acon	-10397
▁protest	-10398
▁render	-10399
▁Nazi	-10400
owners	-10401
▁anten	-10402
▁Taylor	-10403
▁obviously	-10404
▁talks	-10405
▁tired	-10406
ersion	-10407
▁liberal	-10408
▁Pap	-10409
▁instant	-10410
▁Earl	-10411
▁Rand	-10412
▁Leon	-10413
▁Census	-10414
▁Wars	-10415
▁Communication	-10416
▁publications	-10417
reement	-10418
▁solely	-10419
▁relatives	-10420
▁aluminum	-10421
uns	-10422
▁steady	-10423
▁conversations	-10424
▁Inv	-10425
iors	-10426
▁Visual	-10427
My	-10428
▁transformed	-10429
▁facial	-10430
▁stimulate	-10431
emetery	-10432
▁execution	-10433
▁abol	-10434
▁morph	-10435
omal	-10436
▁rebu	-10437
▁artif	-10438
▁enabled	-10439
▁voting	-10440
▁commands	-10441
nals	-10442
▁dehyd	-10443
▁scal	-10444
▁femin	-10445
role	-10446
▁Sustainable	-10447
arter	-10448
▁UC	-10449
▁Plants	-10450
▁controversial	-10451
uine	-10452
▁hill	-10453
rared	-10454
▁protects	-10455
iotic	-10456
▁Bor	-10457
▁OR	-10458
▁demonstrates	-10459
▁tracks	-10460
▁Related	-10461
▁calculations	-10462
lastname	-10463
feeding	-10464
▁brid	-10465
riction	-10466
▁Dougl	-10467
▁Therapy	-10468
▁magnet	-10469
▁Anim	-10470
▁Conc	-10471
▁chip	-10472
▁locally	-10473
urated	-10474
▁nort	-10475
▁Jane	-10476
▁bugs	-10477
cts	-10478
ammad	-10479
▁Knowledge	-10480
▁PH	-10481
▁Eval	-10482
▁threshold	-10483
▁Recent	-10484
▁Win	-10485
▁Advanced	-10486
▁yard	-10487
▁coordination	-10488
▁incredible	-10489
▁assessed	-10490
▁atomic	-10491
spring	-10492
Re	-10493
agger	-10494
▁reproduction	-10495
▁Site	-10496
▁stops	-10497
▁Overall	-10498
vae	-10499
▁accessed	-10500
▁sel	-10501
onomous	-10502
▁Impact	-10503
rat	-10504
!)	-10505
arts	-10506
▁Fram	-10507
UM	-10508
▁Sac	-10509
▁timing	-10510
▁dow	-10511
sized	-10512
▁bowel	-10513
▁Collect	-10514
▁relieve	-10515
▁FA	-10516
egu	-10517
▁overweight	-10518
▁seasons	-10519
▁Ib	-10520
▁compat	-10521
▁Facts	-10522
▁gau	-10523
▁hang	-10524
▁filling	-10525
▁Creative	-10526
formed	-10527
▁loans	-10528
RNA	-10529
▁Stress	-10530
▁Job	-10531
▁Hung	-10532
thodox	-10533
▁Germans	-10534
▁ignore	-10535
▁explored	-10536
▁payments	-10537
▁nick	-10538
▁Saturday	-10539
▁loyal	-10540
▁wages	-10541
▁striking	-10542
▁essence	-10543
▁extrem	-10544
uble	-10545
ternoon	-10546
▁reserves	-10547
school	-10548
ican	-10549
▁Stone	-10550
▁spir	-10551
▁menu	-10552
▁apple	-10553
▁Effects	-10554
▁treaty	-10555
▁columns	-10556
▁Ford	-10557
Se	-10558
▁Rog	-10559
istent	-10560
▁Prime	-10561
omon	-10562
▁occupation	-10563
▁Caribbean	-10564
▁sampling	-10565
ikes	-10566
▁antibiotic	-10567
oil	-10568
bestos	-10569
▁regen	-10570
▁advertising	-10571
ineteenth	-10572
▁devoted	-10573
hops	-10574
this	-10575
▁Credit	-10576
▁Bow	-10577
▁Throughout	-10578
yt	-10579
▁Mit	-10580
▁headaches	-10581
III	-10582
▁Diagn	-10583
▁stiff	-10584
▁encompass	-10585
▁illustrated	-10586
▁aids	-10587
RS	-10588
▁appetite	-10589
▁Jup	-10590
▁weapon	-10591
▁outdoors	-10592
Hz	-10593
▁”	-10594
▁resilience	-10595
▁genetics	-10596
imedia	-10597
▁acceptance	-10598
▁Franklin	-10599
▁suspected	-10600
person	-10601
▁Was	-10602
▁acknowledge	-10603
enders	-10604
lam	-10605
pson	-10606
▁satellites	-10607
▁damaging	-10608
At	-10609
orney	-10610
▁mira	-10611
▁counties	-10612
▁genus	-10613
▁NS	-10614
TC	-10615
▁Sa	-10616
▁Ban	-10617
▁extraordinary	-10618
▁firms	-10619
gered	-10620
▁herbs	-10621
▁thickness	-10622
▁skull	-10623
▁Cust	-10624
▁distribut	-10625
▁discussing	-10626
▁mi	-10627
▁synthesis	-10628
▁confront	-10629
▁Pict	-10630
▁tech	-10631
▁dinner	-10632
iolet	-10633
▁gland	-10634
▁educate	-10635
▁counterpart	-10636
▁Rout	-10637
atching	-10638
▁Miller	-10639
▁dishes	-10640
▁Ni	-10641
swered	-10642
▁meets	-10643
▁Exercise	-10644
ausea	-10645
▁prostate	-10646
▁discoveries	-10647
vol	-10648
▁Ra	-10649
▁Ray	-10650
▁explos	-10651
iki	-10652
▁diver	-10653
▁Romans	-10654
▁Series	-10655
uting	-10656
▁moments	-10657
▁`	-10658
▁Relations	-10659
▁Barb	-10660
▁poorly	-10661
▁Analy	-10662
▁emerge	-10663
auc	-10664
ulture	-10665
▁cooked	-10666
▁mart	-10667
ocaust	-10668
▁disappear	-10669
▁guns	-10670
▁Marsh	-10671
.-	-10672
ceeds	-10673
▁Cultural	-10674
stration	-10675
▁Regular	-10676
▁census	-10677
▁circles	-10678
high	-10679
▁disposal	-10680
▁Represent	-10681
oved	-10682
▁sustained	-10683
icting	-10684
▁boards	-10685
▁attain	-10686
▁Smart	-10687
TA	-10688
▁Bridge	-10689
igma	-10690
▁yields	-10691
▁League	-10692
fold	-10693
▁uncertainty	-10694
▁Virt	-10695
alo	-10696
▁Kat	-10697
▁gastro	-10698
▁Fem	-10699
▁Duke	-10700
▁Compar	-10701
atre	-10702
▁Marg	-10703
develop	-10704
▁Greg	-10705
▁deleg	-10706
▁constitutional	-10707
GS	-10708
▁Emperor	-10709
▁palm	-10710
▁stressed	-10711
▁crash	-10712
▁vector	-10713
hester	-10714
rophic	-10715
▁phrases	-10716
▁rotation	-10717
▁pipes	-10718
▁crust	-10719
ognition	-10720
▁infin	-10721
▁telephone	-10722
lear	-10723
othy	-10724
hour	-10725
▁Includ	-10726
▁telescope	-10727
yo	-10728
▁Jean	-10729
▁coins	-10730
▁rear	-10731
▁Trump	-10732
▁SM	-10733
▁realistic	-10734
▁Love	-10735
▁ic	-10736
▁Magn	-10737
▁ingredient	-10738
inflammatory	-10739
▁sperm	-10740
▁combust	-10741
Figure	-10742
▁criticism	-10743
▁rejected	-10744
▁Tri	-10745
▁PMID	-10746
leton	-10747
▁permitted	-10748
▁historian	-10749
▁metres	-10750
onent	-10751
dimensional	-10752
▁guides	-10753
▁shopping	-10754
velt	-10755
esy	-10756
heastern	-10757
▁politicians	-10758
thening	-10759
▁parliament	-10760
ivals	-10761
hard	-10762
▁obser	-10763
▁hardly	-10764
▁Lu	-10765
human	-10766
osity	-10767
▁Ger	-10768
orie	-10769
▁Draw	-10770
▁preschool	-10771
▁prevalent	-10772
asa	-10773
▁contrary	-10774
▁genetically	-10775
▁stuck	-10776
▁powered	-10777
sequently	-10778
▁collaborative	-10779
▁Es	-10780
▁uter	-10781
▁subtle	-10782
▁explaining	-10783
▁Hawaii	-10784
▁galaxies	-10785
▁Personal	-10786
▁economies	-10787
These	-10788
▁cardiac	-10789
giving	-10790
▁Prevent	-10791
▁implies	-10792
▁emission	-10793
▁Tib	-10794
▁volumes	-10795
▁immigration	-10796
igm	-10797
▁sau	-10798
▁inclusion	-10799
▁galaxy	-10800
▁Movement	-10801
▁deterior	-10802
▁severely	-10803
▁Build	-10804
.]	-10805
idae	-10806
▁pupp	-10807
▁Team	-10808
▁compassion	-10809
▁Lt	-10810
▁spell	-10811
▁Belg	-10812
▁limiting	-10813
▁festival	-10814
rise	-10815
,'	-10816
rell	-10817
▁occurrence	-10818
▁wra	-10819
▁Summer	-10820
▁catast	-10821
omatic	-10822
rup	-10823
fare	-10824
▁fate	-10825
phal	-10826
▁abdominal	-10827
▁pathways	-10828
▁Dat	-10829
▁mes	-10830
▁racism	-10831
▁overs	-10832
rets	-10833
onymous	-10834
▁Pear	-10835
▁designers	-10836
▁disasters	-10837
plete	-10838
▁SO	-10839
▁rend	-10840
▁simulation	-10841
▁pollutants	-10842
letter	-10843
▁quote	-10844
anth	-10845
▁Vo	-10846
▁argues	-10847
▁inadequ	-10848
▁staying	-10849
▁irre	-10850
asures	-10851
orient	-10852
▁operators	-10853
**	-10854
▁breathe	-10855
▁originated	-10856
▁Mission	-10857
TER	-10858
run	-10859
sub	-10860
▁sequences	-10861
▁stack	-10862
▁thinks	-10863
▁documentation	-10864
▁Political	-10865
▁devastating	-10866
▁invited	-10867
▁Utah	-10868
▁anch	-10869
▁Archae	-10870
strate	-10871
▁Getting	-10872
▁executed	-10873
▁furniture	-10874
osevelt	-10875
▁EN	-10876
▁Hispan	-10877
cor	-10878
▁Bird	-10879
▁digit	-10880
▁updates	-10881
arding	-10882
vity	-10883
range	-10884
▁NC	-10885
▁hepat	-10886
▁picked	-10887
▁plaque	-10888
▁Publishing	-10889
▁incorrect	-10890
▁determines	-10891
ishers	-10892
▁distinguished	-10893
▁lying	-10894
▁orn	-10895
▁Ty	-10896
▁specialists	-10897
▁masses	-10898
wall	-10899
▁assumptions	-10900
▁newspapers	-10901
▁Pit	-10902
▁yoga	-10903
iotics	-10904
onald	-10905
ko	-10906
▁Jupiter	-10907
▁accordance	-10908
▁Bru	-10909
ysical	-10910
▁Resource	-10911
▁transf	-10912
▁chains	-10913
▁gaining	-10914
▁costly	-10915
▁shipping	-10916
▁Eating	-10917
▁warmer	-10918
inator	-10919
▁Stay	-10920
aki	-10921
bro	-10922
neg	-10923
▁unnecessary	-10924
uty	-10925
▁reserve	-10926
▁prolonged	-10927
▁compact	-10928
▁tang	-10929
▁influential	-10930
▁priest	-10931
▁categor	-10932
▁supplied	-10933
vals	-10934
lessly	-10935
▁departments	-10936
▁EM	-10937
type	-10938
▁arrangement	-10939
▁substitute	-10940
▁Everyone	-10941
▁skilled	-10942
▁caffeine	-10943
▁belt	-10944
▁referring	-10945
tics	-10946
▁programmes	-10947
▁expend	-10948
▁Rod	-10949
▁brill	-10950
▁insulation	-10951
FS	-10952
▁IC	-10953
▁Rus	-10954
▁answered	-10955
▁illustrate	-10956
▁senses	-10957
▁Results	-10958
▁Maybe	-10959
▁fears	-10960
▁pride	-10961
▁Bob	-10962
▁cataly	-10963
▁drag	-10964
▁electrom	-10965
▁governor	-10966
makers	-10967
screen	-10968
▁Republican	-10969
▁applicable	-10970
▁Strateg	-10971
anna	-10972
▁anniversary	-10973
▁pap	-10974
▁expense	-10975
onge	-10976
▁colleges	-10977
▁genuine	-10978
rying	-10979
▁shield	-10980
arth	-10981
eav	-10982
▁↑	-10983
▁Innov	-10984
▁astronaut	-10985
uming	-10986
▁bulk	-10987
imeter	-10988
▁chron	-10989
▁Cert	-10990
▁graphic	-10991
▁von	-10992
iley	-10993
weet	-10994
▁Arthur	-10995
▁manufactured	-10996
igration	-10997
hedral	-10998
▁yeast	-10999
inian	-11000
Co	-11001
▁markers	-11002
▁precious	-11003
▁Mountains	-11004
▁Roosevelt	-11005
▁chips	-11006
arest	-11007
▁makers	-11008
▁Protest	-11009
▁organize	-11010
▁slide	-11011
▁checking	-11012
▁associations	-11013
▁beer	-11014
▁attracted	-11015
▁imbal	-11016
▁Edition	-11017
▁sket	-11018
▁timber	-11019
▁declined	-11020
▁mud	-11021
▁ethics	-11022
▁enact	-11023
▁cheaper	-11024
▁poisoning	-11025
▁Freedom	-11026
essee	-11027
ez	-11028
▁Market	-11029
▁Defense	-11030
▁mim	-11031
▁Diego	-11032
▁checked	-11033
▁ruling	-11034
ón	-11035
▁digestion	-11036
▁basics	-11037
▁Philippines	-11038
▁consensus	-11039
there	-11040
▁tunnel	-11041
▁viewing	-11042
▁insu	-11043
seud	-11044
▁rises	-11045
▁pathogens	-11046
▁Fisher	-11047
▁protocols	-11048
▁football	-11049
▁decom	-11050
▁defeat	-11051
▁beds	-11052
▁veterin	-11053
▁overse	-11054
rac	-11055
▁Moh	-11056
▁Nat	-11057
▁beta	-11058
▁BBC	-11059
PL	-11060
▁hearts	-11061
plan	-11062
ltry	-11063
Do	-11064
▁Wel	-11065
▁assignments	-11066
▁Buddha	-11067
▁syll	-11068
▁coinc	-11069
emed	-11070
▁Albert	-11071
▁Imm	-11072
▁afternoon	-11073
▁Prize	-11074
dis	-11075
▁°	-11076
▁servers	-11077
▁node	-11078
▁inver	-11079
▁seeks	-11080
▁expedition	-11081
osphere	-11082
▁metap	-11083
▁viable	-11084
▁quad	-11085
▁Ball	-11086
▁entity	-11087
▁architectural	-11088
▁dominated	-11089
▁analyzing	-11090
▁feas	-11091
▁mounted	-11092
▁HTML	-11093
▁hills	-11094
▁ought	-11095
isible	-11096
HT	-11097
mn	-11098
▁Kenya	-11099
iplinary	-11100
▁Amendment	-11101
▁Mu	-11102
▁Clear	-11103
▁compress	-11104
iro	-11105
▁angry	-11106
▁Around	-11107
▁casual	-11108
▁restored	-11109
ountered	-11110
▁situated	-11111
bral	-11112
▁sore	-11113
▁Ethiop	-11114
abetic	-11115
▁Nig	-11116
▁Archives	-11117
keley	-11118
▁Bot	-11119
▁strand	-11120
▁Hunt	-11121
▁flowing	-11122
▁globally	-11123
sun	-11124
▁Planning	-11125
look	-11126
▁ric	-11127
tte	-11128
asting	-11129
▁matrix	-11130
▁cher	-11131
▁traveled	-11132
▁unemployment	-11133
osaurs	-11134
▁aquatic	-11135
▁Louisiana	-11136
onto	-11137
▁snake	-11138
▁automatic	-11139
▁certified	-11140
▁Muh	-11141
▁Financial	-11142
▁grants	-11143
▁coronavirus	-11144
▁needle	-11145
▁blockchain	-11146
Ref	-11147
▁receptors	-11148
▁LG	-11149
ructive	-11150
▁rescue	-11151
opathy	-11152
▁correlation	-11153
keys	-11154
▁Sound	-11155
▁Chap	-11156
▁dictionary	-11157
▁analog	-11158
▁ignored	-11159
bits	-11160
▁pulled	-11161
▁Veter	-11162
▁carcin	-11163
▁Cro	-11164
▁Imper	-11165
▁Boy	-11166
▁Fle	-11167
eland	-11168
▁sorts	-11169
▁navigate	-11170
▁deals	-11171
▁considerably	-11172
▁encountered	-11173
▁Essential	-11174
▁firstname	-11175
▁namely	-11176
▁extends	-11177
▁photograp	-11178
▁Collection	-11179
▁revolutionary	-11180
▁flies	-11181
ESS	-11182
▁guided	-11183
abama	-11184
▁Eat	-11185
lyn	-11186
▁mul	-11187
▁abroad	-11188
▁pushing	-11189
▁impression	-11190
agus	-11191
▁Tai	-11192
▁marginal	-11193
▁Rain	-11194
▁Arabic	-11195
emics	-11196
▁Fun	-11197
▁machinery	-11198
eared	-11199
▁decent	-11200
▁coin	-11201
▁Frequ	-11202
▁strengths	-11203
▁whales	-11204
▁Bon	-11205
▁Clark	-11206
warf	-11207
teenth	-11208
▁attempting	-11209
▁Radio	-11210
▁lect	-11211
▁Marx	-11212
▁repeatedly	-11213
▁territories	-11214
▁purple	-11215
monary	-11216
lah	-11217
▁nurses	-11218
▁releases	-11219
▁counting	-11220
shore	-11221
▁Sche	-11222
▁builds	-11223
▁Indiana	-11224
▁refriger	-11225
▁advised	-11226
▁odd	-11227
▁cha	-11228
▁dirt	-11229
▁Gil	-11230
One	-11231
▁portions	-11232
▁affil	-11233
▁behalf	-11234
▁extraction	-11235
▁lapt	-11236
ewater	-11237
▁considerations	-11238
▁arteries	-11239
▁smallest	-11240
igs	-11241
ordan	-11242
iating	-11243
ocent	-11244
▁Block	-11245
▁mainstream	-11246
risk	-11247
Con	-11248
▁cannab	-11249
▁Cham	-11250
▁succeeded	-11251
aund	-11252
▁announce	-11253
▁vow	-11254
▁alphabet	-11255
▁Ze	-11256
restrial	-11257
▁airport	-11258
▁Military	-11259
▁Tele	-11260
▁voices	-11261
ART	-11262
▁neighbors	-11263
icked	-11264
▁static	-11265
▁Fat	-11266
▁Pow	-11267
who	-11268
▁phases	-11269
cm	-11270
writing	-11271
instein	-11272
▁scenes	-11273
▁licensed	-11274
▁determination	-11275
▁Ark	-11276
▁Golden	-11277
▁shadow	-11278
ilton	-11279
▁Memorial	-11280
ushes	-11281
▁enemies	-11282
ogl	-11283
▁disin	-11284
▁Intelligence	-11285
▁writings	-11286
▁Buddhist	-11287
yll	-11288
▁replacing	-11289
inton	-11290
▁Gas	-11291
apore	-11292
▁Tennessee	-11293
▁bottles	-11294
▁circuits	-11295
▁motivated	-11296
▁databases	-11297
▁colours	-11298
▁lig	-11299
▁Historic	-11300
▁Dur	-11301
▁frequencies	-11302
▁movies	-11303
▁Nort	-11304
▁rings	-11305
▁singing	-11306
entieth	-11307
▁dispar	-11308
▁imperial	-11309
pur	-11310
▁recovered	-11311
Us	-11312
▁meanings	-11313
▁Lic	-11314
attle	-11315
rasound	-11316
▁volunteer	-11317
▁conservative	-11318
▁ger	-11319
▁indicator	-11320
conf	-11321
fol	-11322
▁beef	-11323
acher	-11324
otechnology	-11325
py	-11326
▁Nich	-11327
▁Corporation	-11328
▁exclusively	-11329
▁scheduled	-11330
▁ceremony	-11331
isphere	-11332
good	-11333
▁whilst	-11334
▁larvae	-11335
▁episode	-11336
▁cavity	-11337
▁peripher	-11338
▁Visit	-11339
▁abd	-11340
▁careg	-11341
▁breakfast	-11342
▁patri	-11343
▁pitch	-11344
▁photography	-11345
▁Dor	-11346
▁blacks	-11347
▁pharmac	-11348
▁dece	-11349
estion	-11350
▁Freder	-11351
▁Appl	-11352
▁Definition	-11353
▁surveillance	-11354
▁farmer	-11355
weed	-11356
appy	-11357
▁lith	-11358
▁Captain	-11359
▁menstru	-11360
host	-11361
▁Previous	-11362
▁paths	-11363
▁winning	-11364
▁inherited	-11365
roleum	-11366
▁examining	-11367
▁Nap	-11368
▁omega	-11369
▁flesh	-11370
▁Sci	-11371
▁Fri	-11372
▁groundwater	-11373
▁practicing	-11374
▁Anti	-11375
▁tear	-11376
▁curious	-11377
▁Chemistry	-11378
▁Syria	-11379
▁Images	-11380
▁Pediatric	-11381
Pub	-11382
▁Pil	-11383
▁Had	-11384
▁pollen	-11385
▁asset	-11386
▁poems	-11387
▁dismiss	-11388
▁shortly	-11389
▁passive	-11390
▁obese	-11391
▁Pas	-11392
▁campaigns	-11393
▁chapters	-11394
▁patch	-11395
▁transparent	-11396
VD	-11397
▁chim	-11398
▁Link	-11399
▁Rap	-11400
▁Raj	-11401
▁bands	-11402
▁oxide	-11403
▁Tour	-11404
▁Editor	-11405
▁wealthy	-11406
▁Dental	-11407
▁specimens	-11408
sets	-11409
▁CL	-11410
▁atom	-11411
▁Box	-11412
angers	-11413
▁tremendous	-11414
▁geographic	-11415
!"	-11416
▁enthusi	-11417
▁necessity	-11418
▁conjunction	-11419
hr	-11420
ococc	-11421
▁practitioners	-11422
▁basket	-11423
▁Game	-11424
▁Alabama	-11425
▁Hal	-11426
▁butt	-11427
▁liberty	-11428
▁antioxidants	-11429
ilty	-11430
rage	-11431
hot	-11432
▁Total	-11433
▁enters	-11434
▁Almost	-11435
▁wax	-11436
eous	-11437
▁kidneys	-11438
▁contracts	-11439
▁Hong	-11440
osex	-11441
▁lunar	-11442
IO	-11443
link	-11444
▁datas	-11445
elson	-11446
▁USDA	-11447
▁institutional	-11448
govern	-11449
▁Deb	-11450
acular	-11451
illy	-11452
▁Tok	-11453
▁adul	-11454
WS	-11455
▁Character	-11456
▁dimension	-11457
▁Independence	-11458
▁admitted	-11459
▁fee	-11460
ibration	-11461
▁enterprise	-11462
father	-11463
▁Together	-11464
▁fulfill	-11465
▁purchasing	-11466
▁Dub	-11467
graduate	-11468
▁Gro	-11469
▁Executive	-11470
▁YO	-11471
▁Iowa	-11472
▁Polish	-11473
▁lawn	-11474
▁premature	-11475
▁retire	-11476
▁volcanic	-11477
▁drawings	-11478
▁survivors	-11479
▁fraud	-11480
upp	-11481
uana	-11482
▁headache	-11483
▁Games	-11484
▁disput	-11485
▁immense	-11486
ryption	-11487
▁clusters	-11488
▁rou	-11489
away	-11490
▁Nobel	-11491
▁Activity	-11492
▁Diseases	-11493
▁participated	-11494
▁battles	-11495
▁bor	-11496
estinal	-11497
▁commemor	-11498
▁Tell	-11499
▁Machine	-11500
fat	-11501
ibli	-11502
▁pries	-11503
irs	-11504
▁crossing	-11505
▁Holocaust	-11506
▁Foreign	-11507
laration	-11508
oT	-11509
▁chat	-11510
▁Ros	-11511
arma	-11512
▁unity	-11513
etry	-11514
ochond	-11515
natural	-11516
▁descriptions	-11517
activity	-11518
▁structured	-11519
sur	-11520
▁Youth	-11521
▁heated	-11522
▁Ages	-11523
▁Words	-11524
fficiency	-11525
▁respective	-11526
▁environmentally	-11527
itored	-11528
▁weren	-11529
▁fails	-11530
▁closest	-11531
▁smok	-11532
▁»	-11533
▁glands	-11534
▁magic	-11535
▁Confederate	-11536
▁compensation	-11537
aug	-11538
rology	-11539
▁consultation	-11540
post	-11541
▁carp	-11542
▁angles	-11543
▁personally	-11544
▁vapor	-11545
▁Commer	-11546
▁triggers	-11547
▁Syndrome	-11548
▁bom	-11549
▁raises	-11550
▁Winter	-11551
arse	-11552
▁bore	-11553
▁Answer	-11554
▁Travel	-11555
▁precipitation	-11556
▁gifts	-11557
▁Kentucky	-11558
▁tackle	-11559
▁dign	-11560
▁MIT	-11561
▁talked	-11562
▁artery	-11563
▁rows	-11564
▁satisfaction	-11565
▁Looking	-11566
▁Hope	-11567
▁Nurs	-11568
▁belonging	-11569
▁caution	-11570
▁fluctu	-11571
▁interviews	-11572
▁lean	-11573
▁profits	-11574
▁landf	-11575
▁Astronom	-11576
▁ma	-11577
PP	-11578
▁prophe	-11579
▁hind	-11580
▁automated	-11581
▁editing	-11582
whe	-11583
▁wed	-11584
▁grave	-11585
▁Affairs	-11586
oen	-11587
▁mutual	-11588
▁doctrine	-11589
olly	-11590
▁preferences	-11591
non	-11592
▁discusses	-11593
▁cer	-11594
▁Kong	-11595
▁locate	-11596
urred	-11597
▁religions	-11598
▁Command	-11599
mouth	-11600
▁wires	-11601
▁tempt	-11602
▁Country	-11603
▁kings	-11604
▁hypertension	-11605
▁Pi	-11606
▁bay	-11607
▁SD	-11608
uster	-11609
▁Beyond	-11610
▁certification	-11611
▁Insp	-11612
▁operator	-11613
▁introducing	-11614
▁pharmaceutical	-11615
▁requests	-11616
iencies	-11617
▁Norway	-11618
▁coding	-11619
▁arbit	-11620
iciency	-11621
access	-11622
▁mosquito	-11623
▁entities	-11624
▁bold	-11625
orious	-11626
▁Better	-11627
▁Argent	-11628
▁voters	-11629
annel	-11630
▁footprint	-11631
▁completing	-11632
▁bars	-11633
▁comparable	-11634
▁resur	-11635
▁Mechan	-11636
▁verbal	-11637
▁Evidence	-11638
▁suppress	-11639
▁unhealthy	-11640
▁safegu	-11641
▁alien	-11642
forward	-11643
▁integrate	-11644
▁reliability	-11645
▁unders	-11646
▁graphics	-11647
▁highlighted	-11648
▁Stanford	-11649
▁surre	-11650
▁Staff	-11651
▁Typically	-11652
▁conclude	-11653
▁Lawrence	-11654
▁Treaty	-11655
olecular	-11656
▁lining	-11657
appropriate	-11658
▁todd	-11659
▁Immun	-11660
▁boats	-11661
▁assumption	-11662
▁regulated	-11663
iser	-11664
▁pix	-11665
ersed	-11666
▁Pra	-11667
gress	-11668
▁sugars	-11669
▁Archived	-11670
▁selecting	-11671
▁dozen	-11672
▁Vill	-11673
▁fees	-11674
▁equity	-11675
▁feat	-11676
▁Focus	-11677
▁Chile	-11678
▁icon	-11679
▁archaeological	-11680
▁condem	-11681
roach	-11682
▁fifty	-11683
▁terminal	-11684
So	-11685
▁mush	-11686
▁radioactive	-11687
aret	-11688
uese	-11689
▁bulbs	-11690
▁floating	-11691
odge	-11692
▁forb	-11693
▁blame	-11694
▁exams	-11695
▁Skills	-11696
AV	-11697
▁Broad	-11698
▁Fortunately	-11699
sl	-11700
▁explosion	-11701
iasis	-11702
▁Issue	-11703
▁dreams	-11704
▁priorit	-11705
▁Cru	-11706
▁comprehension	-11707
▁olive	-11708
▁AB	-11709
▁Aqu	-11710
▁brick	-11711
white	-11712
▁worried	-11713
▁bike	-11714
backs	-11715
▁Regional	-11716
ighters	-11717
▁presum	-11718
▁careers	-11719
▁bicy	-11720
▁Afghanistan	-11721
athic	-11722
▁investigated	-11723
▁searc	-11724
ilateral	-11725
▁Testing	-11726
▁Literature	-11727
▁Dak	-11728
▁grey	-11729
osynt	-11730
▁steep	-11731
▁incidents	-11732
▁vocal	-11733
▁ED	-11734
▁trap	-11735
rubs	-11736
▁Excel	-11737
▁Alcohol	-11738
▁darkness	-11739
▁Agricultural	-11740
▁Tibet	-11741
▁Population	-11742
▁Soil	-11743
▁certificate	-11744
▁Singapore	-11745
▁Kind	-11746
▁Leaders	-11747
▁Past	-11748
Read	-11749
▁Bapt	-11750
▁indication	-11751
▁passengers	-11752
▁Lady	-11753
▁pathway	-11754
▁Whit	-11755
▁panic	-11756
▁combining	-11757
olas	-11758
▁Transl	-11759
▁unto	-11760
▁deple	-11761
▁monitored	-11762
▁methodology	-11763
▁Lie	-11764
▁mutation	-11765
olescent	-11766
▁predictions	-11767
▁kne	-11768
▁Accessed	-11769
phe	-11770
▁alb	-11771
▁Tal	-11772
▁Maria	-11773
▁promoted	-11774
▁cups	-11775
▁trips	-11776
▁interrupt	-11777
▁Brook	-11778
▁ink	-11779
they	-11780
▁airpl	-11781
▁Shar	-11782
▁directory	-11783
▁functionality	-11784
▁caring	-11785
▁Prophet	-11786
▁belongs	-11787
▁breakdown	-11788
▁responded	-11789
yers	-11790
▁Bah	-11791
cedented	-11792
inced	-11793
▁compression	-11794
▁Success	-11795
▁historically	-11796
▁gross	-11797
▁workshops	-11798
▁symmet	-11799
▁nausea	-11800
ulses	-11801
▁missed	-11802
▁navigation	-11803
▁evac	-11804
▁edited	-11805
▁mixing	-11806
▁Declaration	-11807
▁que	-11808
▁Cab	-11809
arency	-11810
oub	-11811
izational	-11812
ulative	-11813
▁eligible	-11814
▁peaceful	-11815
▁dual	-11816
▁melting	-11817
rosion	-11818
▁fungi	-11819
▁Benj	-11820
▁reads	-11821
▁plastics	-11822
▁pound	-11823
assment	-11824
▁Join	-11825
ochemical	-11826
▁governance	-11827
▁fleet	-11828
MD	-11829
▁McG	-11830
▁Coal	-11831
▁pressures	-11832
▁Od	-11833
▁inclusive	-11834
xic	-11835
▁cro	-11836
▁cows	-11837
▁Would	-11838
inates	-11839
▁corruption	-11840
▁pencil	-11841
()	-11842
arms	-11843
▁overt	-11844
▁reven	-11845
▁degradation	-11846
▁neurological	-11847
▁geometry	-11848
▁Lesson	-11849
▁ren	-11850
▁slower	-11851
▁publicly	-11852
▁projected	-11853
▁Hell	-11854
▁Wy	-11855
▁Share	-11856
acre	-11857
▁thumb	-11858
▁heter	-11859
orb	-11860
▁compete	-11861
mill	-11862
En	-11863
▁lenses	-11864
▁indo	-11865
▁Berkeley	-11866
zens	-11867
▁GPS	-11868
▁lets	-11869
▁Sri	-11870
UD	-11871
▁speaks	-11872
resistant	-11873
▁ions	-11874
▁Maine	-11875
oths	-11876
▁crowd	-11877
asted	-11878
▁wast	-11879
▁Buddhism	-11880
▁screens	-11881
▁ok	-11882
▁obsc	-11883
gic	-11884
▁initiated	-11885
▁entertainment	-11886
▁endeav	-11887
lades	-11888
▁Causes	-11889
▁Ens	-11890
▁poore	-11891
forestation	-11892
▁hate	-11893
▁toilet	-11894
▁biof	-11895
▁Alf	-11896
▁defining	-11897
▁gardening	-11898
▁Trib	-11899
ietal	-11900
parent	-11901
▁biomass	-11902
▁accused	-11903
▁corporations	-11904
▁saturated	-11905
uma	-11906
▁Dog	-11907
erenn	-11908
▁bases	-11909
▁march	-11910
▁Tech	-11911
▁bowl	-11912
▁grocer	-11913
▁explores	-11914
spe	-11915
▁residence	-11916
▁altitude	-11917
▁Improve	-11918
▁rating	-11919
▁resident	-11920
▁weeds	-11921
chem	-11922
▁counts	-11923
▁wool	-11924
▁headed	-11925
▁Ground	-11926
icul	-11927
▁Philip	-11928
▁travels	-11929
▁Aboriginal	-11930
▁intu	-11931
iscal	-11932
▁implant	-11933
held	-11934
▁inspire	-11935
▁generator	-11936
▁thrown	-11937
▁Loss	-11938
▁geography	-11939
▁Function	-11940
▁pneumonia	-11941
▁practiced	-11942
▁operates	-11943
▁convinced	-11944
immune	-11945
ationally	-11946
▁Cass	-11947
▁pigs	-11948
▁membership	-11949
▁Hou	-11950
▁founding	-11951
Ps	-11952
▁Mong	-11953
▁Adams	-11954
▁Course	-11955
opt	-11956
▁demonstration	-11957
actic	-11958
▁Ross	-11959
▁truck	-11960
po	-11961
▁observing	-11962
▁jet	-11963
ikh	-11964
▁Wolf	-11965
▁grat	-11966
▁modules	-11967
▁ozone	-11968
cr	-11969
ugar	-11970
▁traged	-11971
▁radar	-11972
▁Mathematics	-11973
plus	-11974
▁lighter	-11975
▁imported	-11976
eton	-11977
tein	-11978
scill	-11979
▁agenda	-11980
▁unpre	-11981
▁Compan	-11982
▁hepatitis	-11983
icut	-11984
first	-11985
▁Myth	-11986
▁Chen	-11987
▁advocates	-11988
iens	-11989
▁convention	-11990
▁Brad	-11991
▁Castle	-11992
▁tablets	-11993
▁banking	-11994
▁denied	-11995
▁Capital	-11996
▁screw	-11997
▁substantially	-11998
▁Imagine	-11999
▁presidential	-12000
▁Upper	-12001
▁Prob	-12002
▁registration	-12003
▁physiological	-12004
▁seemingly	-12005
▁Determ	-12006
▁intervals	-12007
▁Skin	-12008
▁efficacy	-12009
▁Parkinson	-12010
▁Patrick	-12011
▁arrested	-12012
▁modify	-12013
▁sho	-12014
▁Simon	-12015
▁melt	-12016
▁neighbour	-12017
▁kin	-12018
▁suited	-12019
▁workforce	-12020
▁veins	-12021
▁yog	-12022
▁Return	-12023
itzerland	-12024
▁promised	-12025
▁Ku	-12026
PC	-12027
▁Joh	-12028
▁Syd	-12029
▁Hans	-12030
▁relies	-12031
▁upset	-12032
▁pulse	-12033
exts	-12034
▁defeated	-12035
▁relates	-12036
angular	-12037
▁worksheet	-12038
▁persec	-12039
aments	-12040
▁melan	-12041
etheless	-12042
▁advocate	-12043
▁cement	-12044
▁breeds	-12045
▁Protocol	-12046
▁loads	-12047
▁inh	-12048
▁Heat	-12049
eu	-12050
iffs	-12051
▁Rena	-12052
▁glasses	-12053
▁attending	-12054
▁tomb	-12055
▁Ye	-12056
olis	-12057
ependent	-12058
itives	-12059
▁illustrations	-12060
supp	-12061
wind	-12062
▁Stock	-12063
organisms	-12064
▁combinations	-12065
May	-12066
amma	-12067
▁Anth	-12068
▁Jordan	-12069
▁admin	-12070
▁intestinal	-12071
▁Bed	-12072
▁Syn	-12073
mates	-12074
ashing	-12075
eterm	-12076
▁Authority	-12077
▁informal	-12078
▁Extension	-12079
▁admit	-12080
▁newborn	-12081
▁bats	-12082
ollo	-12083
▁brilliant	-12084
▁seats	-12085
▁readings	-12086
▁Emergency	-12087
▁Medic	-12088
proof	-12089
▁castle	-12090
▁prosec	-12091
▁tribal	-12092
▁Chronic	-12093
▁geographical	-12094
▁chemotherapy	-12095
▁fits	-12096
▁presenting	-12097
▁Democr	-12098
▁Toronto	-12099
▁wetlands	-12100
▁algebra	-12101
ods	-12102
▁hosts	-12103
▁Sant	-12104
▁Initiative	-12105
▁decreasing	-12106
▁Allen	-12107
▁nucleus	-12108
▁tries	-12109
▁Kit	-12110
unciation	-12111
uate	-12112
▁permits	-12113
▁therapist	-12114
▁unprecedented	-12115
▁Tu	-12116
▁mines	-12117
▁obstacles	-12118
▁carrier	-12119
oping	-12120
asis	-12121
▁Les	-12122
▁poultry	-12123
▁cod	-12124
▁sensation	-12125
▁challenged	-12126
▁checks	-12127
▁Hind	-12128
▁asbestos	-12129
▁CF	-12130
▁gallons	-12131
▁margin	-12132
▁eliminating	-12133
▁offspring	-12134
▁artifacts	-12135
▁subur	-12136
▁champ	-12137
asia	-12138
▁contra	-12139
▁Conserv	-12140
▁Aer	-12141
▁Element	-12142
▁Hun	-12143
amel	-12144
otyp	-12145
▁Publ	-12146
ARS	-12147
ucks	-12148
▁disciplines	-12149
isa	-12150
▁unclear	-12151
▁ignor	-12152
▁Weight	-12153
powered	-12154
Pe	-12155
▁pumps	-12156
▁Banglades	-12157
▁followers	-12158
▁acquisition	-12159
▁inval	-12160
▁billions	-12161
intestinal	-12162
PT	-12163
▁scrap	-12164
▁imposed	-12165
▁soldier	-12166
▁ank	-12167
▁interpreted	-12168
▁stimulation	-12169
▁EV	-12170
▁labeled	-12171
▁contexts	-12172
▁titles	-12173
▁edit	-12174
lahoma	-12175
▁impacted	-12176
▁extending	-12177
▁forgotten	-12178
regn	-12179
▁snakes	-12180
energy	-12181
▁customs	-12182
▁surviving	-12183
▁wells	-12184
▁Pack	-12185
▁inputs	-12186
▁Benjamin	-12187
▁soda	-12188
▁polymer	-12189
▁concentrate	-12190
▁microbes	-12191
ierce	-12192
▁nineteenth	-12193
opor	-12194
reas	-12195
bone	-12196
ingham	-12197
▁Kings	-12198
empl	-12199
▁symbolic	-12200
▁alleged	-12201
▁banned	-12202
▁charts	-12203
▁interfere	-12204
▁luck	-12205
▁placement	-12206
▁Loc	-12207
▁Problems	-12208
dig	-12209
heum	-12210
hend	-12211
▁Viol	-12212
▁tuber	-12213
▁creature	-12214
▁agreements	-12215
▁currents	-12216
PM	-12217
▁grab	-12218
rosis	-12219
▁closing	-12220
ropolitan	-12221
▁realm	-12222
▁CM	-12223
▁packed	-12224
▁appliances	-12225
▁Ay	-12226
ijuana	-12227
orship	-12228
….	-12229
▁Arist	-12230
▁crystal	-12231
▁inadequate	-12232
▁Poor	-12233
▁Territ	-12234
▁Industry	-12235
▁lesser	-12236
▁evaluating	-12237
▁calculation	-12238
▁pec	-12239
▁drew	-12240
▁Reference	-12241
▁assessing	-12242
LC	-12243
km	-12244
▁bitter	-12245
▁Portuguese	-12246
▁surroundings	-12247
arbon	-12248
▁Activities	-12249
▁Bud	-12250
fortable	-12251
heres	-12252
▁fart	-12253
▁Si	-12254
ilies	-12255
▁Persian	-12256
▁Muhammad	-12257
esteem	-12258
▁landscapes	-12259
▁undertaken	-12260
▁Beach	-12261
cription	-12262
urally	-12263
rained	-12264
▁Live	-12265
▁fungus	-12266
▁toll	-12267
▁weed	-12268
pective	-12269
itar	-12270
▁Oak	-12271
cat	-12272
▁receptor	-12273
▁info	-12274
▁delight	-12275
▁antioxidant	-12276
▁inherit	-12277
▁mosquitoes	-12278
▁absent	-12279
▁recur	-12280
▁Simple	-12281
▁coating	-12282
▁stretching	-12283
olith	-12284
▁Burn	-12285
▁retrie	-12286
▁offset	-12287
▁actors	-12288
eld	-12289
pton	-12290
▁MRI	-12291
▁fragments	-12292
▁desirable	-12293
▁Anderson	-12294
▁fool	-12295
was	-12296
oard	-12297
vance	-12298
▁basin	-12299
▁extinct	-12300
▁constraints	-12301
Tube	-12302
▁freshwater	-12303
▁Switzerland	-12304
arity	-12305
▁railroad	-12306
▁TB	-12307
▁segments	-12308
▁intact	-12309
▁investing	-12310
▁Renaissance	-12311
▁accommodate	-12312
ulent	-12313
▁Software	-12314
▁explanations	-12315
▁bridges	-12316
▁downt	-12317
▁Plus	-12318
▁republic	-12319
▁shifts	-12320
▁AF	-12321
▁stir	-12322
▁foundations	-12323
▁Foods	-12324
▁hasn	-12325
▁Easter	-12326
▁whites	-12327
Im	-12328
▁eliminated	-12329
▁Term	-12330
▁damp	-12331
▁affirm	-12332
▁gay	-12333
▁dysfunction	-12334
▁marker	-12335
▁worms	-12336
▁Imperial	-12337
▁Nuclear	-12338
vo	-12339
▁Ms	-12340
bird	-12341
otional	-12342
▁warned	-12343
▁Night	-12344
▁Professional	-12345
▁Kal	-12346
▁fled	-12347
▁Genesis	-12348
▁Creating	-12349
▁bes	-12350
▁PV	-12351
lict	-12352
▁plug	-12353
ova	-12354
▁Could	-12355
▁Malays	-12356
Eng	-12357
▁Dry	-12358
imity	-12359
▁layout	-12360
▁Hyp	-12361
▁sends	-12362
▁inspection	-12363
▁wounds	-12364
▁Snow	-12365
▁paste	-12366
▁strip	-12367
▁Sarah	-12368
eech	-12369
ilib	-12370
imb	-12371
▁sacrific	-12372
▁Pos	-12373
▁Weather	-12374
▁ties	-12375
▁promotion	-12376
roups	-12377
olia	-12378
▁worlds	-12379
▁]	-12380
▁Torah	-12381
itational	-12382
▁triggered	-12383
▁combustion	-12384
▁induced	-12385
▁Eventually	-12386
▁unst	-12387
▁loaded	-12388
▁mankind	-12389
▁Biological	-12390
ceedings	-12391
▁Recomm	-12392
▁Police	-12393
eman	-12394
▁Too	-12395
▁titled	-12396
▁silent	-12397
▁votes	-12398
▁tomatoes	-12399
▁surgeon	-12400
rots	-12401
▁intrig	-12402
▁rehabilitation	-12403
▁Haz	-12404
▁Traditional	-12405
▁cervical	-12406
▁Sydney	-12407
▁delayed	-12408
▁Economics	-12409
▁transaction	-12410
▁terrible	-12411
▁activists	-12412
▁Title	-12413
▁gluten	-12414
▁preference	-12415
ambo	-12416
rob	-12417
▁divor	-12418
▁philosophical	-12419
▁Annual	-12420
▁socially	-12421
▁Oklahoma	-12422
▁Methods	-12423
▁remembered	-12424
▁reinforce	-12425
letal	-12426
▁dump	-12427
▁Problem	-12428
▁Lanc	-12429
▁forty	-12430
▁ventilation	-12431
▁cram	-12432
▁generates	-12433
▁longest	-12434
▁journals	-12435
▁abdomen	-12436
▁cock	-12437
▁Ow	-12438
▁Explain	-12439
adays	-12440
▁voluntary	-12441
▁diesel	-12442
▁trapped	-12443
▁joining	-12444
kh	-12445
▁separately	-12446
▁employer	-12447
▁Run	-12448
▁PRO	-12449
▁quot	-12450
▁erad	-12451
▁extracted	-12452
version	-12453
▁trains	-12454
▁declar	-12455
ennis	-12456
▁withdrawal	-12457
▁evolve	-12458
▁blocked	-12459
▁interval	-12460
▁Ps	-12461
▁seaf	-12462
idth	-12463
▁Notes	-12464
▁lacking	-12465
▁supportive	-12466
▁sink	-12467
▁cater	-12468
jan	-12469
▁impaired	-12470
▁fundament	-12471
▁ecology	-12472
▁enhancing	-12473
▁PS	-12474
▁crafts	-12475
rea	-12476
▁Esp	-12477
▁elevation	-12478
▁Prep	-12479
▁wounded	-12480
▁scattered	-12481
▁investigations	-12482
▁briefly	-12483
okes	-12484
inar	-12485
▁jun	-12486
▁continually	-12487
▁mast	-12488
▁gently	-12489
▁emergence	-12490
▁lesions	-12491
threat	-12492
▁probe	-12493
▁surely	-12494
incial	-12495
▁altogether	-12496
▁legislative	-12497
▁pronounced	-12498
▁conceptual	-12499
▁possession	-12500
▁revised	-12501
▁Stage	-12502
esthes	-12503
▁railway	-12504
lav	-12505
dam	-12506
▁median	-12507
▁Vacc	-12508
▁Israeli	-12509
▁recipe	-12510
▁Douglas	-12511
ni	-12512
marks	-12513
▁Consult	-12514
third	-12515
▁behave	-12516
ividually	-12517
five	-12518
▁rolling	-12519
▁occasions	-12520
autions	-12521
▁pointing	-12522
▁jack	-12523
▁imagery	-12524
ixed	-12525
ovenant	-12526
velation	-12527
▁potato	-12528
▁accumulation	-12529
▁berries	-12530
▁strings	-12531
▁earthquakes	-12532
▁Pharm	-12533
▁Nev	-12534
▁consisted	-12535
atherine	-12536
▁patches	-12537
▁destructive	-12538
▁restaurants	-12539
month	-12540
▁pole	-12541
zes	-12542
pers	-12543
▁Song	-12544
▁races	-12545
▁legally	-12546
rock	-12547
▁conform	-12548
▁controversy	-12549
▁quantitative	-12550
▁fost	-12551
▁URL	-12552
▁glory	-12553
▁slope	-12554
▁warrant	-12555
▁Philosophy	-12556
don	-12557
▁Nigeria	-12558
▁constitu	-12559
▁Technical	-12560
▁statue	-12561
▁Ara	-12562
Col	-12563
▁watering	-12564
▁norms	-12565
▁parasites	-12566
▁sphere	-12567
▁strikes	-12568
Qu	-12569
▁Eye	-12570
▁Connecticut	-12571
▁nasal	-12572
▁throne	-12573
▁seas	-12574
tically	-12575
▁hungry	-12576
▁drilling	-12577
▁negatively	-12578
▁nurt	-12579
▁allev	-12580
▁Turkish	-12581
▁IM	-12582
mus	-12583
▁Say	-12584
▁Alliance	-12585
ORD	-12586
ppers	-12587
▁dos	-12588
▁Award	-12589
▁intermediate	-12590
▁Kir	-12591
eps	-12592
▁intric	-12593
▁inquiry	-12594
▁odds	-12595
▁outstanding	-12596
▁Salt	-12597
▁indoors	-12598
▁inability	-12599
▁Higher	-12600
▁standardized	-12601
▁TR	-12602
bet	-12603
▁ly	-12604
names	-12605
▁OK	-12606
uction	-12607
▁posture	-12608
▁deemed	-12609
▁Nan	-12610
▁flowering	-12611
▁stayed	-12612
opter	-12613
▁legitimate	-12614
▁tale	-12615
▁drill	-12616
▁systemic	-12617
▁uncommon	-12618
▁embrace	-12619
▁untreated	-12620
▁harvesting	-12621
▁maternal	-12622
▁alkal	-12623
▁impairment	-12624
▁damages	-12625
▁bip	-12626
▁exert	-12627
▁EC	-12628
▁sword	-12629
▁delicate	-12630
▁discrimin	-12631
▁identifies	-12632
aughters	-12633
▁delivering	-12634
▁prototype	-12635
▁Anton	-12636
▁oun	-12637
avy	-12638
▁Austria	-12639
otive	-12640
▁Hart	-12641
▁Saturn	-12642
▁floods	-12643
▁watched	-12644
coma	-12645
▁collaps	-12646
chi	-12647
erto	-12648
▁appreciation	-12649
comp	-12650
▁gang	-12651
▁autonomous	-12652
▁ate	-12653
▁cous	-12654
osures	-12655
▁astronomers	-12656
▁knock	-12657
▁Southeast	-12658
pler	-12659
Te	-12660
▁opio	-12661
▁reforms	-12662
▁teachings	-12663
▁Sel	-12664
▁electromagnetic	-12665
▁Multiple	-12666
▁autumn	-12667
▁instructor	-12668
▁Roc	-12669
▁tutorial	-12670
▁constitute	-12671
cerpt	-12672
▁tet	-12673
▁sour	-12674
ipse	-12675
▁Sports	-12676
igo	-12677
induced	-12678
ellar	-12679
▁pour	-12680
▁modest	-12681
tech	-12682
▁refined	-12683
ierra	-12684
▁Mas	-12685
▁silicon	-12686
▁gasoline	-12687
▁inventory	-12688
imore	-12689
▁interference	-12690
▁shooting	-12691
▁pyram	-12692
▁inserted	-12693
▁Gi	-12694
▁myths	-12695
FA	-12696
▁remedy	-12697
▁Lakes	-12698
▁rash	-12699
▁achievements	-12700
▁freed	-12701
▁ants	-12702
▁empathy	-12703
driven	-12704
▁modes	-12705
▁testim	-12706
▁outbreaks	-12707
dy	-12708
▁Foot	-12709
▁similarities	-12710
▁Magazine	-12711
▁Wi	-12712
▁activated	-12713
▁innovations	-12714
▁Wright	-12715
▁Joint	-12716
arb	-12717
▁Datab	-12718
▁proclaim	-12719
▁Domin	-12720
▁recipes	-12721
Can	-12722
▁sor	-12723
onduct	-12724
▁Graph	-12725
▁bloom	-12726
▁Sin	-12727
▁True	-12728
▁confined	-12729
▁strictly	-12730
▁Moore	-12731
hematic	-12732
oporosis	-12733
▁Summary	-12734
▁threatening	-12735
AND	-12736
▁seam	-12737
▁dependence	-12738
▁vulnerability	-12739
▁folks	-12740
▁Partners	-12741
▁snack	-12742
▁whale	-12743
▁insufficient	-12744
articles	-12745
▁fossils	-12746
▁uncomfortable	-12747
▁wellbeing	-12748
▁Basin	-12749
▁Venus	-12750
▁Disorder	-12751
▁Bangladesh	-12752
▁exclusive	-12753
▁crossed	-12754
▁Bitcoin	-12755
▁Hamilton	-12756
vas	-12757
ogene	-12758
▁burns	-12759
▁mechanics	-12760
▁pean	-12761
olit	-12762
illery	-12763
▁File	-12764
▁succ	-12765
▁Growth	-12766
▁infest	-12767
▁Einstein	-12768
▁CE	-12769
▁Content	-12770
▁intestine	-12771
▁Newton	-12772
DC	-12773
▁McK	-12774
▁Dark	-12775
▁dwell	-12776
▁passenger	-12777
▁praise	-12778
olutions	-12779
▁somehow	-12780
▁grasp	-12781
▁Luke	-12782
▁depicted	-12783
▁Proceedings	-12784
▁invisible	-12785
engu	-12786
▁Upon	-12787
▁Region	-12788
▁guilty	-12789
▁apples	-12790
▁likes	-12791
▁YouTube	-12792
only	-12793
▁fired	-12794
▁ports	-12795
▁outlined	-12796
▁LGBT	-12797
▁lasted	-12798
▁harness	-12799
▁cel	-12800
istence	-12801
Fi	-12802
wich	-12803
▁perceive	-12804
▁eco	-12805
▁descendants	-12806
▁Walter	-12807
▁dated	-12808
▁competing	-12809
▁designer	-12810
agu	-12811
▁Universe	-12812
bled	-12813
▁recru	-12814
▁utilizing	-12815
▁Legisl	-12816
▁deployed	-12817
▁harmony	-12818
▁friction	-12819
rish	-12820
▁Curriculum	-12821
▁lux	-12822
▁Fried	-12823
▁Swedish	-12824
▁stamp	-12825
▁keyboard	-12826
▁prosperity	-12827
▁Cloud	-12828
▁underwater	-12829
bial	-12830
▁handful	-12831
▁wastewater	-12832
ometric	-12833
▁dozens	-12834
▁provinces	-12835
▁tears	-12836
nty	-12837
wealth	-12838
▁ty	-12839
▁piano	-12840
▁Armen	-12841
▁drying	-12842
▁wheels	-12843
▁jurisdiction	-12844
▁smile	-12845
▁SE	-12846
▁bug	-12847
▁retention	-12848
▁positively	-12849
▁stopping	-12850
venile	-12851
▁frost	-12852
raul	-12853
ensing	-12854
▁Signs	-12855
▁traumatic	-12856
▁Ukraine	-12857
arming	-12858
▁countless	-12859
▁extensively	-12860
reach	-12861
▁binary	-12862
news	-12863
▁Jenn	-12864
LO	-12865
▁incorporating	-12866
▁cultivation	-12867
ben	-12868
▁bon	-12869
izoph	-12870
▁portable	-12871
onut	-12872
▁toxicity	-12873
▁Recently	-12874
▁Cuba	-12875
▁Members	-12876
▁charging	-12877
▁CON	-12878
lies	-12879
▁matching	-12880
▁Virtual	-12881
▁Complete	-12882
▁bench	-12883
▁notably	-12884
▁unwanted	-12885
▁commander	-12886
lux	-12887
uning	-12888
▁proc	-12889
▁spont	-12890
▁terrain	-12891
▁quoted	-12892
▁artic	-12893
▁compiled	-12894
▁Cand	-12895
▁spite	-12896
▁critically	-12897
▁epit	-12898
▁synthes	-12899
▁similarly	-12900
piece	-12901
▁connects	-12902
▁incentives	-12903
▁Hait	-12904
oriented	-12905
▁turtles	-12906
▁bapt	-12907
pen	-12908
▁Fox	-12909
itches	-12910
▁walked	-12911
rade	-12912
▁transported	-12913
▁gel	-12914
▁virtue	-12915
▁formats	-12916
▁seizures	-12917
amous	-12918
▁puzzle	-12919
▁individually	-12920
▁failing	-12921
kg	-12922
Lear	-12923
adows	-12924
▁Pred	-12925
▁adjusted	-12926
lihood	-12927
▁Used	-12928
▁Temper	-12929
▁veterinarian	-12930
▁uncons	-12931
▁feathers	-12932
zech	-12933
▁Citiz	-12934
▁bod	-12935
▁sixth	-12936
▁monetary	-12937
▁hob	-12938
▁Fest	-12939
ilibrium	-12940
▁citizenship	-12941
ATE	-12942
▁presentations	-12943
▁balls	-12944
▁microbi	-12945
▁Changes	-12946
aran	-12947
▁enroll	-12948
▁transit	-12949
▁Fif	-12950
▁Record	-12951
▁ruler	-12952
▁remedies	-12953
bin	-12954
pack	-12955
▁rebell	-12956
▁teenagers	-12957
▁accordingly	-12958
ifiers	-12959
▁clinic	-12960
▁Consequently	-12961
tr	-12962
matic	-12963
▁Academic	-12964
▁mitigate	-12965
unct	-12966
SE	-12967
food	-12968
▁Quant	-12969
▁noble	-12970
izophren	-12971
▁Manufact	-12972
▁breakthrough	-12973
▁planes	-12974
▁trillion	-12975
▁Verm	-12976
▁heading	-12977
▁urinary	-12978
depth	-12979
ulatory	-12980
▁retreat	-12981
ocur	-12982
▁ecl	-12983
▁dwarf	-12984
▁centres	-12985
usions	-12986
▁Organic	-12987
▁lowering	-12988
▁municipal	-12989
▁twentieth	-12990
▁birthday	-12991
▁DE	-12992
▁Northwest	-12993
▁maintains	-12994
▁permanently	-12995
▁Greeks	-12996
adi	-12997
▁underm	-12998
▁burial	-12999
▁promises	-13000
▁solved	-13001
▁Ever	-13002
▁nationwide	-13003
▁relaxation	-13004
IE	-13005
▁jewel	-13006
▁comprised	-13007
▁Ky	-13008
▁pm	-13009
▁Mosc	-13010
▁brut	-13011
imination	-13012
IH	-13013
▁hub	-13014
▁drum	-13015
▁crystals	-13016
▁disabled	-13017
▁Safe	-13018
▁witnessed	-13019
▁empir	-13020
▁riding	-13021
▁publish	-13022
▁strengthening	-13023
ricular	-13024
▁Posted	-13025
expl	-13026
▁Address	-13027
rost	-13028
▁triangle	-13029
▁Role	-13030
▁Howard	-13031
▁diamond	-13032
View	-13033
oglob	-13034
▁fusion	-13035
▁episodes	-13036
▁publishing	-13037
▁Planet	-13038
▁Description	-13039
aus	-13040
▁clarity	-13041
▁Mun	-13042
▁Parks	-13043
▁microscope	-13044
▁valued	-13045
▁tourists	-13046
▁fans	-13047
▁scarce	-13048
▁Dakota	-13049
▁touching	-13050
source	-13051
▁millenn	-13052
▁considers	-13053
▁recommendation	-13054
▁arom	-13055
▁urgent	-13056
itime	-13057
▁failures	-13058
▁Ts	-13059
two	-13060
urities	-13061
bling	-13062
▁clot	-13063
▁Denmark	-13064
▁CEO	-13065
▁anxious	-13066
▁coupled	-13067
▁rum	-13068
▁SQL	-13069
acerb	-13070
▁masks	-13071
▁prejud	-13072
▁instructional	-13073
▁oak	-13074
roscience	-13075
aga	-13076
▁ranks	-13077
▁Orthodox	-13078
▁colorful	-13079
▁appropriately	-13080
▁Measure	-13081
▁dispute	-13082
▁struggles	-13083
dered	-13084
▁Hug	-13085
▁Apart	-13086
▁sulfur	-13087
▁traces	-13088
▁Harry	-13089
▁shells	-13090
▁template	-13091
posure	-13092
▁networking	-13093
▁blend	-13094
▁nutrit	-13095
▁shower	-13096
With	-13097
site	-13098
▁oct	-13099
▁attribute	-13100
▁specify	-13101
mind	-13102
GA	-13103
▁amph	-13104
▁economically	-13105
▁peas	-13106
▁Dick	-13107
▁Base	-13108
expensive	-13109
▁acknowledged	-13110
▁Allow	-13111
▁naval	-13112
▁displace	-13113
▁disse	-13114
▁dot	-13115
▁judges	-13116
▁electroly	-13117
unes	-13118
▁dye	-13119
pher	-13120
educ	-13121
▁Chi	-13122
▁imped	-13123
▁harvested	-13124
▁Gram	-13125
▁ket	-13126
▁Chair	-13127
▁energ	-13128
▁pressing	-13129
▁factories	-13130
▁orch	-13131
▁Records	-13132
▁Dal	-13133
▁delicious	-13134
▁stain	-13135
▁Animals	-13136
rehend	-13137
▁clicking	-13138
▁cookies	-13139
▁Individuals	-13140
▁cyt	-13141
▁combines	-13142
▁disappeared	-13143
▁sits	-13144
▁hoping	-13145
▁watershed	-13146
▁Estab	-13147
▁emphasize	-13148
▁mant	-13149
▁EL	-13150
▁stool	-13151
▁Document	-13152
▁Der	-13153
pin	-13154
iatry	-13155
▁acidic	-13156
▁beverages	-13157
▁Christopher	-13158
orrh	-13159
▁pipeline	-13160
▁temples	-13161
▁SA	-13162
▁companion	-13163
▁rept	-13164
owed	-13165
▁Hold	-13166
OV	-13167
▁sake	-13168
▁consolid	-13169
▁hoped	-13170
▁troubles	-13171
▁compromise	-13172
lan	-13173
log	-13174
ouch	-13175
▁’	-13176
▁explicitly	-13177
aza	-13178
▁Various	-13179
▁trunk	-13180
▁stocks	-13181
By	-13182
▁bulb	-13183
▁desper	-13184
▁intens	-13185
▁lateral	-13186
▁Oral	-13187
hol	-13188
▁Peru	-13189
▁ultrasound	-13190
four	-13191
▁enrich	-13192
▁Dogs	-13193
▁Gand	-13194
▁infrared	-13195
▁curiosity	-13196
▁litter	-13197
▁translate	-13198
▁stro	-13199
▁perenn	-13200
▁Occup	-13201
▁investigating	-13202
second	-13203
▁treats	-13204
▁passages	-13205
▁garlic	-13206
▁potent	-13207
▁Adapt	-13208
▁Simply	-13209
ania	-13210
▁ram	-13211
▁frames	-13212
Res	-13213
rophy	-13214
week	-13215
agrams	-13216
culosis	-13217
PE	-13218
▁lasts	-13219
home	-13220
▁cargo	-13221
pub	-13222
▁Beng	-13223
esterday	-13224
▁Calcul	-13225
▁Range	-13226
▁aug	-13227
▁tonnes	-13228
▁sexually	-13229
▁requested	-13230
▁Alph	-13231
▁spider	-13232
Ab	-13233
▁homeless	-13234
▁alignment	-13235
▁spill	-13236
▁recognised	-13237
▁hay	-13238
▁inevitable	-13239
▁critics	-13240
bound	-13241
▁Brand	-13242
▁verify	-13243
▁demanding	-13244
some	-13245
▁ana	-13246
inters	-13247
▁adventure	-13248
aunt	-13249
▁Apollo	-13250
▁Bull	-13251
▁sanct	-13252
▁divisions	-13253
▁priorities	-13254
uated	-13255
▁Bron	-13256
ancies	-13257
▁Concept	-13258
oz	-13259
vasive	-13260
▁Lam	-13261
▁voy	-13262
dem	-13263
▁Wang	-13264
alling	-13265
▁phon	-13266
ige	-13267
▁modifications	-13268
▁holidays	-13269
atics	-13270
▁RF	-13271
▁preserving	-13272
▁lectures	-13273
▁intim	-13274
overs	-13275
▁secular	-13276
▁wre	-13277
TSD	-13278
▁Queens	-13279
▁storing	-13280
▁silk	-13281
▁biblical	-13282
▁trusted	-13283
▁freezing	-13284
▁dissolved	-13285
▁Price	-13286
birds	-13287
ili	-13288
▁straightforward	-13289
rative	-13290
▁schemes	-13291
▁Respons	-13292
▁retained	-13293
uto	-13294
▁Aware	-13295
stock	-13296
▁spotted	-13297
▁asteroid	-13298
▁exceptional	-13299
rator	-13300
▁climb	-13301
idel	-13302
▁easiest	-13303
doc	-13304
pres	-13305
abs	-13306
▁Hopkins	-13307
▁bush	-13308
▁Agreement	-13309
▁washed	-13310
▁Programme	-13311
▁responding	-13312
neath	-13313
uncture	-13314
▁Eu	-13315
building	-13316
▁exacerb	-13317
▁Antarctic	-13318
▁DS	-13319
▁consistency	-13320
▁dolph	-13321
▁flags	-13322
▁interconn	-13323
▁orth	-13324
▁editors	-13325
Fig	-13326
▁discount	-13327
▁cultivated	-13328
▁warfare	-13329
▁Ltd	-13330
▁Spect	-13331
▁priests	-13332
vised	-13333
▁blade	-13334
▁trash	-13335
▁examines	-13336
▁everybody	-13337
▁authentic	-13338
▁prelim	-13339
uce	-13340
▁exploitation	-13341
obacter	-13342
▁Guidelines	-13343
stan	-13344
▁mysterious	-13345
▁Dra	-13346
▁tire	-13347
▁learner	-13348
▁hes	-13349
▁lin	-13350
▁dupl	-13351
▁Tob	-13352
▁intoler	-13353
renal	-13354
▁Gib	-13355
▁scans	-13356
▁instinct	-13357
▁dermat	-13358
▁rip	-13359
▁tourist	-13360
▁illustrates	-13361
▁aggression	-13362
ocate	-13363
▁Thom	-13364
▁stew	-13365
▁Alt	-13366
▁maximize	-13367
▁alternate	-13368
▁consp	-13369
▁printer	-13370
▁Moscow	-13371
ipt	-13372
▁Cos	-13373
▁conditioning	-13374
▁horizon	-13375
ctica	-13376
▁congest	-13377
▁reproduce	-13378
▁Gab	-13379
▁letting	-13380
▁approaching	-13381
▁Federation	-13382
▁Abs	-13383
▁counseling	-13384
flower	-13385
▁Camb	-13386
keeping	-13387
▁Hi	-13388
acity	-13389
▁settlements	-13390
▁baseline	-13391
opsy	-13392
▁preliminary	-13393
▁sprou	-13394
▁wherever	-13395
style	-13396
▁Alber	-13397
sels	-13398
▁Rot	-13399
▁signature	-13400
▁ambit	-13401
▁abnormalities	-13402
ardo	-13403
▁metall	-13404
fram	-13405
▁mandatory	-13406
alia	-13407
cult	-13408
▁Bos	-13409
artz	-13410
count	-13411
▁rigid	-13412
▁deficit	-13413
▁encryption	-13414
▁Delhi	-13415
▁Production	-13416
▁jar	-13417
▁Hyper	-13418
▁glow	-13419
serv	-13420
▁preventive	-13421
▁Silver	-13422
irie	-13423
▁livelihood	-13424
Or	-13425
erk	-13426
▁counterparts	-13427
▁arrangements	-13428
▁microw	-13429
▁bol	-13430
▁Stop	-13431
▁ammon	-13432
▁cooler	-13433
▁attachment	-13434
nowned	-13435
ilage	-13436
▁Mercury	-13437
roximately	-13438
▁Issues	-13439
▁consec	-13440
▁shelf	-13441
▁Houston	-13442
ulas	-13443
▁oscill	-13444
▁glue	-13445
▁Nelson	-13446
▁forcing	-13447
axis	-13448
▁proposals	-13449
ograms	-13450
igating	-13451
▁Provide	-13452
iage	-13453
▁Palestine	-13454
▁plural	-13455
▁handled	-13456
▁isot	-13457
▁draws	-13458
▁asleep	-13459
bus	-13460
▁unsu	-13461
▁processor	-13462
▁traff	-13463
▁lion	-13464
▁bullet	-13465
▁emperor	-13466
▁weekend	-13467
▁Manual	-13468
▁Brother	-13469
▁satisfied	-13470
▁Clinic	-13471
▁alleg	-13472
▁poses	-13473
▁fantastic	-13474
aux	-13475
▁unconscious	-13476
▁baking	-13477
▁clues	-13478
achelor	-13479
John	-13480
ailand	-13481
▁Subject	-13482
▁parking	-13483
▁fracture	-13484
▁cum	-13485
▁variability	-13486
stud	-13487
▁Influ	-13488
▁gravitational	-13489
▁Columbus	-13490
prot	-13491
▁Cover	-13492
▁Dead	-13493
▁Lev	-13494
▁prediction	-13495
▁recreational	-13496
ocytes	-13497
breaking	-13498
tings	-13499
▁subjected	-13500
▁regards	-13501
▁Sad	-13502
▁Identify	-13503
▁IoT	-13504
▁ore	-13505
▁courtesy	-13506
▁transparency	-13507
ardless	-13508
▁Memory	-13509
▁Experts	-13510
imental	-13511
threatening	-13512
ilingual	-13513
▁grad	-13514
charge	-13515
▁spirits	-13516
▁Construction	-13517
▁Tel	-13518
▁metric	-13519
▁Eve	-13520
report	-13521
▁sanitation	-13522
▁contaminants	-13523
▁CC	-13524
pit	-13525
▁cortex	-13526
▁problematic	-13527
▁hanging	-13528
▁rust	-13529
▁tomorrow	-13530
▁coordinate	-13531
▁temporarily	-13532
vic	-13533
▁precautions	-13534
▁shoulders	-13535
path	-13536
ylene	-13537
▁assass	-13538
▁restaurant	-13539
▁Michel	-13540
▁radius	-13541
▁Late	-13542
▁Birth	-13543
▁Czech	-13544
▁filed	-13545
▁retired	-13546
▁respected	-13547
▁irritation	-13548
▁IBM	-13549
▁cruel	-13550
▁Sources	-13551
obia	-13552
som	-13553
▁eternal	-13554
▁Chris	-13555
▁stays	-13556
emen	-13557
fting	-13558
amation	-13559
▁Marshall	-13560
▁anyway	-13561
▁evolving	-13562
▁monaster	-13563
BL	-13564
ridge	-13565
oni	-13566
▁Seattle	-13567
▁adhes	-13568
▁pedest	-13569
▁Articles	-13570
▁bub	-13571
▁Nearly	-13572
▁Steve	-13573
▁dinosaurs	-13574
▁switching	-13575
▁iP	-13576
▁entries	-13577
▁beaches	-13578
▁obligations	-13579
▁Want	-13580
len	-13581
▁tutor	-13582
▁fluoride	-13583
▁shark	-13584
▁Colomb	-13585
▁timely	-13586
▁liber	-13587
▁elaborate	-13588
▁charity	-13589
▁Baltimore	-13590
▁medicinal	-13591
▁pad	-13592
▁Brig	-13593
▁Iceland	-13594
▁Ta	-13595
▁museums	-13596
▁organizational	-13597
note	-13598
▁Eric	-13599
▁compelling	-13600
▁arsen	-13601
▁upcoming	-13602
▁obtaining	-13603
▁strat	-13604
▁resolved	-13605
ESCO	-13606
▁reminder	-13607
via	-13608
▁Amb	-13609
▁eager	-13610
▁Joe	-13611
▁rival	-13612
▁dignity	-13613
▁foliage	-13614
▁fractures	-13615
▁Bishop	-13616
▁RA	-13617
▁negotiations	-13618
▁cubic	-13619
▁Maint	-13620
▁mitochond	-13621
▁HPV	-13622
▁withstand	-13623
▁phosphorus	-13624
PN	-13625
inge	-13626
▁noting	-13627
▁brands	-13628
ante	-13629
▁goddess	-13630
uz	-13631
▁laugh	-13632
▁Critical	-13633
▁primitive	-13634
▁vend	-13635
ensions	-13636
▁wishes	-13637
▁authorized	-13638
▁Margaret	-13639
▁Taiwan	-13640
▁Important	-13641
▁suspended	-13642
▁Cov	-13643
▁Everything	-13644
▁vic	-13645
▁ceiling	-13646
▁nearest	-13647
▁Gospel	-13648
ivic	-13649
▁acre	-13650
▁communicating	-13651
mother	-13652
▁mobil	-13653
▁couples	-13654
▁Europeans	-13655
▁Protect	-13656
▁exercising	-13657
▁peripheral	-13658
▁anemia	-13659
▁Increased	-13660
▁q	-13661
bes	-13662
▁Religion	-13663
▁supervision	-13664
▁aquarium	-13665
▁prohibited	-13666
▁burst	-13667
▁shortage	-13668
▁Lank	-13669
icates	-13670
▁wilderness	-13671
▁Friends	-13672
astically	-13673
leys	-13674
REE	-13675
▁Mort	-13676
▁metaphor	-13677
houses	-13678
▁trim	-13679
ulse	-13680
="	-13681
▁Titan	-13682
▁excite	-13683
▁Communications	-13684
width	-13685
▁shops	-13686
▁pursuit	-13687
▁grazing	-13688
▁Alexand	-13689
▁Frederick	-13690
▁Victorian	-13691
▁trucks	-13692
▁producer	-13693
▁USS	-13694
endix	-13695
▁adject	-13696
nest	-13697
leans	-13698
▁petroleum	-13699
▁united	-13700
▁comprises	-13701
▁inexpensive	-13702
▁Sierra	-13703
▁Forum	-13704
▁simpler	-13705
▁adulthood	-13706
▁surprisingly	-13707
▁Bart	-13708
▁lawyer	-13709
▁depressed	-13710
▁rituals	-13711
test	-13712
▁Collabor	-13713
▁resting	-13714
▁transcript	-13715
illes	-13716
▁Soon	-13717
▁Originally	-13718
▁entrepreneurs	-13719
▁unions	-13720
▁dive	-13721
▁organizing	-13722
▁pulling	-13723
hu	-13724
▁highway	-13725
▁VI	-13726
esthesia	-13727
▁carved	-13728
▁bloodstream	-13729
uter	-13730
▁toy	-13731
itat	-13732
▁queen	-13733
▁NAT	-13734
▁exit	-13735
▁Universal	-13736
▁purely	-13737
▁Swiss	-13738
▁reactor	-13739
▁Ka	-13740
▁Comment	-13741
▁sweat	-13742
▁Antarctica	-13743
olen	-13744
▁Teach	-13745
▁sharks	-13746
▁tragedy	-13747
▁Thailand	-13748
▁tent	-13749
▁Nevada	-13750
▁gig	-13751
onder	-13752
▁documentary	-13753
▁Tut	-13754
Sm	-13755
▁Application	-13756
isol	-13757
▁cylinder	-13758
▁nutritious	-13759
▁backgrounds	-13760
▁secured	-13761
▁limbs	-13762
▁crude	-13763
speed	-13764
▁ambitious	-13765
▁Pick	-13766
alin	-13767
cha	-13768
isan	-13769
▁Kid	-13770
▁mol	-13771
▁grocery	-13772
▁semic	-13773
imeters	-13774
izophrenia	-13775
unks	-13776
▁landed	-13777
▁Susan	-13778
▁sins	-13779
▁dirty	-13780
▁hect	-13781
▁cleaner	-13782
fin	-13783
upuncture	-13784
▁arises	-13785
▁shrubs	-13786
▁monarch	-13787
▁Few	-13788
▁Performance	-13789
▁stressful	-13790
▁Side	-13791
▁reflecting	-13792
▁textbook	-13793
Why	-13794
▁lightning	-13795
mel	-13796
▁specially	-13797
gree	-13798
▁Olympic	-13799
▁commissioned	-13800
▁elephant	-13801
pay	-13802
▁occasional	-13803
▁Letters	-13804
▁contacts	-13805
▁Juda	-13806
▁prize	-13807
▁memorial	-13808
▁Tools	-13809
▁Stra	-13810
▁Cart	-13811
ifiable	-13812
▁formally	-13813
▁compatible	-13814
▁disappoint	-13815
minute	-13816
MM	-13817
▁Nile	-13818
gencies	-13819
process	-13820
▁Truth	-13821
▁visually	-13822
herence	-13823
▁strongest	-13824
▁estrogen	-13825
▁descent	-13826
▁Factors	-13827
ti	-13828
▁Protestant	-13829
ignty	-13830
ocide	-13831
▁Square	-13832
▁Khan	-13833
▁asym	-13834
retion	-13835
▁proximity	-13836
ativity	-13837
▁Vision	-13838
▁adjustments	-13839
▁besides	-13840
▁silence	-13841
▁confusing	-13842
▁hotel	-13843
▁Drag	-13844
▁Ped	-13845
espan	-13846
▁deaf	-13847
pa	-13848
▁Seven	-13849
▁fright	-13850
▁Ecology	-13851
▁bureau	-13852
istle	-13853
▁picking	-13854
▁substrate	-13855
opa	-13856
▁apnea	-13857
laim	-13858
▁mad	-13859
comput	-13860
▁Database	-13861
▁coping	-13862
cost	-13863
▁Hud	-13864
▁woods	-13865
▁exceptions	-13866
ulph	-13867
▁Save	-13868
▁Knowing	-13869
▁momentum	-13870
▁Rule	-13871
▁pear	-13872
▁packages	-13873
▁illustration	-13874
▁lucky	-13875
▁shame	-13876
▁Band	-13877
omnia	-13878
▁Egg	-13879
owing	-13880
gly	-13881
▁Rat	-13882
orse	-13883
Ne	-13884
▁Observatory	-13885
▁reass	-13886
▁cables	-13887
▁Liver	-13888
Int	-13889
▁Saud	-13890
▁barely	-13891
▁brushing	-13892
elong	-13893
▁deriv	-13894
adian	-13895
gia	-13896
esthet	-13897
eat	-13898
▁seism	-13899
aman	-13900
▁matches	-13901
▁carn	-13902
aceous	-13903
▁Guinea	-13904
▁animation	-13905
▁sequencing	-13906
▁shots	-13907
▁fisheries	-13908
▁Anglo	-13909
rians	-13910
▁vascular	-13911
▁parameter	-13912
▁Task	-13913
▁disagree	-13914
elle	-13915
ilepsy	-13916
▁Veget	-13917
▁microorganisms	-13918
odus	-13919
▁tactics	-13920
▁resort	-13921
▁Imple	-13922
walk	-13923
▁pulmonary	-13924
▁bites	-13925
▁palace	-13926
▁Advis	-13927
▁Continue	-13928
▁membranes	-13929
▁Ethiopia	-13930
ryst	-13931
mi	-13932
bola	-13933
▁Pun	-13934
LY	-13935
.(	-13936
▁supporters	-13937
elta	-13938
▁spectacular	-13939
▁Chron	-13940
▁herbal	-13941
▁yards	-13942
▁reefs	-13943
forming	-13944
conscious	-13945
ioned	-13946
▁drama	-13947
▁perceptions	-13948
▁civilian	-13949
▁Orleans	-13950
▁Ultimately	-13951
▁EX	-13952
▁HE	-13953
▁Reports	-13954
▁neighborhoods	-13955
▁advise	-13956
▁Coord	-13957
▁modification	-13958
▁attorney	-13959
▁imperative	-13960
▁Thor	-13961
opard	-13962
▁uterus	-13963
edic	-13964
▁sufficiently	-13965
▁iv	-13966
▁Ga	-13967
▁Hispanic	-13968
▁acne	-13969
▁recognizing	-13970
▁pile	-13971
▁reconstruct	-13972
▁LE	-13973
estab	-13974
▁nights	-13975
acterial	-13976
▁veterans	-13977
WA	-13978
uru	-13979
anny	-13980
ollen	-13981
utter	-13982
▁Monitoring	-13983
▁petition	-13984
▁underneath	-13985
math	-13986
▁respondents	-13987
▁excluded	-13988
ERE	-13989
ysics	-13990
▁Isaac	-13991
▁gauge	-13992
▁aligned	-13993
othel	-13994
▁Mason	-13995
▁treasure	-13996
chy	-13997
ringe	-13998
▁Tow	-13999
▁mas	-14000
▁sticks	-14001
▁pathogen	-14002
▁rewards	-14003
▁sap	-14004
▁flee	-14005
▁Cognitive	-14006
▁Gord	-14007
▁epidem	-14008
▁assembled	-14009
▁shifting	-14010
tha	-14011
▁Breast	-14012
▁da	-14013
▁Shel	-14014
▁marijuana	-14015
▁climates	-14016
▁corrosion	-14017
▁welding	-14018
▁synchron	-14019
▁lamp	-14020
▁Gender	-14021
▁firmly	-14022
nutrition	-14023
▁Written	-14024
▁Own	-14025
▁Member	-14026
hn	-14027
raulic	-14028
▁formerly	-14029
ousing	-14030
▁Cas	-14031
▁elite	-14032
▁quotes	-14033
▁disciples	-14034
▁McD	-14035
▁tie	-14036
▁Infant	-14037
▁kern	-14038
▁pocket	-14039
▁Sudan	-14040
▁linguistic	-14041
▁apost	-14042
▁fibre	-14043
▁thir	-14044
▁afterwards	-14045
▁Surgery	-14046
lie	-14047
▁citation	-14048
▁conception	-14049
▁leather	-14050
▁obligation	-14051
▁Lang	-14052
▁Photos	-14053
▁Ori	-14054
TO	-14055
▁questionna	-14056
pill	-14057
▁macro	-14058
▁Programs	-14059
▁passwords	-14060
▁astronomy	-14061
iw	-14062
▁Peninsula	-14063
prises	-14064
▁Categ	-14065
▁piv	-14066
▁Fu	-14067
▁submar	-14068
▁Roberts	-14069
▁wellness	-14070
raviolet	-14071
▁composite	-14072
ository	-14073
▁satisfy	-14074
▁Disorders	-14075
▁ministry	-14076
▁rainforest	-14077
lad	-14078
▁credits	-14079
▁dorm	-14080
ardship	-14081
▁farther	-14082
▁garbage	-14083
▁variants	-14084
▁suppliers	-14085
▁limb	-14086
▁declining	-14087
▁balloon	-14088
▁ib	-14089
limited	-14090
▁revision	-14091
▁Ru	-14092
▁volcano	-14093
App	-14094
erce	-14095
▁Tun	-14096
▁Keeping	-14097
▁Plat	-14098
▁Birds	-14099
ho	-14100
▁Napole	-14101
▁maturity	-14102
▁Clinton	-14103
urate	-14104
▁foam	-14105
▁societal	-14106
▁turbine	-14107
▁administrators	-14108
▁activation	-14109
▁keen	-14110
▁moder	-14111
▁incons	-14112
▁alleviate	-14113
▁daughters	-14114
▁hits	-14115
▁Whatever	-14116
din	-14117
market	-14118
▁Geographic	-14119
rades	-14120
dose	-14121
▁accessibility	-14122
card	-14123
mans	-14124
▁craw	-14125
▁appar	-14126
▁abortion	-14127
▁Autism	-14128
▁Likewise	-14129
pop	-14130
▁analytical	-14131
weg	-14132
riages	-14133
▁fastest	-14134
▁rhet	-14135
▁Nepal	-14136
▁deciding	-14137
xiety	-14138
izable	-14139
▁meg	-14140
imated	-14141
▁targeting	-14142
▁cruc	-14143
▁wolf	-14144
aro	-14145
▁IL	-14146
▁Recon	-14147
▁Private	-14148
▁walks	-14149
▁vein	-14150
▁hurricane	-14151
▁unint	-14152
rings	-14153
▁parish	-14154
▁Nag	-14155
▁fathers	-14156
▁Discover	-14157
▁simulations	-14158
▁Yale	-14159
▁lips	-14160
▁definitive	-14161
▁kills	-14162
rod	-14163
▁Left	-14164
▁Links	-14165
▁variant	-14166
▁overnight	-14167
▁iod	-14168
▁desires	-14169
insic	-14170
▁Money	-14171
▁feeds	-14172
▁________	-14173
▁Principles	-14174
▁fitted	-14175
▁None	-14176
▁Mobile	-14177
▁interven	-14178
▁dop	-14179
▁Communist	-14180
▁Born	-14181
usually	-14182
▁poster	-14183
▁exports	-14184
▁nests	-14185
▁advocacy	-14186
▁Awareness	-14187
▁Cris	-14188
▁..	-14189
▁duct	-14190
▁gover	-14191
▁neighboring	-14192
▁stresses	-14193
▁hollow	-14194
▁runoff	-14195
▁autoimmune	-14196
▁chromosome	-14197
▁Applied	-14198
▁chop	-14199
▁Active	-14200
▁Publication	-14201
▁tags	-14202
▁Puerto	-14203
fund	-14204
▁periodic	-14205
)?	-14206
%),	-14207
▁exhibits	-14208
▁parental	-14209
ijing	-14210
▁offensive	-14211
gets	-14212
▁pist	-14213
due	-14214
▁pesticide	-14215
▁meta	-14216
▁eruption	-14217
▁hiding	-14218
▁scratch	-14219
▁singular	-14220
▁Express	-14221
▁practically	-14222
▁humanitarian	-14223
▁odor	-14224
▁hosted	-14225
▁upt	-14226
▁Manager	-14227
▁Josh	-14228
▁Aristot	-14229
▁Applications	-14230
▁kindergarten	-14231
▁flights	-14232
ulator	-14233
▁endless	-14234
▁boiling	-14235
▁Response	-14236
prof	-14237
▁Infect	-14238
▁microbial	-14239
▁plag	-14240
▁flame	-14241
▁elephants	-14242
▁simplest	-14243
disciplinary	-14244
▁defence	-14245
yst	-14246
▁boom	-14247
▁cleaned	-14248
▁comply	-14249
▁vet	-14250
▁Products	-14251
▁fox	-14252
astes	-14253
bot	-14254
▁Pent	-14255
▁Babylon	-14256
▁constell	-14257
▁turbines	-14258
▁reductions	-14259
HC	-14260
▁esoph	-14261
▁Lack	-14262
▁Donald	-14263
▁Notice	-14264
otine	-14265
▁administer	-14266
▁astronauts	-14267
TE	-14268
heumat	-14269
▁portrait	-14270
▁Elementary	-14271
▁tender	-14272
learning	-14273
▁deny	-14274
▁Artificial	-14275
▁climbing	-14276
▁guaranteed	-14277
▁laying	-14278
▁lemon	-14279
▁Solomon	-14280
▁neurot	-14281
▁CBD	-14282
▁Legal	-14283
▁Anthony	-14284
▁wondering	-14285
▁allies	-14286
▁enforce	-14287
itol	-14288
▁Employ	-14289
▁Molecular	-14290
▁Discovery	-14291
▁hell	-14292
oubted	-14293
ignant	-14294
▁Row	-14295
▁protests	-14296
▁toes	-14297
▁gloves	-14298
▁advertise	-14299
▁worthy	-14300
▁differs	-14301
▁geological	-14302
▁valves	-14303
▁Literacy	-14304
ml	-14305
eer	-14306
▁retirement	-14307
esar	-14308
▁Robinson	-14309
ship	-14310
lighten	-14311
control	-14312
▁Size	-14313
▁coronary	-14314
▁Developing	-14315
never	-14316
▁Buff	-14317
▁curt	-14318
▁Strong	-14319
rategy	-14320
ubric	-14321
▁cannabis	-14322
▁linking	-14323
▁propri	-14324
▁durable	-14325
▁Alb	-14326
▁introduces	-14327
▁cosmic	-14328
▁commercially	-14329
▁monop	-14330
▁deck	-14331
▁radicals	-14332
▁Rio	-14333
▁Harris	-14334
▁automation	-14335
▁calculator	-14336
generative	-14337
▁fiscal	-14338
▁occupational	-14339
▁spreads	-14340
folio	-14341
▁ethanol	-14342
▁Americas	-14343
▁sq	-14344
▁talent	-14345
▁gradual	-14346
▁squee	-14347
GR	-14348
▁Progress	-14349
▁specimen	-14350
utenant	-14351
▁Challenge	-14352
▁pots	-14353
▁buffer	-14354
▁Illust	-14355
▁Worksheets	-14356
▁appearing	-14357
▁Dh	-14358
▁installing	-14359
SD	-14360
▁Motor	-14361
▁Finland	-14362
▁query	-14363
▁participant	-14364
▁salary	-14365
▁voted	-14366
▁headquarters	-14367
when	-14368
welling	-14369
▁reluct	-14370
▁aesthetic	-14371
▁Senior	-14372
strong	-14373
▁breastfeeding	-14374
▁Stew	-14375
▁execute	-14376
enc	-14377
ista	-14378
amboo	-14379
▁Laur	-14380
▁Transportation	-14381
▁Princeton	-14382
▁Bry	-14383
edience	-14384
▁diabetic	-14385
▁Pic	-14386
▁relevance	-14387
▁Inj	-14388
▁induce	-14389
▁Argentina	-14390
▁verses	-14391
▁Webs	-14392
eted	-14393
▁blocking	-14394
▁overseas	-14395
cked	-14396
▁Alan	-14397
▁nesting	-14398
▁cavities	-14399
▁Mike	-14400
rencies	-14401
▁Institutes	-14402
▁quit	-14403
▁Fast	-14404
direct	-14405
▁Belgium	-14406
▁claiming	-14407
▁tomato	-14408
▁Brun	-14409
holder	-14410
▁crimin	-14411
oria	-14412
size	-14413
▁renowned	-14414
▁kick	-14415
▁arrow	-14416
▁upward	-14417
osynthesis	-14418
▁dealt	-14419
▁correction	-14420
ivated	-14421
alry	-14422
mont	-14423
▁Speech	-14424
))	-14425
▁accelerate	-14426
▁recruit	-14427
iller	-14428
lessness	-14429
▁fifteen	-14430
points	-14431
▁Doctors	-14432
brates	-14433
▁Classroom	-14434
▁Trail	-14435
▁Phase	-14436
ounding	-14437
▁elastic	-14438
▁tablet	-14439
▁Wat	-14440
▁destroying	-14441
▁Mir	-14442
viously	-14443
▁Batt	-14444
▁equilibrium	-14445
▁Gallery	-14446
irts	-14447
▁deter	-14448
▁knife	-14449
▁accountability	-14450
▁nour	-14451
osterone	-14452
▁rif	-14453
ROM	-14454
▁marking	-14455
▁infinite	-14456
sea	-14457
▁cooperative	-14458
icultural	-14459
▁fungal	-14460
▁anatomy	-14461
▁boil	-14462
▁lady	-14463
▁conve	-14464
SC	-14465
▁baseball	-14466
▁butterflies	-14467
▁refuse	-14468
itated	-14469
ivia	-14470
▁coloring	-14471
▁sie	-14472
▁mentally	-14473
▁grasses	-14474
yg	-14475
▁Arabia	-14476
▁planetary	-14477
▁fut	-14478
▁greens	-14479
iper	-14480
mitt	-14481
▁UNESCO	-14482
▁catalog	-14483
▁multiply	-14484
▁Phill	-14485
▁traced	-14486
roit	-14487
versely	-14488
▁Register	-14489
▁Interestingly	-14490
▁deforestation	-14491
system	-14492
▁loves	-14493
▁Cyber	-14494
▁Letter	-14495
▁Against	-14496
▁Workers	-14497
▁feasible	-14498
▁salvation	-14499
▁holistic	-14500
aders	-14501
▁tales	-14502
▁Advent	-14503
▁guitar	-14504
▁mindfulness	-14505
▁Electronic	-14506
▁caregivers	-14507
▁Avenue	-14508
▁Regardless	-14509
▁Effective	-14510
▁Sah	-14511
▁expressing	-14512
uliar	-14513
thirds	-14514
▁gam	-14515
▁stimulus	-14516
▁righteous	-14517
▁Ig	-14518
▁neurop	-14519
▁recognise	-14520
▁envelop	-14521
▁abst	-14522
headed	-14523
▁expose	-14524
▁athe	-14525
▁kilometres	-14526
?)	-14527
▁bru	-14528
▁transist	-14529
▁Canal	-14530
gage	-14531
▁advancement	-14532
▁wolves	-14533
▁gym	-14534
▁inferior	-14535
▁numerical	-14536
▁receiver	-14537
isite	-14538
▁eleg	-14539
▁declare	-14540
▁terrestrial	-14541
▁liked	-14542
▁convenience	-14543
open	-14544
▁newer	-14545
▁Ali	-14546
▁twin	-14547
▁Epid	-14548
▁Galile	-14549
▁emphasized	-14550
▁umb	-14551
▁deposit	-14552
▁adaptive	-14553
▁LA	-14554
erers	-14555
▁judicial	-14556
▁liquids	-14557
▁batt	-14558
PubMed	-14559
▁corrupt	-14560
▁Waste	-14561
▁sooner	-14562
▁Channel	-14563
▁Zone	-14564
▁Strategy	-14565
▁Solutions	-14566
etric	-14567
▁Acts	-14568
oubtedly	-14569
lywood	-14570
▁Server	-14571
▁dynasty	-14572
▁Institution	-14573
▁Ker	-14574
▁Value	-14575
▁philosopher	-14576
ighting	-14577
▁cigarettes	-14578
▁Anyone	-14579
▁cryptocur	-14580
ometry	-14581
▁venture	-14582
▁approached	-14583
▁profiles	-14584
▁motors	-14585
▁tsun	-14586
▁worm	-14587
▁utilities	-14588
ccoli	-14589
▁SH	-14590
▁uncon	-14591
▁injected	-14592
▁NA	-14593
ulsive	-14594
▁Finding	-14595
IB	-14596
cap	-14597
▁partnerships	-14598
group	-14599
▁dehydration	-14600
opause	-14601
telling	-14602
▁resemble	-14603
▁cartilage	-14604
▁slic	-14605
ussion	-14606
▁Concer	-14607
▁Commonwealth	-14608
▁centered	-14609
▁Eight	-14610
▁menstrual	-14611
chell	-14612
[...]
